node {
  name: "global_step/Initializer/zeros"
  op: "Const"
  attr {
    key: "_class"
    value {
      list {
        s: "loc:@global_step"
      }
    }
  }
  attr {
    key: "_output_shapes"
    value {
      list {
        shape {
        }
      }
    }
  }
  attr {
    key: "dtype"
    value {
      type: DT_INT64
    }
  }
  attr {
    key: "value"
    value {
      tensor {
        dtype: DT_INT64
        tensor_shape {
        }
        int64_val: 0
      }
    }
  }
}
node {
  name: "global_step"
  op: "VariableV2"
  attr {
    key: "_class"
    value {
      list {
        s: "loc:@global_step"
      }
    }
  }
  attr {
    key: "_output_shapes"
    value {
      list {
        shape {
        }
      }
    }
  }
  attr {
    key: "container"
    value {
      s: ""
    }
  }
  attr {
    key: "dtype"
    value {
      type: DT_INT64
    }
  }
  attr {
    key: "shape"
    value {
      shape {
      }
    }
  }
  attr {
    key: "shared_name"
    value {
      s: ""
    }
  }
}
node {
  name: "global_step/Assign"
  op: "Assign"
  input: "global_step"
  input: "global_step/Initializer/zeros"
  attr {
    key: "T"
    value {
      type: DT_INT64
    }
  }
  attr {
    key: "_class"
    value {
      list {
        s: "loc:@global_step"
      }
    }
  }
  attr {
    key: "_output_shapes"
    value {
      list {
        shape {
        }
      }
    }
  }
  attr {
    key: "use_locking"
    value {
      b: true
    }
  }
  attr {
    key: "validate_shape"
    value {
      b: true
    }
  }
}
node {
  name: "global_step/read"
  op: "Identity"
  input: "global_step"
  attr {
    key: "T"
    value {
      type: DT_INT64
    }
  }
  attr {
    key: "_class"
    value {
      list {
        s: "loc:@global_step"
      }
    }
  }
  attr {
    key: "_output_shapes"
    value {
      list {
        shape {
        }
      }
    }
  }
}
node {
  name: "IsVariableInitialized"
  op: "IsVariableInitialized"
  input: "global_step"
  attr {
    key: "_class"
    value {
      list {
        s: "loc:@global_step"
      }
    }
  }
  attr {
    key: "_output_shapes"
    value {
      list {
        shape {
        }
      }
    }
  }
  attr {
    key: "dtype"
    value {
      type: DT_INT64
    }
  }
}
node {
  name: "cond/Switch"
  op: "Switch"
  input: "IsVariableInitialized"
  input: "IsVariableInitialized"
  attr {
    key: "T"
    value {
      type: DT_BOOL
    }
  }
  attr {
    key: "_output_shapes"
    value {
      list {
        shape {
        }
        shape {
        }
      }
    }
  }
}
node {
  name: "cond/switch_t"
  op: "Identity"
  input: "cond/Switch:1"
  attr {
    key: "T"
    value {
      type: DT_BOOL
    }
  }
  attr {
    key: "_output_shapes"
    value {
      list {
        shape {
        }
      }
    }
  }
}
node {
  name: "cond/switch_f"
  op: "Identity"
  input: "cond/Switch"
  attr {
    key: "T"
    value {
      type: DT_BOOL
    }
  }
  attr {
    key: "_output_shapes"
    value {
      list {
        shape {
        }
      }
    }
  }
}
node {
  name: "cond/pred_id"
  op: "Identity"
  input: "IsVariableInitialized"
  attr {
    key: "T"
    value {
      type: DT_BOOL
    }
  }
  attr {
    key: "_output_shapes"
    value {
      list {
        shape {
        }
      }
    }
  }
}
node {
  name: "cond/read/Switch"
  op: "RefSwitch"
  input: "global_step"
  input: "cond/pred_id"
  attr {
    key: "T"
    value {
      type: DT_INT64
    }
  }
  attr {
    key: "_class"
    value {
      list {
        s: "loc:@global_step"
      }
    }
  }
  attr {
    key: "_output_shapes"
    value {
      list {
        shape {
        }
        shape {
        }
      }
    }
  }
}
node {
  name: "cond/read"
  op: "Identity"
  input: "cond/read/Switch:1"
  attr {
    key: "T"
    value {
      type: DT_INT64
    }
  }
  attr {
    key: "_output_shapes"
    value {
      list {
        shape {
        }
      }
    }
  }
}
node {
  name: "cond/Switch_1"
  op: "Switch"
  input: "global_step/Initializer/zeros"
  input: "cond/pred_id"
  attr {
    key: "T"
    value {
      type: DT_INT64
    }
  }
  attr {
    key: "_class"
    value {
      list {
        s: "loc:@global_step"
      }
    }
  }
  attr {
    key: "_output_shapes"
    value {
      list {
        shape {
        }
        shape {
        }
      }
    }
  }
}
node {
  name: "cond/Merge"
  op: "Merge"
  input: "cond/Switch_1"
  input: "cond/read"
  attr {
    key: "N"
    value {
      i: 2
    }
  }
  attr {
    key: "T"
    value {
      type: DT_INT64
    }
  }
  attr {
    key: "_output_shapes"
    value {
      list {
        shape {
        }
        shape {
        }
      }
    }
  }
}
node {
  name: "add/y"
  op: "Const"
  attr {
    key: "_output_shapes"
    value {
      list {
        shape {
        }
      }
    }
  }
  attr {
    key: "dtype"
    value {
      type: DT_INT64
    }
  }
  attr {
    key: "value"
    value {
      tensor {
        dtype: DT_INT64
        tensor_shape {
        }
        int64_val: 0
      }
    }
  }
}
node {
  name: "add"
  op: "Add"
  input: "cond/Merge"
  input: "add/y"
  attr {
    key: "T"
    value {
      type: DT_INT64
    }
  }
  attr {
    key: "_output_shapes"
    value {
      list {
        shape {
        }
      }
    }
  }
}
node {
  name: "Const"
  op: "Const"
  device: "/device:CPU:0"
  attr {
    key: "_output_shapes"
    value {
      list {
        shape {
          dim {
            size: 537
          }
        }
      }
    }
  }
  attr {
    key: "dtype"
    value {
      type: DT_INT64
    }
  }
  attr {
    key: "value"
    value {
      tensor {
        dtype: DT_INT64
        tensor_shape {
          dim {
            size: 537
          }
        }
        tensor_content: "\t\000\000\000\000\000\000\000\n\000\000\000\000\000\000\000\014\000\000\000\000\000\000\000\010\000\000\000\000\000\000\000\t\000\000\000\000\000\000\000\013\000\000\000\000\000\000\000\016\000\000\000\000\000\000\000\016\000\000\000\000\000\000\000\007\000\000\000\000\000\000\000\013\000\000\000\000\000\000\000\r\000\000\000\000\000\000\000\n\000\000\000\000\000\000\000\r\000\000\000\000\000\000\000\014\000\000\000\000\000\000\000\r\000\000\000\000\000\000\000\007\000\000\000\000\000\000\000\016\000\000\000\000\000\000\000\t\000\000\000\000\000\000\000\r\000\000\000\000\000\000\000\017\000\000\000\000\000\000\000\014\000\000\000\000\000\000\000\017\000\000\000\000\000\000\000\r\000\000\000\000\000\000\000\t\000\000\000\000\000\000\000\007\000\000\000\000\000\000\000\017\000\000\000\000\000\000\000\t\000\000\000\000\000\000\000\016\000\000\000\000\000\000\000\014\000\000\000\000\000\000\000\013\000\000\000\000\000\000\000\007\000\000\000\000\000\000\000\t\000\000\000\000\000\000\000\n\000\000\000\000\000\000\000\r\000\000\000\000\000\000\000\014\000\000\000\000\000\000\000\013\000\000\000\000\000\000\000\n\000\000\000\000\000\000\000\010\000\000\000\000\000\000\000\014\000\000\000\000\000\000\000\r\000\000\000\000\000\000\000\014\000\000\000\000\000\000\000\013\000\000\000\000\000\000\000\r\000\000\000\000\000\000\000\017\000\000\000\000\000\000\000\t\000\000\000\000\000\000\000\010\000\000\000\000\000\000\000\t\000\000\000\000\000\000\000\014\000\000\000\000\000\000\000\016\000\000\000\000\000\000\000\013\000\000\000\000\000\000\000\017\000\000\000\000\000\000\000\017\000\000\000\000\000\000\000\014\000\000\000\000\000\000\000\007\000\000\000\000\000\000\000\n\000\000\000\000\000\000\000\013\000\000\000\000\000\000\000\t\000\000\000\000\000\000\000\r\000\000\000\000\000\000\000\017\000\000\000\000\000\000\000\n\000\000\000\000\000\000\000\010\000\000\000\000\000\000\000\014\000\000\000\000\000\000\000\016\000\000\000\000\000\000\000\013\000\000\000\000\000\000\000\t\000\000\000\000\000\000\000\017\000\000\000\000\000\000\000\r\000\000\000\000\000\000\000\017\000\000\000\000\000\000\000\014\000\000\000\000\000\000\000\013\000\000\000\000\000\000\000\017\000\000\000\000\000\000\000\017\000\000\000\000\000\000\000\010\000\000\000\000\000\000\000\t\000\000\000\000\000\000\000\t\000\000\000\000\000\000\000\t\000\000\000\000\000\000\000\t\000\000\000\000\000\000\000\t\000\000\000\000\000\000\000\t\000\000\000\000\000\000\000\013\000\000\000\000\000\000\000\n\000\000\000\000\000\000\000\t\000\000\000\000\000\000\000\010\000\000\000\000\000\000\000\r\000\000\000\000\000\000\000\n\000\000\000\000\000\000\000\t\000\000\000\000\000\000\000\t\000\000\000\000\000\000\000\007\000\000\000\000\000\000\000\013\000\000\000\000\000\000\000\n\000\000\000\000\000\000\000\014\000\000\000\000\000\000\000\n\000\000\000\000\000\000\000\n\000\000\000\000\000\000\000\n\000\000\000\000\000\000\000\t\000\000\000\000\000\000\000\007\000\000\000\000\000\000\000\n\000\000\000\000\000\000\000\016\000\000\000\000\000\000\000\n\000\000\000\000\000\000\000\n\000\000\000\000\000\000\000\014\000\000\000\000\000\000\000\017\000\000\000\000\000\000\000\016\000\000\000\000\000\000\000\r\000\000\000\000\000\000\000\014\000\000\000\000\000\000\000\016\000\000\000\000\000\000\000\n\000\000\000\000\000\000\000\013\000\000\000\000\000\000\000\017\000\000\000\000\000\000\000\010\000\000\000\000\000\000\000\017\000\000\000\000\000\000\000\007\000\000\000\000\000\000\000\t\000\000\000\000\000\000\000\t\000\000\000\000\000\000\000\n\000\000\000\000\000\000\000\r\000\000\000\000\000\000\000\013\000\000\000\000\000\000\000\n\000\000\000\000\000\000\000\t\000\000\000\000\000\000\000\r\000\000\000\000\000\000\000\n\000\000\000\000\000\000\000\014\000\000\000\000\000\000\000\r\000\000\000\000\000\000\000\010\000\000\000\000\000\000\000\t\000\000\000\000\000\000\000\n\000\000\000\000\000\000\000\r\000\000\000\000\000\000\000\t\000\000\000\000\000\000\000\014\000\000\000\000\000\000\000\t\000\000\000\000\000\000\000\016\000\000\000\000\000\000\000\t\000\000\000\000\000\000\000\017\000\000\000\000\000\000\000\r\000\000\000\000\000\000\000\010\000\000\000\000\000\000\000\010\000\000\000\000\000\000\000\017\000\000\000\000\000\000\000\r\000\000\000\000\000\000\000\016\000\000\000\000\000\000\000\013\000\000\000\000\000\000\000\n\000\000\000\000\000\000\000\010\000\000\000\000\000\000\000\005\000\000\000\000\000\000\000\r\000\000\000\000\000\000\000\014\000\000\000\000\000\000\000\014\000\000\000\000\000\000\000\014\000\000\000\000\000\000\000\010\000\000\000\000\000\000\000\017\000\000\000\000\000\000\000\016\000\000\000\000\000\000\000\017\000\000\000\000\000\000\000\r\000\000\000\000\000\000\000\t\000\000\000\000\000\000\000\013\000\000\000\000\000\000\000\014\000\000\000\000\000\000\000\014\000\000\000\000\000\000\000\007\000\000\000\000\000\000\000\006\000\000\000\000\000\000\000\n\000\000\000\000\000\000\000\014\000\000\000\000\000\000\000\r\000\000\000\000\000\000\000\016\000\000\000\000\000\000\000\013\000\000\000\000\000\000\000\r\000\000\000\000\000\000\000\r\000\000\000\000\000\000\000\r\000\000\000\000\000\000\000\010\000\000\000\000\000\000\000\t\000\000\000\000\000\000\000\017\000\000\000\000\000\000\000\r\000\000\000\000\000\000\000\010\000\000\000\000\000\000\000\010\000\000\000\000\000\000\000\007\000\000\000\000\000\000\000\r\000\000\000\000\000\000\000\006\000\000\000\000\000\000\000\016\000\000\000\000\000\000\000\013\000\000\000\000\000\000\000\r\000\000\000\000\000\000\000\016\000\000\000\000\000\000\000\013\000\000\000\000\000\000\000\016\000\000\000\000\000\000\000\014\000\000\000\000\000\000\000\n\000\000\000\000\000\000\000\013\000\000\000\000\000\000\000\013\000\000\000\000\000\000\000\013\000\000\000\000\000\000\000\r\000\000\000\000\000\000\000\r\000\000\000\000\000\000\000\r\000\000\000\000\000\000\000\r\000\000\000\000\000\000\000\014\000\000\000\000\000\000\000\017\000\000\000\000\000\000\000\013\000\000\000\000\000\000\000\014\000\000\000\000\000\000\000\017\000\000\000\000\000\000\000\n\000\000\000\000\000\000\000\t\000\000\000\000\000\000\000\013\000\000\000\000\000\000\000\013\000\000\000\000\000\000\000\r\000\000\000\000\000\000\000\010\000\000\000\000\000\000\000\016\000\000\000\000\000\000\000\016\000\000\000\000\000\000\000\006\000\000\000\000\000\000\000\r\000\000\000\000\000\000\000\t\000\000\000\000\000\000\000\013\000\000\000\000\000\000\000\013\000\000\000\000\000\000\000\013\000\000\000\000\000\000\000\t\000\000\000\000\000\000\000\007\000\000\000\000\000\000\000\r\000\000\000\000\000\000\000\r\000\000\000\000\000\000\000\013\000\000\000\000\000\000\000\t\000\000\000\000\000\000\000\007\000\000\000\000\000\000\000\n\000\000\000\000\000\000\000\017\000\000\000\000\000\000\000\006\000\000\000\000\000\000\000\017\000\000\000\000\000\000\000\016\000\000\000\000\000\000\000\014\000\000\000\000\000\000\000\t\000\000\000\000\000\000\000\t\000\000\000\000\000\000\000\t\000\000\000\000\000\000\000\n\000\000\000\000\000\000\000\013\000\000\000\000\000\000\000\t\000\000\000\000\000\000\000\t\000\000\000\000\000\000\000\r\000\000\000\000\000\000\000\t\000\000\000\000\000\000\000\n\000\000\000\000\000\000\000\n\000\000\000\000\000\000\000\013\000\000\000\000\000\000\000\n\000\000\000\000\000\000\000\016\000\000\000\000\000\000\000\010\000\000\000\000\000\000\000\010\000\000\000\000\000\000\000\n\000\000\000\000\000\000\000\n\000\000\000\000\000\000\000\006\000\000\000\000\000\000\000\014\000\000\000\000\000\000\000\n\000\000\000\000\000\000\000\014\000\000\000\000\000\000\000\014\000\000\000\000\000\000\000\r\000\000\000\000\000\000\000\017\000\000\000\000\000\000\000\r\000\000\000\000\000\000\000\t\000\000\000\000\000\000\000\t\000\000\000\000\000\000\000\014\000\000\000\000\000\000\000\016\000\000\000\000\000\000\000\013\000\000\000\000\000\000\000\t\000\000\000\000\000\000\000\n\000\000\000\000\000\000\000\n\000\000\000\000\000\000\000\t\000\000\000\000\000\000\000\017\000\000\000\000\000\000\000\007\000\000\000\000\000\000\000\014\000\000\000\000\000\000\000\010\000\000\000\000\000\000\000\007\000\000\000\000\000\000\000\016\000\000\000\000\000\000\000\r\000\000\000\000\000\000\000\013\000\000\000\000\000\000\000\t\000\000\000\000\000\000\000\n\000\000\000\000\000\000\000\010\000\000\000\000\000\000\000\014\000\000\000\000\000\000\000\r\000\000\000\000\000\000\000\014\000\000\000\000\000\000\000\t\000\000\000\000\000\000\000\t\000\000\000\000\000\000\000\014\000\000\000\000\000\000\000\016\000\000\000\000\000\000\000\n\000\000\000\000\000\000\000\r\000\000\000\000\000\000\000\017\000\000\000\000\000\000\000\t\000\000\000\000\000\000\000\n\000\000\000\000\000\000\000\n\000\000\000\000\000\000\000\t\000\000\000\000\000\000\000\013\000\000\000\000\000\000\000\t\000\000\000\000\000\000\000\005\000\000\000\000\000\000\000\013\000\000\000\000\000\000\000\006\000\000\000\000\000\000\000\t\000\000\000\000\000\000\000\n\000\000\000\000\000\000\000\010\000\000\000\000\000\000\000\013\000\000\000\000\000\000\000\016\000\000\000\000\000\000\000\t\000\000\000\000\000\000\000\n\000\000\000\000\000\000\000\014\000\000\000\000\000\000\000\013\000\000\000\000\000\000\000\t\000\000\000\000\000\000\000\n\000\000\000\000\000\000\000\n\000\000\000\000\000\000\000\n\000\000\000\000\000\000\000\010\000\000\000\000\000\000\000\t\000\000\000\000\000\000\000\017\000\000\000\000\000\000\000\013\000\000\000\000\000\000\000\017\000\000\000\000\000\000\000\r\000\000\000\000\000\000\000\n\000\000\000\000\000\000\000\016\000\000\000\000\000\000\000\010\000\000\000\000\000\000\000\r\000\000\000\000\000\000\000\r\000\000\000\000\000\000\000\013\000\000\000\000\000\000\000\007\000\000\000\000\000\000\000\017\000\000\000\000\000\000\000\t\000\000\000\000\000\000\000\013\000\000\000\000\000\000\000\r\000\000\000\000\000\000\000\007\000\000\000\000\000\000\000\t\000\000\000\000\000\000\000\017\000\000\000\000\000\000\000\013\000\000\000\000\000\000\000\005\000\000\000\000\000\000\000\013\000\000\000\000\000\000\000\r\000\000\000\000\000\000\000\017\000\000\000\000\000\000\000\014\000\000\000\000\000\000\000\014\000\000\000\000\000\000\000\017\000\000\000\000\000\000\000\r\000\000\000\000\000\000\000\014\000\000\000\000\000\000\000\007\000\000\000\000\000\000\000\013\000\000\000\000\000\000\000\013\000\000\000\000\000\000\000\r\000\000\000\000\000\000\000\016\000\000\000\000\000\000\000\007\000\000\000\000\000\000\000\013\000\000\000\000\000\000\000\t\000\000\000\000\000\000\000\014\000\000\000\000\000\000\000\016\000\000\000\000\000\000\000\010\000\000\000\000\000\000\000\014\000\000\000\000\000\000\000\010\000\000\000\000\000\000\000\010\000\000\000\000\000\000\000\014\000\000\000\000\000\000\000\016\000\000\000\000\000\000\000\016\000\000\000\000\000\000\000\n\000\000\000\000\000\000\000\014\000\000\000\000\000\000\000\r\000\000\000\000\000\000\000\017\000\000\000\000\000\000\000\013\000\000\000\000\000\000\000\013\000\000\000\000\000\000\000\017\000\000\000\000\000\000\000\t\000\000\000\000\000\000\000\007\000\000\000\000\000\000\000\014\000\000\000\000\000\000\000\005\000\000\000\000\000\000\000\010\000\000\000\000\000\000\000\017\000\000\000\000\000\000\000\017\000\000\000\000\000\000\000\n\000\000\000\000\000\000\000\n\000\000\000\000\000\000\000\010\000\000\000\000\000\000\000\n\000\000\000\000\000\000\000\013\000\000\000\000\000\000\000\010\000\000\000\000\000\000\000\013\000\000\000\000\000\000\000\r\000\000\000\000\000\000\000\r\000\000\000\000\000\000\000\017\000\000\000\000\000\000\000\n\000\000\000\000\000\000\000\013\000\000\000\000\000\000\000\017\000\000\000\000\000\000\000\t\000\000\000\000\000\000\000\r\000\000\000\000\000\000\000\013\000\000\000\000\000\000\000\016\000\000\000\000\000\000\000\013\000\000\000\000\000\000\000\014\000\000\000\000\000\000\000\006\000\000\000\000\000\000\000\013\000\000\000\000\000\000\000\n\000\000\000\000\000\000\000\r\000\000\000\000\000\000\000\r\000\000\000\000\000\000\000\n\000\000\000\000\000\000\000\r\000\000\000\000\000\000\000\010\000\000\000\000\000\000\000\t\000\000\000\000\000\000\000\013\000\000\000\000\000\000\000\r\000\000\000\000\000\000\000\013\000\000\000\000\000\000\000\r\000\000\000\000\000\000\000\n\000\000\000\000\000\000\000\n\000\000\000\000\000\000\000\014\000\000\000\000\000\000\000\r\000\000\000\000\000\000\000\r\000\000\000\000\000\000\000\014\000\000\000\000\000\000\000\r\000\000\000\000\000\000\000\007\000\000\000\000\000\000\000\017\000\000\000\000\000\000\000\016\000\000\000\000\000\000\000\n\000\000\000\000\000\000\000\r\000\000\000\000\000\000\000\r\000\000\000\000\000\000\000\n\000\000\000\000\000\000\000\014\000\000\000\000\000\000\000\006\000\000\000\000\000\000\000\r\000\000\000\000\000\000\000\017\000\000\000\000\000\000\000\014\000\000\000\000\000\000\000\n\000\000\000\000\000\000\000\014\000\000\000\000\000\000\000\013\000\000\000\000\000\000\000\017\000\000\000\000\000\000\000\t\000\000\000\000\000\000\000\005\000\000\000\000\000\000\000\013\000\000\000\000\000\000\000\010\000\000\000\000\000\000\000\006\000\000\000\000\000\000\000\t\000\000\000\000\000\000\000\014\000\000\000\000\000\000\000\016\000\000\000\000\000\000\000\t\000\000\000\000\000\000\000\t\000\000\000\000\000\000\000\017\000\000\000\000\000\000\000\014\000\000\000\000\000\000\000\r\000\000\000\000\000\000\000\006\000\000\000\000\000\000\000\014\000\000\000\000\000\000\000\r\000\000\000\000\000\000\000\014\000\000\000\000\000\000\000\t\000\000\000\000\000\000\000\014\000\000\000\000\000\000\000\n\000\000\000\000\000\000\000\005\000\000\000\000\000\000\000\010\000\000\000\000\000\000\000\010\000\000\000\000\000\000\000\014\000\000\000\000\000\000\000\r\000\000\000\000\000\000\000\n\000\000\000\000\000\000\000\n\000\000\000\000\000\000\000\014\000\000\000\000\000\000\000\013\000\000\000\000\000\000\000\n\000\000\000\000\000\000\000\t\000\000\000\000\000\000\000\014\000\000\000\000\000\000\000\010\000\000\000\000\000\000\000\014\000\000\000\000\000\000\000\013\000\000\000\000\000\000\000\r\000\000\000\000\000\000\000\014\000\000\000\000\000\000\000\n\000\000\000\000\000\000\000\007\000\000\000\000\000\000\000\n\000\000\000\000\000\000\000\013\000\000\000\000\000\000\000\r\000\000\000\000\000\000\000\n\000\000\000\000\000\000\000\016\000\000\000\000\000\000\000\017\000\000\000\000\000\000\000\r\000\000\000\000\000\000\000\017\000\000\000\000\000\000\000\013\000\000\000\000\000\000\000\t\000\000\000\000\000\000\000\t\000\000\000\000\000\000\000\007\000\000\000\000\000\000\000\016\000\000\000\000\000\000\000\010\000\000\000\000\000\000\000\013\000\000\000\000\000\000\000\017\000\000\000\000\000\000\000\016\000\000\000\000\000\000\000\n\000\000\000\000\000\000\000\017\000\000\000\000\000\000\000\014\000\000\000\000\000\000\000\013\000\000\000\000\000\000\000\r\000\000\000\000\000\000\000\007\000\000\000\000\000\000\000\016\000\000\000\000\000\000\000\014\000\000\000\000\000\000\000\017\000\000\000\000\000\000\000\r\000\000\000\000\000\000\000\017\000\000\000\000\000\000\000\t\000\000\000\000\000\000\000\014\000\000\000\000\000\000\000\010\000\000\000\000\000\000\000\013\000\000\000\000\000\000\000\n\000\000\000\000\000\000\000\005\000\000\000\000\000\000\000\r\000\000\000\000\000\000\000\013\000\000\000\000\000\000\000\n\000\000\000\000\000\000\000\016\000\000\000\000\000\000\000\n\000\000\000\000\000\000\000\013\000\000\000\000\000\000\000\013\000\000\000\000\000\000\000\t\000\000\000\000\000\000\000\013\000\000\000\000\000\000\000\014\000\000\000\000\000\000\000\007\000\000\000\000\000\000\000\017\000\000\000\000\000\000\000\t\000\000\000\000\000\000\000\010\000\000\000\000\000\000\000\013\000\000\000\000\000\000\000\016\000\000\000\000\000\000\000\n\000\000\000\000\000\000\000\t\000\000\000\000\000\000\000\r\000\000\000\000\000\000\000\005\000\000\000\000\000\000\000\t\000\000\000\000\000\000\000\005\000\000\000\000\000\000\000\017\000\000\000\000\000\000\000\t\000\000\000\000\000\000\000\r\000\000\000\000\000\000\000\010\000\000\000\000\000\000\000\t\000\000\000\000\000\000\000\n\000\000\000\000\000\000\000\017\000\000\000\000\000\000\000\014\000\000\000\000\000\000\000\013\000\000\000\000\000\000\000\r\000\000\000\000\000\000\000\r\000\000\000\000\000\000\000\t\000\000\000\000\000\000\000\013\000\000\000\000\000\000\000\010\000\000\000\000\000\000\000\014\000\000\000\000\000\000\000\n\000\000\000\000\000\000\000\t\000\000\000\000\000\000\000\013\000\000\000\000\000\000\000\017\000\000\000\000\000\000\000\017\000\000\000\000\000\000\000\014\000\000\000\000\000\000\000\007\000\000\000\000\000\000\000\006\000\000\000\000\000\000\000\013\000\000\000\000\000\000\000\007\000\000\000\000\000\000\000\n\000\000\000\000\000\000\000"
      }
    }
  }
}
node {
  name: "Const_1"
  op: "Const"
  device: "/device:CPU:0"
  attr {
    key: "_output_shapes"
    value {
      list {
        shape {
          dim {
            size: 537
          }
        }
      }
    }
  }
  attr {
    key: "dtype"
    value {
      type: DT_INT64
    }
  }
  attr {
    key: "value"
    value {
      tensor {
        dtype: DT_INT64
        tensor_shape {
          dim {
            size: 537
          }
        }
        tensor_content: "\000\000\000\000\000\000\000\000\002\000\000\000\000\000\000\000\003\000\000\000\000\000\000\000\000\000\000\000\000\000\000\000\000\000\000\000\000\000\000\000\000\000\000\000\000\000\000\000\000\000\000\000\000\000\000\000\000\000\000\000\000\000\000\000\000\000\000\000\000\000\000\000\000\000\000\000\000\000\000\000\000\000\000\000\000\000\000\000\000\000\000\000\000\000\000\000\000\000\000\000\000\000\000\000\000\000\000\000\000\000\000\000\000\000\000\000\000\000\000\000\002\000\000\000\000\000\000\000\000\000\000\000\000\000\000\000\000\000\000\000\000\000\000\000\000\000\000\000\000\000\000\000\005\000\000\000\000\000\000\000\000\000\000\000\000\000\000\000\000\000\000\000\000\000\000\000\000\000\000\000\000\000\000\000\002\000\000\000\000\000\000\000\000\000\000\000\000\000\000\000\000\000\000\000\000\000\000\000\000\000\000\000\000\000\000\000\000\000\000\000\000\000\000\000\000\000\000\000\000\000\000\000\003\000\000\000\000\000\000\000\002\000\000\000\000\000\000\000\002\000\000\000\000\000\000\000\000\000\000\000\000\000\000\000\001\000\000\000\000\000\000\000\000\000\000\000\000\000\000\000\000\000\000\000\000\000\000\000\000\000\000\000\000\000\000\000\000\000\000\000\000\000\000\000\000\000\000\000\000\000\000\000\000\000\000\000\000\000\000\000\000\000\000\000\000\000\000\000\000\000\000\000\000\000\000\000\002\000\000\000\000\000\000\000\000\000\000\000\000\000\000\000\000\000\000\000\000\000\000\000\000\000\000\000\000\000\000\000\002\000\000\000\000\000\000\000\001\000\000\000\000\000\000\000\000\000\000\000\000\000\000\000\003\000\000\000\000\000\000\000\000\000\000\000\000\000\000\000\003\000\000\000\000\000\000\000\000\000\000\000\000\000\000\000\003\000\000\000\000\000\000\000\000\000\000\000\000\000\000\000\000\000\000\000\000\000\000\000\001\000\000\000\000\000\000\000\001\000\000\000\000\000\000\000\000\000\000\000\000\000\000\000\002\000\000\000\000\000\000\000\001\000\000\000\000\000\000\000\002\000\000\000\000\000\000\000\000\000\000\000\000\000\000\000\002\000\000\000\000\000\000\000\000\000\000\000\000\000\000\000\005\000\000\000\000\000\000\000\000\000\000\000\000\000\000\000\000\000\000\000\000\000\000\000\000\000\000\000\000\000\000\000\000\000\000\000\000\000\000\000\000\000\000\000\000\000\000\000\005\000\000\000\000\000\000\000\001\000\000\000\000\000\000\000\000\000\000\000\000\000\000\000\002\000\000\000\000\000\000\000\000\000\000\000\000\000\000\000\002\000\000\000\000\000\000\000\000\000\000\000\000\000\000\000\000\000\000\000\000\000\000\000\000\000\000\000\000\000\000\000\000\000\000\000\000\000\000\000\002\000\000\000\000\000\000\000\002\000\000\000\000\000\000\000\000\000\000\000\000\000\000\000\000\000\000\000\000\000\000\000\002\000\000\000\000\000\000\000\000\000\000\000\000\000\000\000\000\000\000\000\000\000\000\000\000\000\000\000\000\000\000\000\000\000\000\000\000\000\000\000\002\000\000\000\000\000\000\000\002\000\000\000\000\000\000\000\001\000\000\000\000\000\000\000\000\000\000\000\000\000\000\000\002\000\000\000\000\000\000\000\000\000\000\000\000\000\000\000\000\000\000\000\000\000\000\000\004\000\000\000\000\000\000\000\000\000\000\000\000\000\000\000\000\000\000\000\000\000\000\000\000\000\000\000\000\000\000\000\005\000\000\000\000\000\000\000\000\000\000\000\000\000\000\000\001\000\000\000\000\000\000\000\000\000\000\000\000\000\000\000\000\000\000\000\000\000\000\000\002\000\000\000\000\000\000\000\000\000\000\000\000\000\000\000\000\000\000\000\000\000\000\000\001\000\000\000\000\000\000\000\000\000\000\000\000\000\000\000\000\000\000\000\000\000\000\000\002\000\000\000\000\000\000\000\000\000\000\000\000\000\000\000\000\000\000\000\000\000\000\000\000\000\000\000\000\000\000\000\000\000\000\000\000\000\000\000\002\000\000\000\000\000\000\000\002\000\000\000\000\000\000\000\000\000\000\000\000\000\000\000\000\000\000\000\000\000\000\000\000\000\000\000\000\000\000\000\001\000\000\000\000\000\000\000\002\000\000\000\000\000\000\000\000\000\000\000\000\000\000\000\003\000\000\000\000\000\000\000\000\000\000\000\000\000\000\000\000\000\000\000\000\000\000\000\000\000\000\000\000\000\000\000\002\000\000\000\000\000\000\000\000\000\000\000\000\000\000\000\002\000\000\000\000\000\000\000\000\000\000\000\000\000\000\000\000\000\000\000\000\000\000\000\002\000\000\000\000\000\000\000\000\000\000\000\000\000\000\000\007\000\000\000\000\000\000\000\000\000\000\000\000\000\000\000\006\000\000\000\000\000\000\000\002\000\000\000\000\000\000\000\003\000\000\000\000\000\000\000\000\000\000\000\000\000\000\000\000\000\000\000\000\000\000\000\000\000\000\000\000\000\000\000\000\000\000\000\000\000\000\000\000\000\000\000\000\000\000\000\000\000\000\000\000\000\000\000\002\000\000\000\000\000\000\000\t\000\000\000\000\000\000\000\000\000\000\000\000\000\000\000\000\000\000\000\000\000\000\000\001\000\000\000\000\000\000\000\000\000\000\000\000\000\000\000\000\000\000\000\000\000\000\000\000\000\000\000\000\000\000\000\003\000\000\000\000\000\000\000\000\000\000\000\000\000\000\000\000\000\000\000\000\000\000\000\002\000\000\000\000\000\000\000\000\000\000\000\000\000\000\000\000\000\000\000\000\000\000\000\000\000\000\000\000\000\000\000\002\000\000\000\000\000\000\000\000\000\000\000\000\000\000\000\000\000\000\000\000\000\000\000\003\000\000\000\000\000\000\000\000\000\000\000\000\000\000\000\000\000\000\000\000\000\000\000\000\000\000\000\000\000\000\000\000\000\000\000\000\000\000\000\000\000\000\000\000\000\000\000\000\000\000\000\000\000\000\000\000\000\000\000\000\000\000\000\002\000\000\000\000\000\000\000\000\000\000\000\000\000\000\000\000\000\000\000\000\000\000\000\003\000\000\000\000\000\000\000\001\000\000\000\000\000\000\000\002\000\000\000\000\000\000\000\000\000\000\000\000\000\000\000\001\000\000\000\000\000\000\000\003\000\000\000\000\000\000\000\000\000\000\000\000\000\000\000\002\000\000\000\000\000\000\000\002\000\000\000\000\000\000\000\002\000\000\000\000\000\000\000\001\000\000\000\000\000\000\000\000\000\000\000\000\000\000\000\000\000\000\000\000\000\000\000\000\000\000\000\000\000\000\000\000\000\000\000\000\000\000\000\000\000\000\000\000\000\000\000\002\000\000\000\000\000\000\000\003\000\000\000\000\000\000\000\006\000\000\000\000\000\000\000\000\000\000\000\000\000\000\000\003\000\000\000\000\000\000\000\002\000\000\000\000\000\000\000\003\000\000\000\000\000\000\000\001\000\000\000\000\000\000\000\000\000\000\000\000\000\000\000\000\000\000\000\000\000\000\000\000\000\000\000\000\000\000\000\000\000\000\000\000\000\000\000\002\000\000\000\000\000\000\000\002\000\000\000\000\000\000\000\002\000\000\000\000\000\000\000\003\000\000\000\000\000\000\000\003\000\000\000\000\000\000\000\003\000\000\000\000\000\000\000\000\000\000\000\000\000\000\000\003\000\000\000\000\000\000\000\000\000\000\000\000\000\000\000\000\000\000\000\000\000\000\000\002\000\000\000\000\000\000\000\000\000\000\000\000\000\000\000\003\000\000\000\000\000\000\000\000\000\000\000\000\000\000\000\003\000\000\000\000\000\000\000\005\000\000\000\000\000\000\000\000\000\000\000\000\000\000\000\000\000\000\000\000\000\000\000\000\000\000\000\000\000\000\000\002\000\000\000\000\000\000\000\000\000\000\000\000\000\000\000\001\000\000\000\000\000\000\000\000\000\000\000\000\000\000\000\002\000\000\000\000\000\000\000\001\000\000\000\000\000\000\000\000\000\000\000\000\000\000\000\002\000\000\000\000\000\000\000\000\000\000\000\000\000\000\000\004\000\000\000\000\000\000\000\001\000\000\000\000\000\000\000\000\000\000\000\000\000\000\000\000\000\000\000\000\000\000\000\000\000\000\000\000\000\000\000\000\000\000\000\000\000\000\000\000\000\000\000\000\000\000\000\000\000\000\000\000\000\000\000\000\000\000\000\000\000\000\000\003\000\000\000\000\000\000\000\002\000\000\000\000\000\000\000\000\000\000\000\000\000\000\000\002\000\000\000\000\000\000\000\002\000\000\000\000\000\000\000\000\000\000\000\000\000\000\000\000\000\000\000\000\000\000\000\002\000\000\000\000\000\000\000\002\000\000\000\000\000\000\000\000\000\000\000\000\000\000\000\000\000\000\000\000\000\000\000\002\000\000\000\000\000\000\000\002\000\000\000\000\000\000\000\000\000\000\000\000\000\000\000\002\000\000\000\000\000\000\000\002\000\000\000\000\000\000\000\005\000\000\000\000\000\000\000\001\000\000\000\000\000\000\000\002\000\000\000\000\000\000\000\002\000\000\000\000\000\000\000\002\000\000\000\000\000\000\000\004\000\000\000\000\000\000\000\000\000\000\000\000\000\000\000\000\000\000\000\000\000\000\000\003\000\000\000\000\000\000\000\000\000\000\000\000\000\000\000\000\000\000\000\000\000\000\000\000\000\000\000\000\000\000\000\001\000\000\000\000\000\000\000\000\000\000\000\000\000\000\000\000\000\000\000\000\000\000\000\000\000\000\000\000\000\000\000\000\000\000\000\000\000\000\000\000\000\000\000\000\000\000\000\000\000\000\000\000\000\000\000\001\000\000\000\000\000\000\000\000\000\000\000\000\000\000\000\000\000\000\000\000\000\000\000\000\000\000\000\000\000\000\000\000\000\000\000\000\000\000\000\000\000\000\000\000\000\000\000\003\000\000\000\000\000\000\000\003\000\000\000\000\000\000\000\000\000\000\000\000\000\000\000\000\000\000\000\000\000\000\000\001\000\000\000\000\000\000\000\002\000\000\000\000\000\000\000\002\000\000\000\000\000\000\000\001\000\000\000\000\000\000\000\002\000\000\000\000\000\000\000\004\000\000\000\000\000\000\000\000\000\000\000\000\000\000\000\000\000\000\000\000\000\000\000\002\000\000\000\000\000\000\000\002\000\000\000\000\000\000\000\002\000\000\000\000\000\000\000\000\000\000\000\000\000\000\000\000\000\000\000\000\000\000\000\000\000\000\000\000\000\000\000\000\000\000\000\000\000\000\000\004\000\000\000\000\000\000\000\010\000\000\000\000\000\000\000\002\000\000\000\000\000\000\000\002\000\000\000\000\000\000\000\000\000\000\000\000\000\000\000\000\000\000\000\000\000\000\000\000\000\000\000\000\000\000\000\000\000\000\000\000\000\000\000\000\000\000\000\000\000\000\000\000\000\000\000\000\000\000\000\002\000\000\000\000\000\000\000\000\000\000\000\000\000\000\000\000\000\000\000\000\000\000\000\000\000\000\000\000\000\000\000\000\000\000\000\000\000\000\000\000\000\000\000\000\000\000\000\000\000\000\000\000\000\000\000\002\000\000\000\000\000\000\000\000\000\000\000\000\000\000\000\000\000\000\000\000\000\000\000\000\000\000\000\000\000\000\000\003\000\000\000\000\000\000\000\000\000\000\000\000\000\000\000\000\000\000\000\000\000\000\000\000\000\000\000\000\000\000\000\003\000\000\000\000\000\000\000\000\000\000\000\000\000\000\000\000\000\000\000\000\000\000\000\002\000\000\000\000\000\000\000\002\000\000\000\000\000\000\000\002\000\000\000\000\000\000\000\000\000\000\000\000\000\000\000\000\000\000\000\000\000\000\000\000\000\000\000\000\000\000\000\002\000\000\000\000\000\000\000\000\000\000\000\000\000\000\000\002\000\000\000\000\000\000\000\002\000\000\000\000\000\000\000\002\000\000\000\000\000\000\000\002\000\000\000\000\000\000\000\000\000\000\000\000\000\000\000\000\000\000\000\000\000\000\000\002\000\000\000\000\000\000\000\000\000\000\000\000\000\000\000\000\000\000\000\000\000\000\000\000\000\000\000\000\000\000\000\003\000\000\000\000\000\000\000\000\000\000\000\000\000\000\000\002\000\000\000\000\000\000\000\000\000\000\000\000\000\000\000\000\000\000\000\000\000\000\000\000\000\000\000\000\000\000\000\000\000\000\000\000\000\000\000\000\000\000\000\000\000\000\000\000\000\000\000\000\000\000\000\004\000\000\000\000\000\000\000\000\000\000\000\000\000\000\000\000\000\000\000\000\000\000\000\000\000\000\000\000\000\000\000\000\000\000\000\000\000\000\000\000\000\000\000\000\000\000\000\000\000\000\000\000\000\000\000\000\000\000\000\000\000\000\000\002\000\000\000\000\000\000\000\002\000\000\000\000\000\000\000\000\000\000\000\000\000\000\000\000\000\000\000\000\000\000\000\001\000\000\000\000\000\000\000\000\000\000\000\000\000\000\000\000\000\000\000\000\000\000\000\000\000\000\000\000\000\000\000\000\000\000\000\000\000\000\000\000\000\000\000\000\000\000\000\000\000\000\000\000\000\000\000\000\000\000\000\000\000\000\000\000\000\000\000\000\000\000\000\000\000\000\000\000\000\000\000\000\000\000\000\000\000\000\000\002\000\000\000\000\000\000\000\001\000\000\000\000\000\000\000\000\000\000\000\000\000\000\000\004\000\000\000\000\000\000\000\000\000\000\000\000\000\000\000\000\000\000\000\000\000\000\000\002\000\000\000\000\000\000\000\000\000\000\000\000\000\000\000\000\000\000\000\000\000\000\000\002\000\000\000\000\000\000\000\003\000\000\000\000\000\000\000\000\000\000\000\000\000\000\000\002\000\000\000\000\000\000\000\002\000\000\000\000\000\000\000\002\000\000\000\000\000\000\000\000\000\000\000\000\000\000\000\000\000\000\000\000\000\000\000\000\000\000\000\000\000\000\000\002\000\000\000\000\000\000\000\000\000\000\000\000\000\000\000\003\000\000\000\000\000\000\000\001\000\000\000\000\000\000\000\000\000\000\000\000\000\000\000\000\000\000\000\000\000\000\000\000\000\000\000\000\000\000\000\002\000\000\000\000\000\000\000\000\000\000\000\000\000\000\000\002\000\000\000\000\000\000\000\000\000\000\000\000\000\000\000\000\000\000\000\000\000\000\000\002\000\000\000\000\000\000\000\000\000\000\000\000\000\000\000\000\000\000\000\000\000\000\000\001\000\000\000\000\000\000\000\000\000\000\000\000\000\000\000\000\000\000\000\000\000\000\000\000\000\000\000\000\000\000\000\001\000\000\000\000\000\000\000\002\000\000\000\000\000\000\000\002\000\000\000\000\000\000\000\002\000\000\000\000\000\000\000\000\000\000\000\000\000\000\000\002\000\000\000\000\000\000\000\002\000\000\000\000\000\000\000\002\000\000\000\000\000\000\000\002\000\000\000\000\000\000\000\002\000\000\000\000\000\000\000\000\000\000\000\000\000\000\000\000\000\000\000\000\000\000\000\000\000\000\000\000\000\000\000\000\000\000\000\000\000\000\000\000\000\000\000\000\000\000\000\000\000\000\000\000\000\000\000\003\000\000\000\000\000\000\000\003\000\000\000\000\000\000\000\000\000\000\000\000\000\000\000\002\000\000\000\000\000\000\000\000\000\000\000\000\000\000\000\000\000\000\000\000\000\000\000\002\000\000\000\000\000\000\000\000\000\000\000\000\000\000\000\000\000\000\000\000\000\000\000\002\000\000\000\000\000\000\000\002\000\000\000\000\000\000\000\000\000\000\000\000\000\000\000\002\000\000\000\000\000\000\000\002\000\000\000\000\000\000\000\002\000\000\000\000\000\000\000\002\000\000\000\000\000\000\000\002\000\000\000\000\000\000\000\000\000\000\000\000\000\000\000\000\000\000\000\000\000\000\000\000\000\000\000\000\000\000\000\002\000\000\000\000\000\000\000\002\000\000\000\000\000\000\000\000\000\000\000\000\000\000\000\000\000\000\000\000\000\000\000\000\000\000\000\000\000\000\000\000\000\000\000\000\000\000\000\000\000\000\000\000\000\000\000\000\000\000\000\000\000\000\000\000\000\000\000\000\000\000\000\000\000\000\000\000\000\000\000\000\000\000\000\000\000\000\000\002\000\000\000\000\000\000\000\000\000\000\000\000\000\000\000\002\000\000\000\000\000\000\000\000\000\000\000\000\000\000\000\000\000\000\000\000\000\000\000\002\000\000\000\000\000\000\000\000\000\000\000\000\000\000\000\000\000\000\000\000\000\000\000\004\000\000\000\000\000\000\000\003\000\000\000\000\000\000\000\006\000\000\000\000\000\000\000\000\000\000\000\000\000\000\000\000\000\000\000\000\000\000\000\000\000\000\000\000\000\000\000\001\000\000\000\000\000\000\000\003\000\000\000\000\000\000\000\003\000\000\000\000\000\000\000\006\000\000\000\000\000\000\000\001\000\000\000\000\000\000\000\005\000\000\000\000\000\000\000\000\000\000\000\000\000\000\000\003\000\000\000\000\000\000\000\000\000\000\000\000\000\000\000\000\000\000\000\000\000\000\000\000\000\000\000\000\000\000\000\000\000\000\000\000\000\000\000\000\000\000\000\000\000\000\000\000\000\000\000\000\000\000\000\000\000\000\000\000\000\000\000\002\000\000\000\000\000\000\000\002\000\000\000\000\000\000\000\000\000\000\000\000\000\000\000\000\000\000\000\000\000\000\000\003\000\000\000\000\000\000\000\000\000\000\000\000\000\000\000\000\000\000\000\000\000\000\000\001\000\000\000\000\000\000\000\005\000\000\000\000\000\000\000\000\000\000\000\000\000\000\000\000\000\000\000\000\000\000\000\000\000\000\000\000\000\000\000\000\000\000\000\000\000\000\000\000\000\000\000\000\000\000\000\000\000\000\000\000\000\000\000\001\000\000\000\000\000\000\000\000\000\000\000\000\000\000\000\003\000\000\000\000\000\000\000\001\000\000\000\000\000\000\000\005\000\000\000\000\000\000\000\002\000\000\000\000\000\000\000\000\000\000\000\000\000\000\000\000\000\000\000\000\000\000\000\000\000\000\000\000\000\000\000\000\000\000\000\000\000\000\000\000\000\000\000\000\000\000\000\000\000\000\000\000\000\000\000\002\000\000\000\000\000\000\000\000\000\000\000\000\000\000\000\000\000\000\000\000\000\000\000\000\000\000\000\000\000\000\000\002\000\000\000\000\000\000\000\001\000\000\000\000\000\000\000\000\000\000\000\000\000\000\000\001\000\000\000\000\000\000\000\002\000\000\000\000\000\000\000\002\000\000\000\000\000\000\000\000\000\000\000\000\000\000\000\000\000\000\000\000\000\000\000\000\000\000\000\000\000\000\000\002\000\000\000\000\000\000\000\000\000\000\000\000\000\000\000\003\000\000\000\000\000\000\000\000\000\000\000\000\000\000\000\000\000\000\000\000\000\000\000"
      }
    }
  }
}
node {
  name: "Const_2"
  op: "Const"
  device: "/device:CPU:0"
  attr {
    key: "_output_shapes"
    value {
      list {
        shape {
          dim {
            size: 537
          }
        }
      }
    }
  }
  attr {
    key: "dtype"
    value {
      type: DT_INT64
    }
  }
  attr {
    key: "value"
    value {
      tensor {
        dtype: DT_INT64
        tensor_shape {
          dim {
            size: 537
          }
        }
        tensor_content: "\007\000\000\000\000\000\000\000\006\000\000\000\000\000\000\000\007\000\000\000\000\000\000\000\021\000\000\000\000\000\000\000\010\000\000\000\000\000\000\000\014\000\000\000\000\000\000\000\017\000\000\000\000\000\000\000\023\000\000\000\000\000\000\000\010\000\000\000\000\000\000\000\005\000\000\000\000\000\000\000\007\000\000\000\000\000\000\000\006\000\000\000\000\000\000\000\005\000\000\000\000\000\000\000\014\000\000\000\000\000\000\000\014\000\000\000\000\000\000\000\017\000\000\000\000\000\000\000\017\000\000\000\000\000\000\000\006\000\000\000\000\000\000\000\014\000\000\000\000\000\000\000\t\000\000\000\000\000\000\000\007\000\000\000\000\000\000\000\022\000\000\000\000\000\000\000\016\000\000\000\000\000\000\000\005\000\000\000\000\000\000\000\016\000\000\000\000\000\000\000\024\000\000\000\000\000\000\000\003\000\000\000\000\000\000\000\007\000\000\000\000\000\000\000\r\000\000\000\000\000\000\000\007\000\000\000\000\000\000\000\013\000\000\000\000\000\000\000\005\000\000\000\000\000\000\000\n\000\000\000\000\000\000\000\022\000\000\000\000\000\000\000\r\000\000\000\000\000\000\000\013\000\000\000\000\000\000\000\016\000\000\000\000\000\000\000\005\000\000\000\000\000\000\000\004\000\000\000\000\000\000\000\016\000\000\000\000\000\000\000\022\000\000\000\000\000\000\000\n\000\000\000\000\000\000\000\t\000\000\000\000\000\000\000\013\000\000\000\000\000\000\000\005\000\000\000\000\000\000\000\010\000\000\000\000\000\000\000\005\000\000\000\000\000\000\000\007\000\000\000\000\000\000\000\010\000\000\000\000\000\000\000\014\000\000\000\000\000\000\000\006\000\000\000\000\000\000\000\001\000\000\000\000\000\000\000\024\000\000\000\000\000\000\000\020\000\000\000\000\000\000\000\013\000\000\000\000\000\000\000\010\000\000\000\000\000\000\000\t\000\000\000\000\000\000\000\r\000\000\000\000\000\000\000\021\000\000\000\000\000\000\000\022\000\000\000\000\000\000\000\r\000\000\000\000\000\000\000\007\000\000\000\000\000\000\000\020\000\000\000\000\000\000\000\007\000\000\000\000\000\000\000\020\000\000\000\000\000\000\000\017\000\000\000\000\000\000\000\016\000\000\000\000\000\000\000\022\000\000\000\000\000\000\000\005\000\000\000\000\000\000\000\003\000\000\000\000\000\000\000\022\000\000\000\000\000\000\000\020\000\000\000\000\000\000\000\t\000\000\000\000\000\000\000\020\000\000\000\000\000\000\000\005\000\000\000\000\000\000\000\r\000\000\000\000\000\000\000\005\000\000\000\000\000\000\000\023\000\000\000\000\000\000\000\013\000\000\000\000\000\000\000\006\000\000\000\000\000\000\000\021\000\000\000\000\000\000\000\005\000\000\000\000\000\000\000\014\000\000\000\000\000\000\000\006\000\000\000\000\000\000\000\020\000\000\000\000\000\000\000\005\000\000\000\000\000\000\000\010\000\000\000\000\000\000\000\021\000\000\000\000\000\000\000\014\000\000\000\000\000\000\000\017\000\000\000\000\000\000\000\014\000\000\000\000\000\000\000\007\000\000\000\000\000\000\000\005\000\000\000\000\000\000\000\007\000\000\000\000\000\000\000\005\000\000\000\000\000\000\000\010\000\000\000\000\000\000\000\010\000\000\000\000\000\000\000\016\000\000\000\000\000\000\000\013\000\000\000\000\000\000\000\016\000\000\000\000\000\000\000\017\000\000\000\000\000\000\000\004\000\000\000\000\000\000\000\010\000\000\000\000\000\000\000\010\000\000\000\000\000\000\000\004\000\000\000\000\000\000\000\022\000\000\000\000\000\000\000\006\000\000\000\000\000\000\000\r\000\000\000\000\000\000\000\016\000\000\000\000\000\000\000\006\000\000\000\000\000\000\000\002\000\000\000\000\000\000\000\006\000\000\000\000\000\000\000\005\000\000\000\000\000\000\000\n\000\000\000\000\000\000\000\007\000\000\000\000\000\000\000\006\000\000\000\000\000\000\000\024\000\000\000\000\000\000\000\006\000\000\000\000\000\000\000\005\000\000\000\000\000\000\000\t\000\000\000\000\000\000\000\022\000\000\000\000\000\000\000\017\000\000\000\000\000\000\000\010\000\000\000\000\000\000\000\004\000\000\000\000\000\000\000\003\000\000\000\000\000\000\000\006\000\000\000\000\000\000\000\024\000\000\000\000\000\000\000\007\000\000\000\000\000\000\000\003\000\000\000\000\000\000\000\005\000\000\000\000\000\000\000\t\000\000\000\000\000\000\000\005\000\000\000\000\000\000\000\010\000\000\000\000\000\000\000\r\000\000\000\000\000\000\000\004\000\000\000\000\000\000\000\016\000\000\000\000\000\000\000\017\000\000\000\000\000\000\000\013\000\000\000\000\000\000\000\016\000\000\000\000\000\000\000\007\000\000\000\000\000\000\000\016\000\000\000\000\000\000\000\r\000\000\000\000\000\000\000\t\000\000\000\000\000\000\000\030\000\000\000\000\000\000\000\021\000\000\000\000\000\000\000\013\000\000\000\000\000\000\000\005\000\000\000\000\000\000\000\004\000\000\000\000\000\000\000\016\000\000\000\000\000\000\000\r\000\000\000\000\000\000\000\023\000\000\000\000\000\000\000\010\000\000\000\000\000\000\000\022\000\000\000\000\000\000\000\013\000\000\000\000\000\000\000\016\000\000\000\000\000\000\000\014\000\000\000\000\000\000\000\005\000\000\000\000\000\000\000\006\000\000\000\000\000\000\000\006\000\000\000\000\000\000\000\020\000\000\000\000\000\000\000\021\000\000\000\000\000\000\000\021\000\000\000\000\000\000\000\007\000\000\000\000\000\000\000\010\000\000\000\000\000\000\000\017\000\000\000\000\000\000\000\013\000\000\000\000\000\000\000\r\000\000\000\000\000\000\000\004\000\000\000\000\000\000\000\r\000\000\000\000\000\000\000\016\000\000\000\000\000\000\000\014\000\000\000\000\000\000\000\010\000\000\000\000\000\000\000\t\000\000\000\000\000\000\000\t\000\000\000\000\000\000\000\017\000\000\000\000\000\000\000\020\000\000\000\000\000\000\000\007\000\000\000\000\000\000\000\017\000\000\000\000\000\000\000\n\000\000\000\000\000\000\000\023\000\000\000\000\000\000\000\007\000\000\000\000\000\000\000\007\000\000\000\000\000\000\000\006\000\000\000\000\000\000\000\r\000\000\000\000\000\000\000\007\000\000\000\000\000\000\000\007\000\000\000\000\000\000\000\005\000\000\000\000\000\000\000\t\000\000\000\000\000\000\000\021\000\000\000\000\000\000\000\024\000\000\000\000\000\000\000\r\000\000\000\000\000\000\000\t\000\000\000\000\000\000\000\007\000\000\000\000\000\000\000\010\000\000\000\000\000\000\000\014\000\000\000\000\000\000\000\017\000\000\000\000\000\000\000\005\000\000\000\000\000\000\000\007\000\000\000\000\000\000\000\007\000\000\000\000\000\000\000\r\000\000\000\000\000\000\000\023\000\000\000\000\000\000\000\017\000\000\000\000\000\000\000\017\000\000\000\000\000\000\000\016\000\000\000\000\000\000\000\014\000\000\000\000\000\000\000\005\000\000\000\000\000\000\000\007\000\000\000\000\000\000\000\020\000\000\000\000\000\000\000\007\000\000\000\000\000\000\000\005\000\000\000\000\000\000\000\024\000\000\000\000\000\000\000\t\000\000\000\000\000\000\000\013\000\000\000\000\000\000\000\t\000\000\000\000\000\000\000\005\000\000\000\000\000\000\000\r\000\000\000\000\000\000\000\013\000\000\000\000\000\000\000\016\000\000\000\000\000\000\000\014\000\000\000\000\000\000\000\n\000\000\000\000\000\000\000\014\000\000\000\000\000\000\000\r\000\000\000\000\000\000\000\006\000\000\000\000\000\000\000\005\000\000\000\000\000\000\000\n\000\000\000\000\000\000\000\005\000\000\000\000\000\000\000\r\000\000\000\000\000\000\000\005\000\000\000\000\000\000\000\r\000\000\000\000\000\000\000\r\000\000\000\000\000\000\000\005\000\000\000\000\000\000\000\014\000\000\000\000\000\000\000\014\000\000\000\000\000\000\000\013\000\000\000\000\000\000\000\013\000\000\000\000\000\000\000\014\000\000\000\000\000\000\000\017\000\000\000\000\000\000\000\014\000\000\000\000\000\000\000\023\000\000\000\000\000\000\000\010\000\000\000\000\000\000\000\007\000\000\000\000\000\000\000\014\000\000\000\000\000\000\000\006\000\000\000\000\000\000\000\r\000\000\000\000\000\000\000\010\000\000\000\000\000\000\000\003\000\000\000\000\000\000\000\t\000\000\000\000\000\000\000\013\000\000\000\000\000\000\000\005\000\000\000\000\000\000\000\004\000\000\000\000\000\000\000\003\000\000\000\000\000\000\000\004\000\000\000\000\000\000\000\010\000\000\000\000\000\000\000\005\000\000\000\000\000\000\000\r\000\000\000\000\000\000\000\006\000\000\000\000\000\000\000\005\000\000\000\000\000\000\000\006\000\000\000\000\000\000\000\007\000\000\000\000\000\000\000\010\000\000\000\000\000\000\000\004\000\000\000\000\000\000\000\003\000\000\000\000\000\000\000\006\000\000\000\000\000\000\000\016\000\000\000\000\000\000\000\023\000\000\000\000\000\000\000\005\000\000\000\000\000\000\000\t\000\000\000\000\000\000\000\010\000\000\000\000\000\000\000\014\000\000\000\000\000\000\000\014\000\000\000\000\000\000\000\014\000\000\000\000\000\000\000\r\000\000\000\000\000\000\000\r\000\000\000\000\000\000\000\014\000\000\000\000\000\000\000\010\000\000\000\000\000\000\000\t\000\000\000\000\000\000\000\n\000\000\000\000\000\000\000\010\000\000\000\000\000\000\000\005\000\000\000\000\000\000\000\n\000\000\000\000\000\000\000\010\000\000\000\000\000\000\000\t\000\000\000\000\000\000\000\006\000\000\000\000\000\000\000\005\000\000\000\000\000\000\000\007\000\000\000\000\000\000\000\014\000\000\000\000\000\000\000\003\000\000\000\000\000\000\000\005\000\000\000\000\000\000\000\006\000\000\000\000\000\000\000\024\000\000\000\000\000\000\000\007\000\000\000\000\000\000\000\t\000\000\000\000\000\000\000\n\000\000\000\000\000\000\000\013\000\000\000\000\000\000\000\005\000\000\000\000\000\000\000\003\000\000\000\000\000\000\000\005\000\000\000\000\000\000\000\n\000\000\000\000\000\000\000\013\000\000\000\000\000\000\000\023\000\000\000\000\000\000\000\006\000\000\000\000\000\000\000\014\000\000\000\000\000\000\000\006\000\000\000\000\000\000\000\007\000\000\000\000\000\000\000\007\000\000\000\000\000\000\000\016\000\000\000\000\000\000\000\024\000\000\000\000\000\000\000\022\000\000\000\000\000\000\000\007\000\000\000\000\000\000\000\001\000\000\000\000\000\000\000\t\000\000\000\000\000\000\000\007\000\000\000\000\000\000\000\003\000\000\000\000\000\000\000\020\000\000\000\000\000\000\000\017\000\000\000\000\000\000\000\013\000\000\000\000\000\000\000\016\000\000\000\000\000\000\000\005\000\000\000\000\000\000\000\005\000\000\000\000\000\000\000\020\000\000\000\000\000\000\000\022\000\000\000\000\000\000\000\003\000\000\000\000\000\000\000\007\000\000\000\000\000\000\000\001\000\000\000\000\000\000\000\020\000\000\000\000\000\000\000\002\000\000\000\000\000\000\000\010\000\000\000\000\000\000\000\020\000\000\000\000\000\000\000\020\000\000\000\000\000\000\000\007\000\000\000\000\000\000\000\003\000\000\000\000\000\000\000\007\000\000\000\000\000\000\000\010\000\000\000\000\000\000\000\r\000\000\000\000\000\000\000\016\000\000\000\000\000\000\000\r\000\000\000\000\000\000\000\016\000\000\000\000\000\000\000\005\000\000\000\000\000\000\000\010\000\000\000\000\000\000\000\020\000\000\000\000\000\000\000\004\000\000\000\000\000\000\000\006\000\000\000\000\000\000\000\013\000\000\000\000\000\000\000\013\000\000\000\000\000\000\000\013\000\000\000\000\000\000\000\024\000\000\000\000\000\000\000\r\000\000\000\000\000\000\000\006\000\000\000\000\000\000\000\010\000\000\000\000\000\000\000\014\000\000\000\000\000\000\000\020\000\000\000\000\000\000\000\016\000\000\000\000\000\000\000\r\000\000\000\000\000\000\000\n\000\000\000\000\000\000\000\r\000\000\000\000\000\000\000\013\000\000\000\000\000\000\000\010\000\000\000\000\000\000\000\005\000\000\000\000\000\000\000\006\000\000\000\000\000\000\000\020\000\000\000\000\000\000\000\020\000\000\000\000\000\000\000\017\000\000\000\000\000\000\000\013\000\000\000\000\000\000\000\006\000\000\000\000\000\000\000\006\000\000\000\000\000\000\000\007\000\000\000\000\000\000\000\t\000\000\000\000\000\000\000\014\000\000\000\000\000\000\000\013\000\000\000\000\000\000\000\r\000\000\000\000\000\000\000\021\000\000\000\000\000\000\000\r\000\000\000\000\000\000\000\014\000\000\000\000\000\000\000\020\000\000\000\000\000\000\000\006\000\000\000\000\000\000\000\013\000\000\000\000\000\000\000\016\000\000\000\000\000\000\000\004\000\000\000\000\000\000\000\017\000\000\000\000\000\000\000\016\000\000\000\000\000\000\000\007\000\000\000\000\000\000\000\016\000\000\000\000\000\000\000\002\000\000\000\000\000\000\000\006\000\000\000\000\000\000\000\016\000\000\000\000\000\000\000\006\000\000\000\000\000\000\000\020\000\000\000\000\000\000\000\021\000\000\000\000\000\000\000\005\000\000\000\000\000\000\000\017\000\000\000\000\000\000\000\016\000\000\000\000\000\000\000\007\000\000\000\000\000\000\000\t\000\000\000\000\000\000\000\t\000\000\000\000\000\000\000\005\000\000\000\000\000\000\000\010\000\000\000\000\000\000\000\r\000\000\000\000\000\000\000\t\000\000\000\000\000\000\000\014\000\000\000\000\000\000\000\n\000\000\000\000\000\000\000\r\000\000\000\000\000\000\000\020\000\000\000\000\000\000\000\014\000\000\000\000\000\000\000\006\000\000\000\000\000\000\000\t\000\000\000\000\000\000\000\017\000\000\000\000\000\000\000\006\000\000\000\000\000\000\000\014\000\000\000\000\000\000\000\006\000\000\000\000\000\000\000\014\000\000\000\000\000\000\000\t\000\000\000\000\000\000\000\004\000\000\000\000\000\000\000\n\000\000\000\000\000\000\000\021\000\000\000\000\000\000\000\005\000\000\000\000\000\000\000\020\000\000\000\000\000\000\000\006\000\000\000\000\000\000\000\003\000\000\000\000\000\000\000\007\000\000\000\000\000\000\000\004\000\000\000\000\000\000\000\n\000\000\000\000\000\000\000\005\000\000\000\000\000\000\000\010\000\000\000\000\000\000\000\016\000\000\000\000\000\000\000\005\000\000\000\000\000\000\000\005\000\000\000\000\000\000\000\017\000\000\000\000\000\000\000\016\000\000\000\000\000\000\000\016\000\000\000\000\000\000\000\002\000\000\000\000\000\000\000\r\000\000\000\000\000\000\000\005\000\000\000\000\000\000\000\007\000\000\000\000\000\000\000\005\000\000\000\000\000\000\000\n\000\000\000\000\000\000\000\006\000\000\000\000\000\000\000\005\000\000\000\000\000\000\000\004\000\000\000\000\000\000\000\016\000\000\000\000\000\000\000\007\000\000\000\000\000\000\000\014\000\000\000\000\000\000\000\006\000\000\000\000\000\000\000\006\000\000\000\000\000\000\000\007\000\000\000\000\000\000\000\007\000\000\000\000\000\000\000\005\000\000\000\000\000\000\000\005\000\000\000\000\000\000\000\007\000\000\000\000\000\000\000\004\000\000\000\000\000\000\000\t\000\000\000\000\000\000\000\013\000\000\000\000\000\000\000\017\000\000\000\000\000\000\000\010\000\000\000\000\000\000\000\n\000\000\000\000\000\000\000\006\000\000\000\000\000\000\000\002\000\000\000\000\000\000\000\013\000\000\000\000\000\000\000\r\000\000\000\000\000\000\000\022\000\000\000\000\000\000\000\016\000\000\000\000\000\000\000\006\000\000\000\000\000\000\000\013\000\000\000\000\000\000\000\022\000\000\000\000\000\000\000\007\000\000\000\000\000\000\000\014\000\000\000\000\000\000\000\005\000\000\000\000\000\000\000\004\000\000\000\000\000\000\000\006\000\000\000\000\000\000\000\004\000\000\000\000\000\000\000\r\000\000\000\000\000\000\000\016\000\000\000\000\000\000\000\010\000\000\000\000\000\000\000\021\000\000\000\000\000\000\000\014\000\000\000\000\000\000\000\004\000\000\000\000\000\000\000\r\000\000\000\000\000\000\000\022\000\000\000\000\000\000\000\005\000\000\000\000\000\000\000\013\000\000\000\000\000\000\000\016\000\000\000\000\000\000\000\017\000\000\000\000\000\000\000\013\000\000\000\000\000\000\000\023\000\000\000\000\000\000\000\005\000\000\000\000\000\000\000\007\000\000\000\000\000\000\000\010\000\000\000\000\000\000\000\016\000\000\000\000\000\000\000\013\000\000\000\000\000\000\000\001\000\000\000\000\000\000\000\r\000\000\000\000\000\000\000\005\000\000\000\000\000\000\000\010\000\000\000\000\000\000\000\r\000\000\000\000\000\000\000\006\000\000\000\000\000\000\000\005\000\000\000\000\000\000\000\n\000\000\000\000\000\000\000\004\000\000\000\000\000\000\000\r\000\000\000\000\000\000\000\r\000\000\000\000\000\000\000\002\000\000\000\000\000\000\000\017\000\000\000\000\000\000\000\010\000\000\000\000\000\000\000\021\000\000\000\000\000\000\000\024\000\000\000\000\000\000\000\007\000\000\000\000\000\000\000\013\000\000\000\000\000\000\000\006\000\000\000\000\000\000\000\r\000\000\000\000\000\000\000\005\000\000\000\000\000\000\000\005\000\000\000\000\000\000\000\004\000\000\000\000\000\000\000\007\000\000\000\000\000\000\000\t\000\000\000\000\000\000\000\r\000\000\000\000\000\000\000\t\000\000\000\000\000\000\000\n\000\000\000\000\000\000\000\007\000\000\000\000\000\000\000\t\000\000\000\000\000\000\000\001\000\000\000\000\000\000\000\007\000\000\000\000\000\000\000\016\000\000\000\000\000\000\000\020\000\000\000\000\000\000\000\010\000\000\000\000\000\000\000\007\000\000\000\000\000\000\000\007\000\000\000\000\000\000\000\022\000\000\000\000\000\000\000\n\000\000\000\000\000\000\000\005\000\000\000\000\000\000\000\007\000\000\000\000\000\000\000\014\000\000\000\000\000\000\000\020\000\000\000\000\000\000\000\017\000\000\000\000\000\000\000\003\000\000\000\000\000\000\000\003\000\000\000\000\000\000\000\006\000\000\000\000\000\000\000\004\000\000\000\000\000\000\000\024\000\000\000\000\000\000\000"
      }
    }
  }
}
node {
  name: "Const_3"
  op: "Const"
  device: "/device:CPU:0"
  attr {
    key: "_output_shapes"
    value {
      list {
        shape {
          dim {
            size: 537
          }
        }
      }
    }
  }
  attr {
    key: "dtype"
    value {
      type: DT_INT64
    }
  }
  attr {
    key: "value"
    value {
      tensor {
        dtype: DT_INT64
        tensor_shape {
          dim {
            size: 537
          }
        }
        tensor_content: "\370\001\000\000\000\000\000\000\036\014\000\000\000\000\000\000\226\014\000\000\000\000\000\000\342\013\000\000\000\000\000\000\022\014\000\000\000\000\000\000\336\013\000\000\000\000\000\000\312\013\000\000\000\000\000\000\250\014\000\000\000\000\000\000z\014\000\000\000\000\000\000\247\013\000\000\000\000\000\000\331\013\000\000\000\000\000\000h\014\000\000\000\000\000\000\262\013\000\000\000\000\000\000\330\r\000\000\000\000\000\000V\014\000\000\000\000\000\000\274\014\000\000\000\000\000\000.\010\000\000\000\000\000\000\200\004\000\000\000\000\000\000\272\013\000\000\000\000\000\000\212\014\000\000\000\000\000\000\304\013\000\000\000\000\000\000G\014\000\000\000\000\000\000\357\013\000\000\000\000\000\000?\014\000\000\000\000\000\000A\014\000\000\000\000\000\000\217\014\000\000\000\000\000\000\"\013\000\000\000\000\000\000\006\r\000\000\000\000\000\000\273\013\000\000\000\000\000\000W\014\000\000\000\000\000\000\262\013\000\000\000\000\000\000>\014\000\000\000\000\000\000\250\013\000\000\000\000\000\000W\014\000\000\000\000\000\000\241\013\000\000\000\000\000\000\020\002\000\000\000\000\000\000Z\014\000\000\000\000\000\000\257\013\000\000\000\000\000\000F\n\000\000\000\000\000\000\313\006\000\000\000\000\000\000y\006\000\000\000\000\000\000<\014\000\000\000\000\000\0002\014\000\000\000\000\000\000\311\013\000\000\000\000\000\000\036\014\000\000\000\000\000\0009\014\000\000\000\000\000\0006\014\000\000\000\000\000\000Y\014\000\000\000\000\000\0007\t\000\000\000\000\000\000\221\007\000\000\000\000\000\000G\005\000\000\000\000\000\000\301\013\000\000\000\000\000\000\363\013\000\000\000\000\000\000\024\014\000\000\000\000\000\000\311\013\000\000\000\000\000\000^\r\000\000\000\000\000\000\246\010\000\000\000\000\000\000x\014\000\000\000\000\000\000\224\014\000\000\000\000\000\000&\014\000\000\000\000\000\000\320\013\000\000\000\000\000\000q\014\000\000\000\000\000\000\240\013\000\000\000\000\000\000L\014\000\000\000\000\000\000\274\013\000\000\000\000\000\000\211\014\000\000\000\000\000\000Y\006\000\000\000\000\000\000\275\014\000\000\000\000\000\000\350\004\000\000\000\000\000\000\371\000\000\000\000\000\000\000\277\013\000\000\000\000\000\000\202\014\000\000\000\000\000\000\232\010\000\000\000\000\000\000\001\014\000\000\000\000\000\0009\014\000\000\000\000\000\000\274\013\000\000\000\000\000\000,\014\000\000\000\000\000\000\322\013\000\000\000\000\000\000\242\t\000\000\000\000\000\000\312\004\000\000\000\000\000\000\326\010\000\000\000\000\000\000F\014\000\000\000\000\000\000\302\013\000\000\000\000\000\000\265\013\000\000\000\000\000\000\301\013\000\000\000\000\000\000:\014\000\000\000\000\000\000\003\013\000\000\000\000\000\000\201\014\000\000\000\000\000\000X\017\000\000\000\000\000\000\317\013\000\000\000\000\000\000\262\013\000\000\000\000\000\000\033\n\000\000\000\000\000\000h\014\000\000\000\000\000\000\304\013\000\000\000\000\000\000(\014\000\000\000\000\000\000=\n\000\000\000\000\000\000\267\013\000\000\000\000\000\000q\014\000\000\000\000\000\000\227\013\000\000\000\000\000\000\324\013\000\000\000\000\000\000\302\013\000\000\000\000\000\000\211\014\000\000\000\000\000\000\225\014\000\000\000\000\000\000b\014\000\000\000\000\000\000\260\007\000\000\000\000\000\000j\005\000\000\000\000\000\000N\014\000\000\000\000\000\000L\013\000\000\000\000\000\000x\014\000\000\000\000\000\000\037\014\000\000\000\000\000\000\304\013\000\000\000\000\000\000\332\005\000\000\000\000\000\000#\014\000\000\000\000\000\000t\005\000\000\000\000\000\000\232\014\000\000\000\000\000\000\273\013\000\000\000\000\000\000\213\014\000\000\000\000\000\000 \014\000\000\000\000\000\000#\014\000\000\000\000\000\000\177\014\000\000\000\000\000\000\277\013\000\000\000\000\000\000\356\004\000\000\000\000\000\000U\014\000\000\000\000\000\000/\014\000\000\000\000\000\000\240\007\000\000\000\000\000\000T\014\000\000\000\000\000\000R\014\000\000\000\000\000\000\203\t\000\000\000\000\000\000\244\t\000\000\000\000\000\000G\014\000\000\000\000\000\000\301\013\000\000\000\000\000\000\"\014\000\000\000\000\000\000=\014\000\000\000\000\000\000\253\013\000\000\000\000\000\000J\014\000\000\000\000\000\000c\014\000\000\000\000\000\000\211\014\000\000\000\000\000\000\333\013\000\000\000\000\000\000\204\014\000\000\000\000\000\000G\014\000\000\000\000\000\000Q\014\000\000\000\000\000\000q\014\000\000\000\000\000\000\371\013\000\000\000\000\000\000\035\003\000\000\000\000\000\000=\014\000\000\000\000\000\000c\014\000\000\000\000\000\000\263\005\000\000\000\000\000\0000\014\000\000\000\000\000\000\211\014\000\000\000\000\000\000\032\014\000\000\000\000\000\000\220\014\000\000\000\000\000\000m\014\000\000\000\000\000\000I\n\000\000\000\000\000\000\256\013\000\000\000\000\000\000\277\013\000\000\000\000\000\000V\014\000\000\000\000\000\000\301\013\000\000\000\000\000\000\233\007\000\000\000\000\000\000U\014\000\000\000\000\000\000_\014\000\000\000\000\000\000!\r\000\000\000\000\000\000z\010\000\000\000\000\000\000\"\014\000\000\000\000\000\000V\014\000\000\000\000\000\000\277\013\000\000\000\000\000\000_\014\000\000\000\000\000\000\205\010\000\000\000\000\000\000\203\013\000\000\000\000\000\000x\014\000\000\000\000\000\000\037\014\000\000\000\000\000\000\273\010\000\000\000\000\000\000\022\014\000\000\000\000\000\000\247\013\000\000\000\000\000\000*\014\000\000\000\000\000\000\263\013\000\000\000\000\000\000\357\014\000\000\000\000\000\000M\014\000\000\000\000\000\000W\014\000\000\000\000\000\000F\014\000\000\000\000\000\000\336\t\000\000\000\000\000\000\001\014\000\000\000\000\000\000q\014\000\000\000\000\000\000\000\003\000\000\000\000\000\000U\014\000\000\000\000\000\000/\014\000\000\000\000\000\000>\014\000\000\000\000\000\000W\014\000\000\000\000\000\000V\014\000\000\000\000\000\000X\014\000\000\000\000\000\000\270\013\000\000\000\000\000\000\301\013\000\000\000\000\000\000%\014\000\000\000\000\000\000F\014\000\000\000\000\000\000R\014\000\000\000\000\000\000|\014\000\000\000\000\000\000\330\006\000\000\000\000\000\000\331\014\000\000\000\000\000\000G\014\000\000\000\000\000\000N\014\000\000\000\000\000\000\302\010\000\000\000\000\000\000\264\014\000\000\000\000\000\000\304\013\000\000\000\000\000\000\263\013\000\000\000\000\000\000\234\n\000\000\000\000\000\000\325\014\000\000\000\000\000\000J\014\000\000\000\000\000\000F\014\000\000\000\000\000\000\005\014\000\000\000\000\000\000N\014\000\000\000\000\000\000M\014\000\000\000\000\000\000g\t\000\000\000\000\000\000F\014\000\000\000\000\000\000Q\014\000\000\000\000\000\000\322\013\000\000\000\000\000\000\036\014\000\000\000\000\000\000\323\013\000\000\000\000\000\000\277\013\000\000\000\000\000\000x\014\000\000\000\000\000\000\236\014\000\000\000\000\000\000|\014\000\000\000\000\000\000\353\004\000\000\000\000\000\000\n\014\000\000\000\000\000\000,\005\000\000\000\000\000\000U\014\000\000\000\000\000\000\023\013\000\000\000\000\000\000x\014\000\000\000\000\000\000\332\014\000\000\000\000\000\000;\014\000\000\000\000\000\000\215\007\000\000\000\000\000\000\311\n\000\000\000\000\000\000/\014\000\000\000\000\000\000L\r\000\000\000\000\000\000\351\013\000\000\000\000\000\000\370\014\000\000\000\000\000\000\234\014\000\000\000\000\000\000{\010\000\000\000\000\000\0004\n\000\000\000\000\000\000\010\010\000\000\000\000\000\000x\007\000\000\000\000\000\000\004\014\000\000\000\000\000\000\033\014\000\000\000\000\000\000\326\010\000\000\000\000\000\000H\014\000\000\000\000\000\000\022\010\000\000\000\000\000\000J\014\000\000\000\000\000\000!\010\000\000\000\000\000\000\202\014\000\000\000\000\000\000x\014\000\000\000\000\000\0000\014\000\000\000\000\000\000f\014\000\000\000\000\000\000\371\005\000\000\000\000\000\000\267\013\000\000\000\000\000\000D\010\000\000\000\000\000\000\"\014\000\000\000\000\000\000\325\013\000\000\000\000\000\000F\014\000\000\000\000\000\000\"\014\000\000\000\000\000\000\213\014\000\000\000\000\000\000J\n\000\000\000\000\000\000a\014\000\000\000\000\000\000#\014\000\000\000\000\000\000H\014\000\000\000\000\000\000\212\014\000\000\000\000\000\000\351\016\000\000\000\000\000\000r\014\000\000\000\000\000\000K\014\000\000\000\000\000\000_\005\000\000\000\000\000\000\320\004\000\000\000\000\000\000u\004\000\000\000\000\000\000V\014\000\000\000\000\000\000\371\007\000\000\000\000\000\000\363\r\000\000\000\000\000\000s\014\000\000\000\000\000\000\367\014\000\000\000\000\000\000\336\r\000\000\000\000\000\000\276\010\000\000\000\000\000\000W\014\000\000\000\000\000\000\263\013\000\000\000\000\000\000\304\013\000\000\000\000\000\000\304\013\000\000\000\000\000\000\232\005\000\000\000\000\000\000O\014\000\000\000\000\000\000}\014\000\000\000\000\000\000M\014\000\000\000\000\000\000\347\010\000\000\000\000\000\0004\014\000\000\000\000\000\000\276\013\000\000\000\000\000\000;\014\000\000\000\000\000\000G\014\000\000\000\000\000\000W\014\000\000\000\000\000\000N\014\000\000\000\000\000\000\211\014\000\000\000\000\000\000g\014\000\000\000\000\000\000\227\014\000\000\000\000\000\000\211\013\000\000\000\000\000\000\362\010\000\000\000\000\000\0000\014\000\000\000\000\000\000\035\013\000\000\000\000\000\000\277\013\000\000\000\000\000\000\030\016\000\000\000\000\000\000\355\013\000\000\000\000\000\000\324\013\000\000\000\000\000\000\244\007\000\000\000\000\000\000G\014\000\000\000\000\000\000t\007\000\000\000\000\000\000\241\013\000\000\000\000\000\000\374\013\000\000\000\000\000\000?\014\000\000\000\000\000\000\337\014\000\000\000\000\000\000\024\n\000\000\000\000\000\0004\t\000\000\000\000\000\000;\014\000\000\000\000\000\000\262\013\000\000\000\000\000\000x\014\000\000\000\000\000\000\200\014\000\000\000\000\000\000\277\014\000\000\000\000\000\000\353\013\000\000\000\000\000\000\037\r\000\000\000\000\000\000\"\014\000\000\000\000\000\000\266\013\000\000\000\000\000\000\331\013\000\000\000\000\000\000o\014\000\000\000\000\000\000T\014\000\000\000\000\000\000\371\003\000\000\000\000\000\000\330\013\000\000\000\000\000\0003\007\000\000\000\000\000\000E\014\000\000\000\000\000\000\301\013\000\000\000\000\000\000\222\014\000\000\000\000\000\000m\014\000\000\000\000\000\0002\014\000\000\000\000\000\000L\014\000\000\000\000\000\000\265\013\000\000\000\000\000\000\276\013\000\000\000\000\000\000\315\013\000\000\000\000\000\000\325\014\000\000\000\000\000\000R\013\000\000\000\000\000\0000\014\000\000\000\000\000\0000\014\000\000\000\000\000\000\004\007\000\000\000\000\000\000\212\013\000\000\000\000\000\000%\t\000\000\000\000\000\000\301\013\000\000\000\000\000\000\351\t\000\000\000\000\000\000\233\014\000\000\000\000\000\000\353\017\000\000\000\000\000\000\244\014\000\000\000\000\000\000M\014\000\000\000\000\000\000I\005\000\000\000\000\000\000V\014\000\000\000\000\000\000\001\r\000\000\000\000\000\000@\007\000\000\000\000\000\000\276\013\000\000\000\000\000\000\272\013\000\000\000\000\000\000\337\013\000\000\000\000\000\000\305\013\000\000\000\000\000\000\336\013\000\000\000\000\000\000\264\n\000\000\000\000\000\000\237\013\000\000\000\000\000\000y\014\000\000\000\000\000\000\373\010\000\000\000\000\000\000\005\014\000\000\000\000\000\000\304\013\000\000\000\000\000\000Y\n\000\000\000\000\000\000G\014\000\000\000\000\000\000\034\014\000\000\000\000\000\000\233\006\000\000\000\000\000\000\210\r\000\000\000\000\000\000W\014\000\000\000\000\000\000r\007\000\000\000\000\000\000\247\013\000\000\000\000\000\000\021\006\000\000\000\000\000\000?\013\000\000\000\000\000\000y\014\000\000\000\000\000\0003\014\000\000\000\000\000\000w\014\000\000\000\000\000\000\216\006\000\000\000\000\000\0003\007\000\000\000\000\000\000\003\n\000\000\000\000\000\000:\t\000\000\000\000\000\000\247\004\000\000\000\000\000\000\007\013\000\000\000\000\000\000\223\004\000\000\000\000\000\000\364\t\000\000\000\000\000\000\\\014\000\000\000\000\000\000;\014\000\000\000\000\000\000\301\013\000\000\000\000\000\000\276\013\000\000\000\000\000\000?\014\000\000\000\000\000\000X\014\000\000\000\000\000\000\363\013\000\000\000\000\000\000M\014\000\000\000\000\000\000K\014\000\000\000\000\000\000\364\014\000\000\000\000\000\000\032\t\000\000\000\000\000\000\326\006\000\000\000\000\000\000-\006\000\000\000\000\000\000M\014\000\000\000\000\000\000\304\013\000\000\000\000\000\000\302\013\000\000\000\000\000\000\324\013\000\000\000\000\000\000\014\014\000\000\000\000\000\000w\014\000\000\000\000\000\000\310\010\000\000\000\000\000\000R\014\000\000\000\000\000\000x\014\000\000\000\000\000\000K\014\000\000\000\000\000\000i\007\000\000\000\000\000\000\304\013\000\000\000\000\000\000J\014\000\000\000\000\000\000\361\003\000\000\000\000\000\0000\010\000\000\000\000\000\000\002\t\000\000\000\000\000\000\253\013\000\000\000\000\000\000\303\013\000\000\000\000\000\000\263\013\000\000\000\000\000\000\302\014\000\000\000\000\000\000\221\013\000\000\000\000\000\000L\014\000\000\000\000\000\0006\014\000\000\000\000\000\000$\r\000\000\000\000\000\000R\014\000\000\000\000\000\000M\014\000\000\000\000\000\000\247\014\000\000\000\000\000\000/\014\000\000\000\000\000\000N\014\000\000\000\000\000\000\016\016\000\000\000\000\000\000R\014\000\000\000\000\000\000R\014\000\000\000\000\000\000\007\013\000\000\000\000\000\000\270\014\000\000\000\000\000\000-\t\000\000\000\000\000\000\221\014\000\000\000\000\000\000N\014\000\000\000\000\000\000\244\013\000\000\000\000\000\000*\014\000\000\000\000\000\000~\014\000\000\000\000\000\000\260\013\000\000\000\000\000\000\330\004\000\000\000\000\000\000\277\013\000\000\000\000\000\000\r\r\000\000\000\000\000\000K\014\000\000\000\000\000\000\"\014\000\000\000\000\000\000\037\014\000\000\000\000\000\0001\014\000\000\000\000\000\000d\014\000\000\000\000\000\000,\014\000\000\000\000\000\000a\014\000\000\000\000\000\000\"\014\000\000\000\000\000\000\275\013\000\000\000\000\000\000\263\013\000\000\000\000\000\000\263\010\000\000\000\000\000\000\034\014\000\000\000\000\000\000\252\013\000\000\000\000\000\000\272\013\000\000\000\000\000\000L\010\000\000\000\000\000\000\274\013\000\000\000\000\000\000\310\013\000\000\000\000\000\000X\014\000\000\000\000\000\000\301\013\000\000\000\000\000\000\263\013\000\000\000\000\000\000\220\001\000\000\000\000\000\000\264\013\000\000\000\000\000\000\242\014\000\000\000\000\000\000\006\014\000\000\000\000\000\000\"\014\000\000\000\000\000\000\272\013\000\000\000\000\000\000\300\t\000\000\000\000\000\000T\014\000\000\000\000\000\000\321\013\000\000\000\000\000\000\271\013\000\000\000\000\000\000\213\014\000\000\000\000\000\0008\014\000\000\000\000\000\000|\014\000\000\000\000\000\000\301\013\000\000\000\000\000\000\321\013\000\000\000\000\000\000{\014\000\000\000\000\000\000\301\013\000\000\000\000\000\000\302\013\000\000\000\000\000\000[\014\000\000\000\000\000\000|\014\000\000\000\000\000\000_\014\000\000\000\000\000\000|\014\000\000\000\000\000\000\274\t\000\000\000\000\000\000\216\014\000\000\000\000\000\000@\014\000\000\000\000\000\000\227\013\000\000\000\000\000\000>\014\000\000\000\000\000\000\351\010\000\000\000\000\000\000x\014\000\000\000\000\000\000+\013\000\000\000\000\000\000\274\013\000\000\000\000\000\0006\014\000\000\000\000\000\000H\014\000\000\000\000\000\000\004\014\000\000\000\000\000\000\200\017\000\000\000\000\000\000_\014\000\000\000\000\000\000}\005\000\000\000\000\000\000\177\014\000\000\000\000\000\000\242\006\000\000\000\000\000\000\212\014\000\000\000\000\000\000\007\014\000\000\000\000\000\000\300\013\000\000\000\000\000\000g\t\000\000\000\000\000\000D\013\000\000\000\000\000\000\275\013\000\000\000\000\000\000\\\014\000\000\000\000\000\000V\014\000\000\000\000\000\000\010\014\000\000\000\000\000\000N\014\000\000\000\000\000\000w\001\000\000\000\000\000\000}\014\000\000\000\000\000\000C\014\000\000\000\000\000\000\322\013\000\000\000\000\000\000\311\013\000\000\000\000\000\0008\n\000\000\000\000\000\000\233\005\000\000\000\000\000\000\343\013\000\000\000\000\000\000\177\n\000\000\000\000\000\000\"\014\000\000\000\000\000\000\304\014\000\000\000\000\000\000{\014\000\000\000\000\000\000\276\013\000\000\000\000\000\000K\014\000\000\000\000\000\0005\014\000\000\000\000\000\000^\014\000\000\000\000\000\000\266\013\000\000\000\000\000\000J\014\000\000\000\000\000\000F\014\000\000\000\000\000\000\201\010\000\000\000\000\000\000\206\013\000\000\000\000\000\000\225\004\000\000\000\000\000\000\227\014\000\000\000\000\000\000\271\013\000\000\000\000\000\000\221\014\000\000\000\000\000\000J\014\000\000\000\000\000\000-\014\000\000\000\000\000\000"
      }
    }
  }
}
node {
  name: "Const_4"
  op: "Const"
  device: "/device:CPU:0"
  attr {
    key: "_output_shapes"
    value {
      list {
        shape {
          dim {
            size: 537
          }
        }
      }
    }
  }
  attr {
    key: "dtype"
    value {
      type: DT_INT64
    }
  }
  attr {
    key: "value"
    value {
      tensor {
        dtype: DT_INT64
        tensor_shape {
          dim {
            size: 537
          }
        }
        tensor_content: ">\000\000\000\000\000\000\000\000\000\000\000\000\000\000\000\000\000\000\000\000\000\000\000/\000\000\000\000\000\000\000\000\000\000\000\000\000\000\000E\000\000\000\000\000\000\000\000\000\000\000\000\000\000\000H\000\000\000\000\000\000\000I\000\000\000\000\000\000\000\000\000\000\000\000\000\000\000\000\000\000\000\000\000\000\000\017\000\000\000\000\000\000\000\000\000\000\000\000\000\000\000O\000\000\000\000\000\000\000\000\000\000\000\000\000\000\000\000\000\000\000\000\000\000\000\024\000\000\000\000\000\000\000\000\000\000\000\000\000\000\000T\000\000\000\000\000\000\000\000\000\000\000\000\000\000\000\000\000\000\000\000\000\000\000\235\000\000\000\000\000\000\000\000\000\000\000\000\000\000\000\000\000\000\000\000\000\000\000\200\000\000\000\000\000\000\000\234\000\000\000\000\000\000\000\013\000\000\000\000\000\000\000f\000\000\000\000\000\000\000\026\000\000\000\000\000\000\000\000\000\000\000\000\000\000\000u\000\000\000\000\000\000\000\000\000\000\000\000\000\000\000\000\000\000\000\000\000\000\000\000\000\000\000\000\000\000\000\000\000\000\000\000\000\000\000\000\000\000\000\000\000\000\000\000\000\000\000\000\000\000\000\000\000\000\000\000\000\000\000\'\000\000\000\000\000\000\000\n\000\000\000\000\000\000\000\000\000\000\000\000\000\000\000\013\000\000\000\000\000\000\000\000\000\000\000\000\000\000\000\000\000\000\000\000\000\000\000\000\000\000\000\000\000\000\000\216\000\000\000\000\000\000\000\000\000\000\000\000\000\000\000\000\000\000\000\000\000\000\000:\000\000\000\000\000\000\000U\000\000\000\000\000\000\000\013\000\000\000\000\000\000\000\000\000\000\000\000\000\000\000\000\000\000\000\000\000\000\000\000\000\000\000\000\000\000\000\000\000\000\000\000\000\000\000\217\000\000\000\000\000\000\000\033\000\000\000\000\000\000\000\000\000\000\000\000\000\000\000f\000\000\000\000\000\000\000\000\000\000\000\000\000\000\000|\000\000\000\000\000\000\000\000\000\000\000\000\000\000\000\025\000\000\000\000\000\000\000\000\000\000\000\000\000\000\000 \000\000\000\000\000\000\000\000\000\000\000\000\000\000\0006\000\000\000\000\000\000\000\000\000\000\000\000\000\000\000\000\000\000\000\000\000\000\000\000\000\000\000\000\000\000\000\000\000\000\000\000\000\000\000\000\000\000\000\000\000\000\000%\000\000\000\000\000\000\000\024\000\000\000\000\000\000\000\000\000\000\000\000\000\000\000\000\000\000\000\000\000\000\000\000\000\000\000\000\000\000\000\000\000\000\000\000\000\000\000[\000\000\000\000\000\000\000\023\000\000\000\000\000\000\000\000\000\000\000\000\000\000\000\000\000\000\000\000\000\000\000R\000\000\000\000\000\000\000\t\000\000\000\000\000\000\000\000\000\000\000\000\000\000\000\000\000\000\000\000\000\000\000?\000\000\000\000\000\000\000F\000\000\000\000\000\000\000\016\000\000\000\000\000\000\000K\000\000\000\000\000\000\000\000\000\000\000\000\000\000\000\000\000\000\000\000\000\000\000\000\000\000\000\000\000\000\000\000\000\000\000\000\000\000\000\000\000\000\000\000\000\000\000\000\000\000\000\000\000\000\000\000\000\000\000\000\000\000\000\000\000\000\000\000\000\000\000f\000\000\000\000\000\000\000\000\000\000\000\000\000\000\000\000\000\000\000\000\000\000\000\000\000\000\000\000\000\000\000X\000\000\000\000\000\000\000\000\000\000\000\000\000\000\000 \000\000\000\000\000\000\000\023\000\000\000\000\000\000\000\000\000\000\000\000\000\000\000\203\000\000\000\000\000\000\000T\000\000\000\000\000\000\000\035\000\000\000\000\000\000\000\000\000\000\000\000\000\000\000,\000\000\000\000\000\000\000\000\000\000\000\000\000\000\000\"\000\000\000\000\000\000\000\000\000\000\000\000\000\000\000\000\000\000\000\000\000\000\000\234\000\000\000\000\000\000\000\000\000\000\000\000\000\000\000\000\000\000\000\000\000\000\000\000\000\000\000\000\000\000\000\000\000\000\000\000\000\000\000\n\000\000\000\000\000\000\000\000\000\000\000\000\000\000\000\000\000\000\000\000\000\000\000~\000\000\000\000\000\000\000\000\000\000\000\000\000\000\000\235\000\000\000\000\000\000\0001\000\000\000\000\000\000\000B\000\000\000\000\000\000\000\000\000\000\000\000\000\000\0009\000\000\000\000\000\000\000\000\000\000\000\000\000\000\000\006\000\000\000\000\000\000\000\000\000\000\000\000\000\000\000\000\000\000\000\000\000\000\000\002\000\000\000\000\000\000\000\000\000\000\000\000\000\000\0006\000\000\000\000\000\000\000\000\000\000\000\000\000\000\000\000\000\000\000\000\000\000\000\000\000\000\000\000\000\000\000&\000\000\000\000\000\000\000S\000\000\000\000\000\000\000\200\000\000\000\000\000\000\000\000\000\000\000\000\000\000\000`\000\000\000\000\000\000\000;\000\000\000\000\000\000\000\000\000\000\000\000\000\000\000\000\000\000\000\000\000\000\000\000\000\000\000\000\000\000\0004\000\000\000\000\000\000\000\000\000\000\000\000\000\000\000\237\000\000\000\000\000\000\000\000\000\000\000\000\000\000\000\000\000\000\000\000\000\000\000\000\000\000\000\000\000\000\000\000\000\000\000\000\000\000\000E\000\000\000\000\000\000\000\000\000\000\000\000\000\000\000\000\000\000\000\000\000\000\000W\000\000\000\000\000\000\000n\000\000\000\000\000\000\000\000\000\000\000\000\000\000\000\000\000\000\000\000\000\000\000\000\000\000\000\000\000\000\000\000\000\000\000\000\000\000\0000\000\000\000\000\000\000\000\207\000\000\000\000\000\000\000\000\000\000\000\000\000\000\000\000\000\000\000\000\000\000\000)\000\000\000\000\000\000\000\020\000\000\000\000\000\000\000\000\000\000\000\000\000\000\000\000\000\000\000\000\000\000\000\000\000\000\000\000\000\000\000\234\000\000\000\000\000\000\000\000\000\000\000\000\000\000\000\000\000\000\000\000\000\000\000\000\000\000\000\000\000\000\000\'\000\000\000\000\000\000\000\000\000\000\000\000\000\000\000\000\000\000\000\000\000\000\000\035\000\000\000\000\000\000\000\000\000\000\000\000\000\000\000\000\000\000\000\000\000\000\000\000\000\000\000\000\000\000\000\000\000\000\000\000\000\000\000\000\000\000\000\000\000\000\000\000\000\000\000\000\000\000\000\234\000\000\000\000\000\000\000\000\000\000\000\000\000\000\000)\000\000\000\000\000\000\000\000\000\000\000\000\000\000\000\000\000\000\000\000\000\000\000\000\000\000\000\000\000\000\000D\000\000\000\000\000\000\000\000\000\000\000\000\000\000\000\000\000\000\000\000\000\000\000\000\000\000\000\000\000\000\000\000\000\000\000\000\000\000\000\027\000\000\000\000\000\000\000\000\000\000\000\000\000\000\000\000\000\000\000\000\000\000\000d\000\000\000\000\000\000\000\000\000\000\000\000\000\000\000\000\000\000\000\000\000\000\000\000\000\000\000\000\000\000\000\000\000\000\000\000\000\000\000\000\000\000\000\000\000\000\000\000\000\000\000\000\000\000\000\021\000\000\000\000\000\000\000\000\000\000\000\000\000\000\000\000\000\000\000\000\000\000\000\000\000\000\000\000\000\000\000\000\000\000\000\000\000\000\000\000\000\000\000\000\000\000\000\000\000\000\000\000\000\000\000#\000\000\000\000\000\000\000u\000\000\000\000\000\000\000\000\000\000\000\000\000\000\000J\000\000\000\000\000\000\000s\000\000\000\000\000\000\000\026\000\000\000\000\000\000\000\000\000\000\000\000\000\000\000!\000\000\000\000\000\000\000\000\000\000\000\000\000\000\000\000\000\000\000\000\000\000\000\000\000\000\000\000\000\000\000\000\000\000\000\000\000\000\000]\000\000\000\000\000\000\000\000\000\000\000\000\000\000\000?\000\000\000\000\000\000\000N\000\000\000\000\000\000\000\232\000\000\000\000\000\000\000\000\000\000\000\000\000\000\0009\000\000\000\000\000\000\000\224\000\000\000\000\000\000\000i\000\000\000\000\000\000\000M\000\000\000\000\000\000\000;\000\000\000\000\000\000\000\000\000\000\000\000\000\000\000\177\000\000\000\000\000\000\000\000\000\000\000\000\000\000\000\034\000\000\000\000\000\000\000\000\000\000\000\000\000\000\0005\000\000\000\000\000\000\000&\000\000\000\000\000\000\0002\000\000\000\000\000\000\000\000\000\000\000\000\000\000\000\000\000\000\000\000\000\000\000\010\000\000\000\000\000\000\000\000\000\000\000\000\000\000\000\'\000\000\000\000\000\000\000\000\000\000\000\000\000\000\000\210\000\000\000\000\000\000\000\000\000\000\000\000\000\000\000\000\000\000\000\000\000\000\000\000\000\000\000\000\000\000\000\000\000\000\000\000\000\000\000\000\000\000\000\000\000\000\000\000\000\000\000\000\000\000\000\000\000\000\000\000\000\000\000\000\000\000\000\000\000\000\000\236\000\000\000\000\000\000\000\000\000\000\000\000\000\000\000\000\000\000\000\000\000\000\000\234\000\000\000\000\000\000\000\n\000\000\000\000\000\000\000\"\000\000\000\000\000\000\000\000\000\000\000\000\000\000\000z\000\000\000\000\000\000\000b\000\000\000\000\000\000\000\000\000\000\000\000\000\000\000\020\000\000\000\000\000\000\000\242\000\000\000\000\000\000\000~\000\000\000\000\000\000\000\000\000\000\000\000\000\000\000\000\000\000\000\000\000\000\000\000\000\000\000\000\000\000\000\000\000\000\000\000\000\000\000\000\000\000\000\000\000\000\000p\000\000\000\000\000\000\000\000\000\000\000\000\000\000\000\000\000\000\000\000\000\000\000U\000\000\000\000\000\000\000\000\000\000\000\000\000\000\000\000\000\000\000\000\000\000\000\000\000\000\000\000\000\000\000\000\000\000\000\000\000\000\000t\000\000\000\000\000\000\000\000\000\000\000\000\000\000\000\000\000\000\000\000\000\000\000\010\000\000\000\000\000\000\000@\000\000\000\000\000\000\000)\000\000\000\000\000\000\000\000\000\000\000\000\000\000\000\000\000\000\000\000\000\000\000\227\000\000\000\000\000\000\000\000\000\000\000\000\000\000\000z\000\000\000\000\000\000\000\000\000\000\000\000\000\000\000\000\000\000\000\000\000\000\000\000\000\000\000\000\000\000\000\000\000\000\000\000\000\000\000\000\000\000\000\000\000\000\000.\000\000\000\000\000\000\000\000\000\000\000\000\000\000\000\037\000\000\000\000\000\000\000\000\000\000\000\000\000\000\000\010\000\000\000\000\000\000\000\014\000\000\000\000\000\000\000\000\000\000\000\000\000\000\000\000\000\000\000\000\000\000\000\037\000\000\000\000\000\000\000\000\000\000\000\000\000\000\000\213\000\000\000\000\000\000\000\'\000\000\000\000\000\000\000\\\000\000\000\000\000\000\000\000\000\000\000\000\000\000\000\000\000\000\000\000\000\000\000\022\000\000\000\000\000\000\000\000\000\000\000\000\000\000\000\000\000\000\000\000\000\000\000\036\000\000\000\000\000\000\000\000\000\000\000\000\000\000\000+\000\000\000\000\000\000\000\000\000\000\000\000\000\000\000\237\000\000\000\000\000\000\000\000\000\000\000\000\000\000\000\000\000\000\000\000\000\000\000\000\000\000\000\000\000\000\000\000\000\000\000\000\000\000\000\022\000\000\000\000\000\000\000\000\000\000\000\000\000\000\000\000\000\000\000\000\000\000\000\000\000\000\000\000\000\000\000\233\000\000\000\000\000\000\000\000\000\000\000\000\000\000\000\000\000\000\000\000\000\000\000\010\000\000\000\000\000\000\000\031\000\000\000\000\000\000\000 \000\000\000\000\000\000\000\000\000\000\000\000\000\000\000$\000\000\000\000\000\000\000&\000\000\000\000\000\000\000\225\000\000\000\000\000\000\000\000\000\000\000\000\000\000\000\000\000\000\000\000\000\000\000\014\000\000\000\000\000\000\000\000\000\000\000\000\000\000\000n\000\000\000\000\000\000\000\220\000\000\000\000\000\000\000\000\000\000\000\000\000\000\000\026\000\000\000\000\000\000\000\000\000\000\000\000\000\000\000\000\000\000\000\000\000\000\000\023\000\000\000\000\000\000\000#\000\000\000\000\000\000\000\000\000\000\000\000\000\000\000)\000\000\000\000\000\000\000\000\000\000\000\000\000\000\000\000\000\000\000\000\000\000\000\000\000\000\000\000\000\000\000$\000\000\000\000\000\000\000\000\000\000\000\000\000\000\000\000\000\000\000\000\000\000\000\000\000\000\000\000\000\000\0007\000\000\000\000\000\000\000\000\000\000\000\000\000\000\000\000\000\000\000\000\000\000\000\000\000\000\000\000\000\000\000%\000\000\000\000\000\000\000p\000\000\000\000\000\000\000Q\000\000\000\000\000\000\000\000\000\000\000\000\000\000\000{\000\000\000\000\000\000\000\016\000\000\000\000\000\000\000D\000\000\000\000\000\000\000\236\000\000\000\000\000\000\000\021\000\000\000\000\000\000\000\r\000\000\000\000\000\000\000\000\000\000\000\000\000\000\000:\000\000\000\000\000\000\000\000\000\000\000\000\000\000\000\000\000\000\000\000\000\000\000\000\000\000\000\000\000\000\000\000\000\000\000\000\000\000\000\000\000\000\000\000\000\000\000\000\000\000\000\000\000\000\000\000\000\000\000\000\000\000\000\"\000\000\000\000\000\000\000\000\000\000\000\000\000\000\000\000\000\000\000\000\000\000\0002\000\000\000\000\000\000\000\000\000\000\000\000\000\000\000\033\000\000\000\000\000\000\000\020\000\000\000\000\000\000\000\000\000\000\000\000\000\000\000\000\000\000\000\000\000\000\000\000\000\000\000\000\000\000\000\233\000\000\000\000\000\000\000\000\000\000\000\000\000\000\000K\000\000\000\000\000\000\000\021\000\000\000\000\000\000\000\000\000\000\000\000\000\000\000\000\000\000\000\000\000\000\000\000\000\000\000\000\000\000\000&\000\000\000\000\000\000\000\025\000\000\000\000\000\000\000\000\000\000\000\000\000\000\000\000\000\000\000\000\000\000\000\020\000\000\000\000\000\000\000r\000\000\000\000\000\000\000\000\000\000\000\000\000\000\000\000\000\000\000\000\000\000\000\000\000\000\000\000\000\000\000\000\000\000\000\000\000\000\000\000\000\000\000\000\000\000\000\000\000\000\000\000\000\000\000\000\000\000\000\000\000\000\000k\000\000\000\000\000\000\000\000\000\000\000\000\000\000\000\000\000\000\000\000\000\000\000\202\000\000\000\000\000\000\000\000\000\000\000\000\000\000\000\000\000\000\000\000\000\000\000\035\000\000\000\000\000\000\000G\000\000\000\000\000\000\000\000\000\000\000\000\000\000\000$\000\000\000\000\000\000\000\026\000\000\000\000\000\000\000\030\000\000\000\000\000\000\000\000\000\000\000\000\000\000\000\000\000\000\000\000\000\000\000A\000\000\000\000\000\000\000\000\000\000\000\000\000\000\000l\000\000\000\000\000\000\000\000\000\000\000\000\000\000\000\000\000\000\000\000\000\000\000\000\000\000\000\000\000\000\000w\000\000\000\000\000\000\000\000\000\000\000\000\000\000\000\000\000\000\000\000\000\000\000\000\000\000\000\000\000\000\000\000\000\000\000\000\000\000\000\000\000\000\000\000\000\000\000\000\000\000\000\000\000\000\000\000\000\000\000\000\000\000\000\000\000\000\000\000\000\000\000\000\000\000\000\000\000\000\000\000\000\000\000\000\000\000\000+\000\000\000\000\000\000\000\000\000\000\000\000\000\000\000\000\000\000\000\000\000\000\000\000\000\000\000\000\000\000\000(\000\000\000\000\000\000\000^\000\000\000\000\000\000\000\000\000\000\000\000\000\000\000\000\000\000\000\000\000\000\000\r\000\000\000\000\000\000\000\000\000\000\000\000\000\000\000\000\000\000\000\000\000\000\000\000\000\000\000\000\000\000\000\000\000\000\000\000\000\000\000\000\000\000\000\000\000\000\000\000\000\000\000\000\000\000\000\000\000\000\000\000\000\000\000\020\000\000\000\000\000\000\000\000\000\000\000\000\000\000\000\000\000\000\000\000\000\000\000)\000\000\000\000\000\000\000\000\000\000\000\000\000\000\000\000\000\000\000\000\000\000\000\000\000\000\000\000\000\000\000\000\000\000\000\000\000\000\000f\000\000\000\000\000\000\000\000\000\000\000\000\000\000\000\000\000\000\000\000\000\000\000\000\000\000\000\000\000\000\000\000\000\000\000\000\000\000\000\000\000\000\000\000\000\000\000k\000\000\000\000\000\000\000\000\000\000\000\000\000\000\000A\000\000\000\000\000\000\000\000\000\000\000\000\000\000\000\213\000\000\000\000\000\000\000\025\000\000\000\000\000\000\000X\000\000\000\000\000\000\000C\000\000\000\000\000\000\000\000\000\000\000\000\000\000\000\034\000\000\000\000\000\000\000\000\000\000\000\000\000\000\000\000\000\000\000\000\000\000\000\000\000\000\000\000\000\000\000\017\000\000\000\000\000\000\000\206\000\000\000\000\000\000\000\000\000\000\000\000\000\000\000\024\000\000\000\000\000\000\0005\000\000\000\000\000\000\000\034\000\000\000\000\000\000\000\000\000\000\000\000\000\000\000\000\000\000\000\000\000\000\000\000\000\000\000\000\000\000\000\000\000\000\000\000\000\000\000\234\000\000\000\000\000\000\000/\000\000\000\000\000\000\000\000\000\000\000\000\000\000\000\000\000\000\000\000\000\000\000\000\000\000\000\000\000\000\000\000\000\000\000\000\000\000\000\000\000\000\000\000\000\000\000\000\000\000\000\000\000\000\000\000\000\000\000\000\000\000\000e\000\000\000\000\000\000\000\000\000\000\000\000\000\000\000\022\000\000\000\000\000\000\000 \000\000\000\000\000\000\000\032\000\000\000\000\000\000\000\000\000\000\000\000\000\000\000\000\000\000\000\000\000\000\000\227\000\000\000\000\000\000\000\000\000\000\000\000\000\000\000\000\000\000\000\000\000\000\000\000\000\000\000\000\000\000\000)\000\000\000\000\000\000\000\000\000\000\000\000\000\000\000\000\000\000\000\000\000\000\000\000\000\000\000\000\000\000\000\000\000\000\000\000\000\000\000+\000\000\000\000\000\000\000\223\000\000\000\000\000\000\000\226\000\000\000\000\000\000\000\000\000\000\000\000\000\000\000\000\000\000\000\000\000\000\000\000\000\000\000\000\000\000\000\000\000\000\000\000\000\000\000\000\000\000\000\000\000\000\000"
      }
    }
  }
}
node {
  name: "Const_5"
  op: "Const"
  device: "/device:CPU:0"
  attr {
    key: "_output_shapes"
    value {
      list {
        shape {
          dim {
            size: 537
          }
        }
      }
    }
  }
  attr {
    key: "dtype"
    value {
      type: DT_INT32
    }
  }
  attr {
    key: "value"
    value {
      tensor {
        dtype: DT_INT32
        tensor_shape {
          dim {
            size: 537
          }
        }
