node {
  name: "global_step/Initializer/zeros"
  op: "Const"
  attr {
    key: "_class"
    value {
      list {
        s: "loc:@global_step"
      }
    }
  }
  attr {
    key: "_output_shapes"
    value {
      list {
        shape {
        }
      }
    }
  }
  attr {
    key: "dtype"
    value {
      type: DT_INT64
    }
  }
  attr {
    key: "value"
    value {
      tensor {
        dtype: DT_INT64
        tensor_shape {
        }
        int64_val: 0
      }
    }
  }
}
node {
  name: "global_step"
  op: "VariableV2"
  attr {
    key: "_class"
    value {
      list {
        s: "loc:@global_step"
      }
    }
  }
  attr {
    key: "_output_shapes"
    value {
      list {
        shape {
        }
      }
    }
  }
  attr {
    key: "container"
    value {
      s: ""
    }
  }
  attr {
    key: "dtype"
    value {
      type: DT_INT64
    }
  }
  attr {
    key: "shape"
    value {
      shape {
      }
    }
  }
  attr {
    key: "shared_name"
    value {
      s: ""
    }
  }
}
node {
  name: "global_step/Assign"
  op: "Assign"
  input: "global_step"
  input: "global_step/Initializer/zeros"
  attr {
    key: "T"
    value {
      type: DT_INT64
    }
  }
  attr {
    key: "_class"
    value {
      list {
        s: "loc:@global_step"
      }
    }
  }
  attr {
    key: "_output_shapes"
    value {
      list {
        shape {
        }
      }
    }
  }
  attr {
    key: "use_locking"
    value {
      b: true
    }
  }
  attr {
    key: "validate_shape"
    value {
      b: true
    }
  }
}
node {
  name: "global_step/read"
  op: "Identity"
  input: "global_step"
  attr {
    key: "T"
    value {
      type: DT_INT64
    }
  }
  attr {
    key: "_class"
    value {
      list {
        s: "loc:@global_step"
      }
    }
  }
  attr {
    key: "_output_shapes"
    value {
      list {
        shape {
        }
      }
    }
  }
}
node {
  name: "IsVariableInitialized"
  op: "IsVariableInitialized"
  input: "global_step"
  attr {
    key: "_class"
    value {
      list {
        s: "loc:@global_step"
      }
    }
  }
  attr {
    key: "_output_shapes"
    value {
      list {
        shape {
        }
      }
    }
  }
  attr {
    key: "dtype"
    value {
      type: DT_INT64
    }
  }
}
node {
  name: "cond/Switch"
  op: "Switch"
  input: "IsVariableInitialized"
  input: "IsVariableInitialized"
  attr {
    key: "T"
    value {
      type: DT_BOOL
    }
  }
  attr {
    key: "_output_shapes"
    value {
      list {
        shape {
        }
        shape {
        }
      }
    }
  }
}
node {
  name: "cond/switch_t"
  op: "Identity"
  input: "cond/Switch:1"
  attr {
    key: "T"
    value {
      type: DT_BOOL
    }
  }
  attr {
    key: "_output_shapes"
    value {
      list {
        shape {
        }
      }
    }
  }
}
node {
  name: "cond/switch_f"
  op: "Identity"
  input: "cond/Switch"
  attr {
    key: "T"
    value {
      type: DT_BOOL
    }
  }
  attr {
    key: "_output_shapes"
    value {
      list {
        shape {
        }
      }
    }
  }
}
node {
  name: "cond/pred_id"
  op: "Identity"
  input: "IsVariableInitialized"
  attr {
    key: "T"
    value {
      type: DT_BOOL
    }
  }
  attr {
    key: "_output_shapes"
    value {
      list {
        shape {
        }
      }
    }
  }
}
node {
  name: "cond/read/Switch"
  op: "RefSwitch"
  input: "global_step"
  input: "cond/pred_id"
  attr {
    key: "T"
    value {
      type: DT_INT64
    }
  }
  attr {
    key: "_class"
    value {
      list {
        s: "loc:@global_step"
      }
    }
  }
  attr {
    key: "_output_shapes"
    value {
      list {
        shape {
        }
        shape {
        }
      }
    }
  }
}
node {
  name: "cond/read"
  op: "Identity"
  input: "cond/read/Switch:1"
  attr {
    key: "T"
    value {
      type: DT_INT64
    }
  }
  attr {
    key: "_output_shapes"
    value {
      list {
        shape {
        }
      }
    }
  }
}
node {
  name: "cond/Switch_1"
  op: "Switch"
  input: "global_step/Initializer/zeros"
  input: "cond/pred_id"
  attr {
    key: "T"
    value {
      type: DT_INT64
    }
  }
  attr {
    key: "_class"
    value {
      list {
        s: "loc:@global_step"
      }
    }
  }
  attr {
    key: "_output_shapes"
    value {
      list {
        shape {
        }
        shape {
        }
      }
    }
  }
}
node {
  name: "cond/Merge"
  op: "Merge"
  input: "cond/Switch_1"
  input: "cond/read"
  attr {
    key: "N"
    value {
      i: 2
    }
  }
  attr {
    key: "T"
    value {
      type: DT_INT64
    }
  }
  attr {
    key: "_output_shapes"
    value {
      list {
        shape {
        }
        shape {
        }
      }
    }
  }
}
node {
  name: "add/y"
  op: "Const"
  attr {
    key: "_output_shapes"
    value {
      list {
        shape {
        }
      }
    }
  }
  attr {
    key: "dtype"
    value {
      type: DT_INT64
    }
  }
  attr {
    key: "value"
    value {
      tensor {
        dtype: DT_INT64
        tensor_shape {
        }
        int64_val: 0
      }
    }
  }
}
node {
  name: "add"
  op: "Add"
  input: "cond/Merge"
  input: "add/y"
  attr {
    key: "T"
    value {
      type: DT_INT64
    }
  }
  attr {
    key: "_output_shapes"
    value {
      list {
        shape {
        }
      }
    }
  }
}
node {
  name: "Const"
  op: "Const"
  device: "/device:CPU:0"
  attr {
    key: "_output_shapes"
    value {
      list {
        shape {
          dim {
            size: 537
          }
        }
      }
    }
  }
  attr {
    key: "dtype"
    value {
      type: DT_DOUBLE
    }
  }
  attr {
    key: "value"
    value {
      tensor {
        dtype: DT_DOUBLE
        tensor_shape {
          dim {
            size: 537
          }
        }
        tensor_content: "\323F\334\232-\371\243?\222$I\222$I\262\277t\321E\027]t\301?\314w\007\301\273T\244?\367\376\035\232\212L\244?\033\321\363\321t\316\267?\010\037|\360\301\007\237?\021\021\021\021\021\021\301?\023o\217\t}z\302?\021\021\021\021\021\021\221?h/\241\275\204\366\222?\353\257\376\352\257\376\300?\032\244A\032\244A\232?\301\030H4\005\177\307?\220\247\004yJ\220\327?P9\273\220V\217\306?\310\311Sv\333R\201\277\356\211\014\244\367\347\332?\232\231\231\231\231\231\231?\021\021\021\021\021\021\301?.<!W\353\302s?;+\375}x<\212?+\007\347Ad[\203?\222$I\222$I\262\277\307_\263\243\026!\277?&\277X\362\213%\277?YE\326%\315\250\255??\251\3725O\271\243?\360\007\374\001\177\300\177?\270\226\310\375\255%\322?\253\001o`M\333\263?\222$I\222$I\262\277t\345\001\311:W\216?\000\000\000\000\000\000\000\000\020\020\020\020\020\020\240?Y3\301A\326L\317?v\345\001\311:W^?\000\000\000\000\000\000\000\000\030\227\212\033^H\266?\220K\375\030\324\205\301?)\371I\331\nI\264?\355\340\367:u\344\205?\000\000\000\000\000\000\340?r\257\271\2204\245\222?\245\350aoT\212\236?n\257 L`\027z?\222$I\222$I\262\277\222$I\222$I\242\277\231\234\3553\270\351\266?s\263D8{\000\247?\214\325\223i>\351\263?\032\244A\032\244A\232?\355X\2010\322\216e?\234\231\231\231\231\231y\277\000\000\000\000\000\000\000\000\223T{\242\342\226\261?\273\272\001*\315\204\266?\000\000\000\000\000\000\340?S\360\000\227Ls\316?\'\3167\322x\342\274?c\003X\360h\250\312?\000\000\000\000\000\000\000\000\237\260\312\326w9\252?\315\314\314\314\314\314\344?\332\201\271v`\256\235?\355\033\326\276a\355\313?\334\261X\022\007\030\263?\270\007\367\247iE\273?\370\341\222\032\340\310\304?\362I\235\226\365\260\310?\323\323\323\323\323\323\253?\000\000\000\000\000\000\000\000\257W\352\366\277\225\244?W\026xe\201WF?\222$I\222$I\262\277N\033\350\264\201N\233?\000\000\000\000\000\000\340?\000\000\000\000\000\000\000\000_\363\340\260\275\365\261?\361\305\255\302\340=\211?\000\000\000\000\000\000\000\000\334\266m\333\266m\313?P~\036g\010\372\256?\000\000\000\000\000\000\000\000h/\241\275\204\366\242?\222$I\222$I\262\277\216\035\3477\214\234\246?F\252\347\207\263\014\234?\\\307\025n\025\244\263?Tv\230\272\334\376\260?\024\024\024\024\024\024\224?\033\363\007\324\214\021\271?\222$I\222$I\242\277\000\000\000\000\000\000\000\000\222$I\222$I\262\277\027\326g\225\343T\264?2(\025&\336\217\234?\222$I\222$I\302?O\033\350\264\201Nk\277\000\000\000\000\000\000\000\000\030\206a\030\206a\250?\021\021\021\021\021\021\301?\205\336\201\267\021\265\310?\222$I\222$I\242\277\010?7\'\033z\276?\001\3727\261r|\263?\000\000\000\000\000\000\000\000\00465\227*M\251?\002UJ\346\241\307\276?d\354k\371\361\311\222?\035W\022\230\367\204\276?\004\377\367\236k\342\301?\222$I\222$I\262\277\370\177q.\\\177\264?6\005\234\206\363\234\247?\007\037|\360\301\007o?\311\251\265\201\255\211\307?\334\266m\333\266m\313?\000\000\000\000\000\000\000\000t\321E\027]t\261?p\037\301}\004\367\261?\374e\300(\327\016\261?\010\202 \010\202 \330?\000\000\000\000\000\000\000\000\006\232\252\200\256X\300?\334\266m\333\266m\313?m\211\351\237\220\245\306?\275.\223Hn9\263?\342[@v\262\037\250?\334\266m\333\266m\313?\000\000\000\000\000\000\000\000\000\000\000\000\000\000\340?&\222q\"\031\'\274?a\226W\320\373\366\223?\222$I\222$I\262\277\315\205\244)\025g\302?d\223M6\331d\303?\000\000\000\000\000\000\240?\000\000\000\000\000\000\000\000\222$I\222$I\262\277\231\231\231\231\231\231\265?\305\212\352\177\255`\320?f\217\321\022\254+\257?\250\031\366\3342#\253?\"\"\"\"\"\"\242?,.\370\025\266\222\240?\032c\220]\211\027\260?\222$I\222$I\262\277VUUUUU\335?\2752\334O\277\342\267?i\371\376\004\206\313\305?\223$I\222$I\262?\3709\333Tp\177\264?-\021`1\364\r~?a\000\365>\336\322\214?\007.\3115\350\261\310?\030\206a\030\206a\230?T\341y\017\010\002\301?\222$I\222$I\242\277M\356\2530\':\224?/V\326QT\014t\277\231i\362,t\005\310?\000\000\000\000\000\000\000\000\232\231\231\231\231\231\321?h/\241\275\204\366\222?\240\364I\237\364I\257?\254\037\202\373\272=\253?Q\360a2\216\262\271?\n\262\255z\237\372\267?\017\020\020\020\020\020\200?\332\3712\022EG\223?\201Y\030\227\017\253\302?\200h\356L5\273\231?\222$I\222$I\262\277\000\000\000\000\000\000\000\000\317\221\010\030\013\300\307?\000\000\000\000\000\000\000\000\245^G\352u\244\336?\000\000\000\000\000\000\000\000\366\253\263\351c\273o?\020\004A\020\004A\220?\000\000\000\000\000\000\000\000\371o\3345\240\302\266?\036\324A\035\324A\235?\222$I\222$I\262\277\222$I\222$I\262\277\325N\355\324N\355\324?-e#\227z\266\320?\315\314\314\314\314\314\334?\277\n\230\365Ma\304?UUUUUU\225?M\356\2530\':\224?\000\000\000\000\000\000\340?\334\266m\333\266m\273?\232\231\231\231\231\231\271?\347\030\250\"\203\365\264?\310P\331a\352r\320?\000\000\000\000\000\000\340?\000\000\000\000\000\000\340?\342\275Q\213\330\335\261?\237\237\204\223\343\321\266?\034\307q\034\307q\234?\361\254h$\340\233\207?\373\232\014\377\315s\300?\226\273-\255\030\"\316?\222$I\222$I\262\277\222$I\222$I\262\277\354\230\340\301<Q\305?\222$I\222$I\262\277\222$I\222$I\262\277\337\274\232xV4\202?\000\000\000\000\000\000\340?\000\000\000\000\000\000\000\000\000\000\000\000\000\000\000\000\222$I\222$I\262\277d\223M6\331d\243?\021\021\021\021\021\021\221?*G\0107G\267\300?\265W\305\016\':\305?t\321E\027]t\301?\302\022U\255d\r\244?\252\000 \223\210\272a\277}\3012\035\203C\247?\000\000\000\000\000\000\320?\262c\377T-\333\303?\000\000\000\000\000\000\000\000m\"%\034\007\265\274?\000\000\000\000\000\000\000\000\252u?\245:\242\270?Qcow\242\343\261?\000\000\000\000\000\000\000\000Ud\242\232{\377\316?ZbO\275\322J\260?\307X\306\232\237=\270?h\215\326h\215\326\260?Wn\206\03614\246?\031\241\260\277P\371\235?n\322\267\016\354\216\267?\3278\315\312\335\203\311?\351\305\307\221\257O\312?UUUUUU\225?\243\270\3351#e\260?\222$I\222$I\262\277\323\204\360\025X\352m\277\000\000\000\000\000\000\340?\020\273\006?.\235\306?\217m\356y\365\210\274?\214\326\260\010am\266?\222$I\222$I\262\277V~B\234\225\237\240?\375\244\361\303\007\301\245?\000\000\000\000\000\000\000\000\340\274\010 \347f\263?\000\000\000\000\000\000\000\000\002P`N\025\324\213?\222$I\222$I\262\277t\321E\027]t\301?\021\021\021\021\021\021\321?\310)\310\215\230;\306?t\321E\027]t\301?\222$I\222$I\262\277\222$I\222$I\262\277\335\335\335\335\335\335\275?H\316\304,8\364\232?\305\177AVO\374\227?\315\314\314\314\314\314\344?,\210\232\363\267\260\270?\272J\033\r\315W\202\277!O\t\362\224 \237?\234\231\231\231\231\231\231\277\00494J|\310\262?\003c\233\366\203\254\243?|\206]\001r\257\241?\327\007%\357l\271\270?\334\314\366\310\036\257\227?n\335\245\266\'\325\275?333333\263\277\030\206a\030\206a\210?\000\000\000\000\000\000\000\000\007\037|\360\301\007\217?W9\343\225n\301\255?\266h\n\021\315E\220\277\000\000\000\000\000\000\000\000\222$I\222$I\262\277\020j\010\317\274\250\255?\032\244A\032\244A\232?\000\000\000\000\000\000\000\000\222$I\222$I\262\277\222$I\222$I\262\277\222cb\313J\377\236?\000\000\000\000\000\000\340?t\321E\027]t\261?\252\007\363W\323y\244?\034\307q\034\307q\254?\331\"\302\025/\367\301?\246\376\t\n\233R\250?\222$I\222$I\262\277\373M\257\204\370\301\275?\001\264\203\245\332\233\204?\335\340`\014]\034\303?UUUUUU\265?DDDDDD\324?*I\223\246\253\227\264?\222$I\222$I\262\277B\257\036\022\313#\273?\240\364I\237\364I\217?\"W\353\302\023r\275?O\033\350\264\201N\213?\332\201\271v`\256\215?\343/E\201AJ\301?#\\\250sG\000\247?\222$I\222$I\262\277\030\206a\030\206a\230?+\351K\305\2212\302?\014\361%\2050\230\217?l5\313O\020\231\255?\336\345\t\303\224\"\252?Rv.P\002\210\262?\222$I\222$I\262\277\236\021\340\031\001\236\221?Y\335\354*#\004\220?\253\377\354_\260\350\274?\222$I\222$I\242\27707\307H\177\337\230?\025l\301\026l\301\206\277\333.L2L\234\232?\222$I\222$I\262\277o\027\322qs\255\262?\217\032d\017\250\\\307?\030\206a\030\206a\250\277\222$I\222$I\262\277\222$I\222$I\262\277\225\224\224\224\224\224\204?\222$I\222$I\242?\0300\215\001\323\030\260?\346\n\3676\371\367\305?\304j\343)D\251\252?\222$I\222$I\262\277\222$I\222$I\262\277\256\232\210\270G\005\261?\272\216\371\003\037\241\326?\356=\301\257\343[\254?\000\000\000\000\000\000\000\000\007#mR\035Q\277?\023+u\205\375j\310?\354\266^U\357-\267?G}d=\0344\302?\222$I\222$I\262\277\307\035\013[-\356\244?333333\333?\344\027K~\261\344\227?\003\312\200w\372V\306?\354\332D\311\256M\244?\030\347\241cxq\236?z\277\254\367\313z\317?N\033\350\264\201N\213?\227\221N\346\265\261\333?\3111|?\310\334\257?\244m\224/\234N\230?\225\374\325\314)\222\270?@\333\210\261\220C\230?\337\206\235\363m\330\271?G\312\357\003\212\310\264?\n\243\314P\000\242\261?t\321E\027]t\301?\315\314\314\314\314\314\344?\030bf%d\327\251?\322E\027]t\321\265?333333\303?\000\000\000\000\000\000\000\000\347\313\001\226m\276\234?e>\312\270\321\323\273?\251\t\010M\333\256\276?\005r\217\212\037\264\267?\033\326\276a\355\033\226?\212\241\203\031I\210\302?z\257M\355\006\332\270?\300\002\251e+\016\270?&[\253\2301\246\301?\227W1(\001>\277?}K\001\231\344\024\301?\230\252\260\027\016\223\251?JzMK\321\271\272?\350\016\250X\264\024\272?}\322\'}\322\'\215?\000\000\000\000\000\000\340?\244\014<\335\232\037\226?\024\024\024\024\024\024\224?\222$I\222$I\262\277\000\000\000\000\000\000\000\000\367\351\2744W\253\303?\334\266m\333\266m\313?\000\000\000\000\000\000\000\000\211\262\303\247.\264\244?\241^\3130!\301\245?p(_u\203o\261?g\362;\204\3366\260?\222$I\222$I\262\277\001\241\344N\321\302y?\232\231\231\231\231\231\271\277\353Q\270\036\205\353\261?\216\216s\202\322\300\301?+\010\023\330\205\326\266?i\013\333\026\302\233\255?\222$I\222$I\242\277\000\000\000\000\000\000\340?\000\000\000\000\000\000\000\000\244\244MN\033\365\260?\002\235\365\216\273\334\244?8B\031\275-k\265?\000\000\000\000\000\000\000\000\375\204\221h=\223\233?\206\276\253LV$\275?\000\000\000\000\000\000\000\000h/\241\275\204\366\222?\004\265Czi\275\231?\000\000\000\000\000\000\000\000\032\240\001\032\240\001\232?\000\000\000\000\000\000\340?\315\314\314\314\314\314\344?r\350\360\314%,\275?\222$I\222$I\242\277\222$I\222$I\262\277}\252M\251R\270\251?\222$I\222$I\262\277\000\000\000\000\000\000\340?<\316&\325\202\261\264?\260\005[\260\005[\300?\232\231\231\231\231\231\321?s\203\007x\037\016\301?:\264\310v\276\237z\277TZ\354\233\214\251\211?\000\000\000\000\000\000\000\000\334\266m\333\266m\313?|\001.\222\263\276\227?\222$I\222$I\262\2774r\004\364\311\316\304?\000\000\000\000\000\000\000\000x\331\332\234\336\206\314?\030\031\031\031\031\031\251?|Y3\372\303\357\277?\000\000\000\000\000\000\340?\000\000\000\000\000\000\340?\027l\301\026l\301\206?\222$I\222$I\262\277V~B\234\225\237\240?\222$I\222$I\262\277\031\206a\030\206a\250?\000\000\000\000\000\000\000\000g5c\360U?\267?\374\251\361\322Mb\200?j\300\350D|\260\221?\222$I\222$I\262\277\0238\201\0238\201\223?\024\024\024\024\024\024\224?\034\362s\005y\354\274?\301x+\373\034R\223?\000\000\000\000\000\000\000\000=\2061\312~\t\203?\021\021\021\021\021\021\241?UUUUUU\225?\367\rk\337\260\366\315?\227o\371\226o\371\246?t\321E\027]t\301?\345\215\337\307%$\310?\000\000\000\000\000\000\000\000\000\000\000\000\000\000\000\000\203\276+\037\217[\272?Y\316\237\345\374Y\316?t\300n\217\265\014}?\000\000\000\000\000\000\000\000\3004\006Lc\300\264?\000\000\000\000\000\000\000\000t\321E\027]t\301?,\024\267Bq+\264?\000\000\000\000\000\000\000\000\321;9\204\005`\217?,\224I\375\3271\237?\340V(n\205\342\206?\232\231\231\231\231\231\271?\000\000\000\000\000\000\000\000\014^QS?\314\307?t\321E\027]t\301?s\345\001\311:Wn?\000\000\000\000\000\000\000\000\261|I\026\343\257\314?MA\350\037\335\306\224?P:\2556an\265?\326k\0247\335\334\251?\000\000\000\000\000\000\340?\351\226u\277\233O\266?\000\000\000\000\000\000\000\000J\\\374\273\253q\241?\315\314\314\314\314\314\344?C\001\267\373\351Y\277?\341RU\356b\230\277?\000\000\000\000\000\000\320?c\366~d\245\020\262?z\366V\372q\267\235?\021{\322K\236t\265?\017\021\021\021\021\021\261\277\002\215b\361M\345\311?\025P\001\025P\001\245?\000\000\000\000\000\000\000\000\304%q\024\256\255\300?\000\000\000\000\000\000\000\000p\037\301}\004\367\221?\232\231\231\231\231\231\271?\000\000\000\000\000\000\000\000\222$I\222$I\262\277\000\000\000\000\000\000\000\000ffffff\326?\355\370\231[l\206\272?\020\004A\020\004A\220?\232\231\231\231\231\231\231?\270\235\351\374\2035\200?{\266x\234\330\232\246\277UUUUUU\245?\035(\'\353:l\321?\000\000\000\000\000\000\340?x\355\375\354\233\207\311?\000\000\000\000\000\000\000\000N\033\350\264\201N\213?\222$I\222$I\262\277\017\345\210\3716A\230?\021\004A\020\004A\200?\000\000\000\000\000\000\000\000\222$I\222$I\262\277\000\000\000\000\000\000\340?\004\230\236\254\342\217\260?\000\000\000\000\000\000\000\000|A\021\321\250\\\300?t\321E\027]t\301?\000\000\000\000\000\000\000\000\000\000\000\000\000\000\340?\222V1i\025\223\206?5\'\201\270Ps\202?"
      }
    }
  }
}
node {
  name: "Const_1"
  op: "Const"
  device: "/device:CPU:0"
  attr {
    key: "_output_shapes"
    value {
      list {
        shape {
          dim {
            size: 537
          }
        }
      }
    }
  }
  attr {
    key: "dtype"
    value {
      type: DT_DOUBLE
    }
  }
  attr {
    key: "value"
    value {
      tensor {
        dtype: DT_DOUBLE
        tensor_shape {
          dim {
            size: 537
          }
        }
        tensor_content: "\000\000\000\000\000\000\024@\000\000\000\000\000\000\360?\000\000\000\000\000\000\000\000\000\000\000\000\000\000;@\000\000\000\000\000\000\000\000\000\000\000\000\000\000@@\000\000\000\000\000\000\000\000\000\000\000\000\000\000\000\000\000\000\000\000\000\0007@\000\000\000\000\000\000\000\000\000\000\000\000\000\000\000\000\000\000\000\000\000\000\010@\000\000\000\000\000\000\000\000\000\000\000\000\000\000&@\000\000\000\000\000\000\000\000\000\000\000\000\000\000&@\000\000\000\000\000\200F@\000\000\000\000\000\000\000\000\000\000\000\000\000\000\000\000\000\000\000\000\000\000\000\000\000\000\000\000\000\000\000\000\000\000\000\000\000\200F@\000\000\000\000\000\000\000@\000\000\000\000\000\000\360?\000\000\000\000\000\000\360?\000\000\000\000\000\000\010@\000\000\000\000\000\000@@\000\000\000\000\000\200B@\000\000\000\000\000\000\000\000\000\000\000\000\000\000\000\000\000\000\000\000\000\000A@\000\000\000\000\000\000\000@\000\000\000\000\000\000\000\000\000\000\000\000\000\000\000\000\000\000\000\000\000\000\000\000\000\000\000\000\000\000\000@\000\000\000\000\000\000\010@\000\000\000\000\000\000\000\000\000\000\000\000\000\0002@\000\000\000\000\000\0001@\000\000\000\000\000\000\"@\000\000\000\000\000\000\000\000\000\000\000\000\000\000\000\000\000\000\000\000\000\000\000\000\000\000\000\000\000\000\000\000\000\000\000\000\000\000\010@\000\000\000\000\000\000\360?\000\000\000\000\000\000\360?\000\000\000\000\000\0006@\000\000\000\000\000\200P@\000\000\000\000\000\0004@\000\000\000\000\000\000\000\000\000\000\000\000\000\000\000\000\000\000\000\000\000\000\360?\000\000\000\000\000\000\000\000\000\000\000\000\000\200G@\000\000\000\000\000\0005@\000\000\000\000\000\000\000\000\000\000\000\000\000\000\030@\000\000\000\000\000\000\010@\000\000\000\000\000\000\000@\000\000\000\000\000\000\000\000\000\000\000\000\000\000\000@\000\000\000\000\000\000\000\000\000\000\000\000\000\000\000\000\000\000\000\000\000\000\000\000\000\000\000\000\000\0005@\000\000\000\000\000\0005@\000\000\000\000\000\0001@\000\000\000\000\000\000\"@\000\000\000\000\000\000\034@\000\000\000\000\000\000\000\000\000\000\000\000\000\000@@\000\000\000\000\000\000\000\000\000\000\000\000\000\000\360?\000\000\000\000\000\000\000\000\000\000\000\000\000\000\000\000\000\000\000\000\000\000\000\000\000\000\000\000\000\000<@\000\000\000\000\000\0009@\000\000\000\000\000\000\000\000\000\000\000\000\000\000\000\000\000\000\000\000\000\000?@\000\000\000\000\000\000\000\000\000\000\000\000\000\000\000\000\000\000\000\000\000\000\360?\000\000\000\000\000\000D@\000\000\000\000\000\000\000@\000\000\000\000\000\000A@\000\000\000\000\000\000\000\000\000\000\000\000\000\000\000\000\000\000\000\000\000\0007@\000\000\000\000\000\000\360?\000\000\000\000\000\000\000\000\000\000\000\000\000\000\360?\000\000\000\000\000\200B@\000\000\000\000\000\000\000\000\000\000\000\000\000\000\000\000\000\000\000\000\000\000\000@\000\000\000\000\000\000\000\000\000\000\000\000\000\000\000\000\000\000\000\000\000\000\000\000\000\000\000\000\000\0001@\000\000\000\000\000\000\360?\000\000\000\000\000\0006@\000\000\000\000\000\000<@\000\000\000\000\000\000\000\000\000\000\000\000\000\000G@\000\000\000\000\000\000(@\000\000\000\000\000\000\000\000\000\000\000\000\000\000\360?\000\000\000\000\000\0009@\000\000\000\000\000\000\360?\000\000\000\000\000\200@@\000\000\000\000\000\000\024@\000\000\000\000\000\000\000\000\000\000\000\000\000\000&@\000\000\000\000\000\000\000\000\000\000\000\000\000\000\000\000\000\000\000\000\000\000\000\000\000\000\000\000\000\000\000\000\000\000\000\000\000\0007@\000\000\000\000\000\000\000\000\000\000\000\000\000\000\000\000\000\000\000\000\000\000=@\000\000\000\000\000\000\360?\000\000\000\000\000\0006@\000\000\000\000\000\0006@\000\000\000\000\000\200E@\000\000\000\000\000\000\000\000\000\000\000\000\000\000\000\000\000\000\000\000\000\000\000\000\000\000\000\000\000\000\010@\000\000\000\000\000\000\000\000\000\000\000\000\000\000\360?\000\000\000\000\000\000\020@\000\000\000\000\000\000\000\000\000\000\000\000\000\000\000\000\000\000\000\000\000\000\360?\000\000\000\000\000\000\360?\000\000\000\000\000\000\000\000\000\000\000\000\000\000\034@\000\000\000\000\000\200C@\000\000\000\000\000\000&@\000\000\000\000\000\000\000\000\000\000\000\000\000\000\000@\000\000\000\000\000\000C@\000\000\000\000\000\000\360?\000\000\000\000\000\000\000\000\000\000\000\000\000\000\024@\000\000\000\000\000\0009@\000\000\000\000\000\000\000\000\000\000\000\000\000\0009@\000\000\000\000\000\000\360?\000\000\000\000\000\000\000\000\000\000\000\000\000\000\000\000\000\000\000\000\000\000\000\000\000\000\000\000\000\200@@\000\000\000\000\000\000\360?\000\000\000\000\000\000\000\000\000\000\000\000\000\000&@\000\000\000\000\000\000\020@\000\000\000\000\000\000\000\000\000\000\000\000\000\000\000\000\000\000\000\000\000\000\000@\000\000\000\000\000\000\000\000\000\000\000\000\000\000 @\000\000\000\000\000\000;@\000\000\000\000\000\0002@\000\000\000\000\000\000\360?\000\000\000\000\000\200F@\000\000\000\000\000\000&@\000\000\000\000\000\000\000\000\000\000\000\000\000\000\360?\000\000\000\000\000\000\000@\000\000\000\000\000\0005@\000\000\000\000\000\000\000\000\000\000\000\000\000\000\000\000\000\000\000\000\000\000\000\000\000\000\000\000\000\000\034@\000\000\000\000\000\000\000\000\000\000\000\000\000\000\000\000\000\000\000\000\000\000\000@\000\000\000\000\000\000\000\000\000\000\000\000\000\000\360?\000\000\000\000\000\000\000@\000\000\000\000\000\000\000\000\000\000\000\000\000\200G@\000\000\000\000\000\000\000\000\000\000\000\000\000\0000@\000\000\000\000\000\000\000\000\000\000\000\000\000\000\000\000\000\000\000\000\000\000\000\000\000\000\000\000\000\000\000\000\000\000\000\000\000\000\000\000\000\000\000\000\000\000<@\000\000\000\000\000\000\360?\000\000\000\000\000\000\000\000\000\000\000\000\000\000\000\000\000\000\000\000\000\200A@\000\000\000\000\000\000\360?\000\000\000\000\000\000\000\000\000\000\000\000\000\000\000\000\000\000\000\000\000\0009@\000\000\000\000\000\0001@\000\000\000\000\000\000\360?\000\000\000\000\000\000\360?\000\000\000\000\000\000\010@\000\000\000\000\000\000\360?\000\000\000\000\000\000\360?\000\000\000\000\000\000\000\000\000\000\000\000\000\000\000\000\000\000\000\000\000\000\000\000\000\000\000\000\000\000\000\000\000\000\000\000\000\000\360?\000\000\000\000\000\000\000\000\000\000\000\000\000\000\000\000\000\000\000\000\000\000&@\000\000\000\000\000\000\"@\000\000\000\000\000\000\000\000\000\000\000\000\000\000*@\000\000\000\000\000\000\030@\000\000\000\000\000\000,@\000\000\000\000\000\000\000\000\000\000\000\000\000\0001@\000\000\000\000\000\000\000\000\000\000\000\000\000\000\020@\000\000\000\000\000\000\000\000\000\000\000\000\000\0000@\000\000\000\000\000\000?@\000\000\000\000\000\000\000\000\000\000\000\000\000\000\000\000\000\000\000\000\000\000(@\000\000\000\000\000\000?@\000\000\000\000\000\000\360?\000\000\000\000\000\200I@\000\000\000\000\000\000D@\000\000\000\000\000\000A@\000\000\000\000\000\000\030@\000\000\000\000\000\000\010@\000\000\000\000\000\000\000\000\000\000\000\000\000\0009@\000\000\000\000\000\000\360?\000\000\000\000\000\000F@\000\000\000\000\000\000\000\000\000\000\000\000\000\000,@\000\000\000\000\000\000 @\000\000\000\000\000\000.@\000\000\000\000\000\000\360?\000\000\000\000\000\000\360?\000\000\000\000\000\000L@\000\000\000\000\000\000\000\000\000\000\000\000\000\000C@\000\000\000\000\000\000\000\000\000\000\000\000\000\000\000\000\000\000\000\000\000\000\360?\000\000\000\000\000\000\000\000\000\000\000\000\000\000\000\000\000\000\000\000\000\000*@\000\000\000\000\000\000\000\000\000\000\000\000\000\000\360?\000\000\000\000\000\000\360?\000\000\000\000\000\000\000\000\000\000\000\000\000\000I@\000\000\000\000\000\000\000\000\000\000\000\000\000\000\000\000\000\000\000\000\000\000=@\000\000\000\000\000\200G@\000\000\000\000\000\000\024@\000\000\000\000\000\000\360?\000\000\000\000\000\200@@\000\000\000\000\000\000B@\000\000\000\000\000\000\024@\000\000\000\000\000\0001@\000\000\000\000\000\200C@\000\000\000\000\000\0007@\000\000\000\000\000\000\360?\000\000\000\000\000\000\000\000\000\000\000\000\000\000\000\000\000\000\000\000\000\000\000\000\000\000\000\000\000\000G@\000\000\000\000\000\0009@\000\000\000\000\000\000\000\000\000\000\000\000\000\000\360?\000\000\000\000\000\200@@\000\000\000\000\000\000\000\000\000\000\000\000\000\000\000\000\000\000\000\000\000\000\360?\000\000\000\000\000\000\360?\000\000\000\000\000\000\024@\000\000\000\000\000\000\000\000\000\000\000\000\000\000\000\000\000\000\000\000\000\000F@\000\000\000\000\000\000\000\000\000\000\000\000\000\000*@\000\000\000\000\000\0008@\000\000\000\000\000\000\360?\000\000\000\000\000\0008@\000\000\000\000\000\000\000\000\000\000\000\000\000\000 @\000\000\000\000\000\000\000\000\000\000\000\000\000\000\000\000\000\000\000\000\000\0008@\000\000\000\000\000\000\360?\000\000\000\000\000\000>@\000\000\000\000\000\000\000\000\000\000\000\000\000\000\010@\000\000\000\000\000\000\000\000\000\000\000\000\000\000\000\000\000\000\000\000\000\000=@\000\000\000\000\000\0006@\000\000\000\000\000\000\360?\000\000\000\000\000\000\000\000\000\000\000\000\000\000*@\000\000\000\000\000\000\000\000\000\000\000\000\000\000,@\000\000\000\000\000\000@@\000\000\000\000\000\200B@\000\000\000\000\000\000\360?\000\000\000\000\000\000\000\000\000\000\000\000\000\000\360?\000\000\000\000\000\000\000\000\000\000\000\000\000\000\360?\000\000\000\000\000\000C@\000\000\000\000\000\000\360?\000\000\000\000\000\000E@\000\000\000\000\000\000\360?\000\000\000\000\000\0004@\000\000\000\000\000\000\010@\000\000\000\000\000\000\000@\000\000\000\000\000\000\360?\000\000\000\000\000\000\360?\000\000\000\000\000\000\000\000\000\000\000\000\000\000\000\000\000\000\000\000\000\000\000\000\000\000\000\000\000\000\034@\000\000\000\000\000\000A@\000\000\000\000\000\000\360?\000\000\000\000\000\000\360?\000\000\000\000\000\0004@\000\000\000\000\000\000\020@\000\000\000\000\000\000B@\000\000\000\000\000\000\000\000\000\000\000\000\000\0002@\000\000\000\000\000\000>@\000\000\000\000\000\000@@\000\000\000\000\000\000$@\000\000\000\000\000\000\360?\000\000\000\000\000\200@@\000\000\000\000\000\000\000\000\000\000\000\000\000\000\000\000\000\000\000\000\000\000,@\000\000\000\000\000\000\000\000\000\000\000\000\000\000\000\000\000\000\000\000\000\000\000\000\000\000\000\000\000\000\000\000\000\000\000\000\000\000\"@\000\000\000\000\000\000<@\000\000\000\000\000\000\000\000\000\000\000\000\000\000(@\000\000\000\000\000\000>@\000\000\000\000\000\000\010@\000\000\000\000\000\000\000\000\000\000\000\000\000\000=@\000\000\000\000\000\000\000\000\000\000\000\000\000\000\000\000\000\000\000\000\000\000;@\000\000\000\000\000\000\000\000\000\000\000\000\000\000\000\000\000\000\000\000\000\000\000\000\000\000\000\000\000\000\000\000\000\000\000\000\000\000<@\000\000\000\000\000\000;@\000\000\000\000\000\000,@\000\000\000\000\000\000\000\000\000\000\000\000\000\000\"@\000\000\000\000\000\000\"@\000\000\000\000\000\000.@\000\000\000\000\000\0009@\000\000\000\000\000\000?@\000\000\000\000\000\000\030@\000\000\000\000\000\000;@\000\000\000\000\000\000F@\000\000\000\000\000\000<@\000\000\000\000\000\000\360?\000\000\000\000\000\000\000\000\000\000\000\000\000\000\000\000\000\000\000\000\000\000\000\000\000\000\000\000\000\000\360?\000\000\000\000\000\000\000\000\000\000\000\000\000\000\360?\000\000\000\000\000\000\000\000\000\000\000\000\000\000\000\000\000\000\000\000\000\200B@\000\000\000\000\000\0000@\000\000\000\000\000\000@@\000\000\000\000\000\000G@\000\000\000\000\000\000\360?\000\000\000\000\000\000\000\000\000\000\000\000\000\000\360?\000\000\000\000\000\000\000\000\000\000\000\000\000\000\020@\000\000\000\000\000\000,@\000\000\000\000\000\000G@\000\000\000\000\000\000\360?\000\000\000\000\000\000\000\000\000\000\000\000\000\000\000\000\000\000\000\000\000\000:@\000\000\000\000\000\000\000\000\000\000\000\000\000\000\360?\000\000\000\000\000\000\000\000\000\000\000\000\000\0008@\000\000\000\000\000\000B@\000\000\000\000\000\000\000\000\000\000\000\000\000\000\000\000\000\000\000\000\000\000\000\000\000\000\000\000\000\000\000\000\000\000\000\000\000\000\000\000\000\000\000\000\000\000\000\000\000\000\000\000\000\000\000\000\000\000\000\000\000\000&@\000\000\000\000\000\000\360?\000\000\000\000\000\000\360?\000\000\000\000\000\000$@\000\000\000\000\000\000\360?\000\000\000\000\000\000\000\000\000\000\000\000\000\000\030@\000\000\000\000\000\000\000\000\000\000\000\000\000\000\000\000\000\000\000\000\000\000\030@\000\000\000\000\000\000\020@\000\000\000\000\000\200A@\000\000\000\000\000\000\000\000\000\000\000\000\000\000\000\000\000\000\000\000\000\000\000\000\000\000\000\000\000\000\360?\000\000\000\000\000\0005@\000\000\000\000\000\000\000\000\000\000\000\000\000\000\010@\000\000\000\000\000\000\000\000\000\000\000\000\000\0003@\000\000\000\000\000\000\000\000\000\000\000\000\000\000\000\000\000\000\000\000\000\000\000\000\000\000\000\000\000\000\360?\000\000\000\000\000\000\360?\000\000\000\000\000\000\360?\000\000\000\000\000\000\360?\000\000\000\000\000\000\000\000\000\000\000\000\000\000$@\000\000\000\000\000\000\000\000\000\000\000\000\000\200H@\000\000\000\000\000\000\360?\000\000\000\000\000\000\000\000\000\000\000\000\000\000\000\000\000\000\000\000\000\0007@\000\000\000\000\000\000\000\000\000\000\000\000\000\000\000\000\000\000\000\000\000\000\010@\000\000\000\000\000\000\000\000\000\000\000\000\000\000\000\000\000\000\000\000\000\000\000\000\000\000\000\000\000\000\000\000\000\000\000\000\000\000\000\000\000\000\000\000\000\000\000@\000\000\000\000\000\000\000\000\000\000\000\000\000\000\000\000\000\000\000\000\000\000:@\000\000\000\000\000\000\000\000\000\000\000\000\000\000\000\000\000\000\000\000\000\000\000\000\000\000\000\000\000\000\000\000\000\000\000\000\000\000\000\000\000\000\000\000\000\000\000\000\000\000\000\000\000\000\000\000\000\000\000\000\000\000\000\000\000\000\000\000\000\000\000\000\000\000\000\000\000\000\000\000\000\000\000\000\000\000\000\000\000\000\000\000\000\000\000\000\000\000\000\000\000\000\000\000\000\000\000\000\000\000;@\000\000\000\000\000\000\000\000\000\000\000\000\000\000\000\000\000\000\000\000\000\000\000\000\000\000\000\000\000\000\010@\000\000\000\000\000\000\000\000\000\000\000\000\000\000?@\000\000\000\000\000\000C@\000\000\000\000\000\000\000\000\000\000\000\000\000\0001@\000\000\000\000\000\000\000\000\000\000\000\000\000\000\360?\000\000\000\000\000\000\000\000\000\000\000\000\000\000\034@\000\000\000\000\000\000=@\000\000\000\000\000\000\000\000\000\000\000\000\000\0002@\000\000\000\000\000\000\000@\000\000\000\000\000\0004@\000\000\000\000\000\000\360?\000\000\000\000\000\000\020@\000\000\000\000\000\000\000\000\000\000\000\000\000\000\000\000\000\000\000\000\000\0008@\000\000\000\000\000\000\000\000\000\000\000\000\000\000\000\000\000\000\000\000\000\000\000\000\000\000\000\000\000\000\000\000\000\000\000\000\000\000\360?\000\000\000\000\000\000\000\000\000\000\000\000\000\000\000\000\000\000\000\000\000\200D@\000\000\000\000\000\000\000\000\000\000\000\000\000\000\000\000\000\000\000\000\000\000\000\000\000\000\000\000\000\200N@\000\000\000\000\000\000\360?\000\000\000\000\000\000\000@\000\000\000\000\000\000\000\000\000\000\000\000\000\0004@\000\000\000\000\000\000\000\000\000\000\000\000\000\000\000\000\000\000\000\000\000\000\360?\000\000\000\000\000\000\000\000\000\000\000\000\000\000\360?\000\000\000\000\000\000\000\000\000\000\000\000\000\000\360?\000\000\000\000\000\000\000\000\000\000\000\000\000\000,@\000\000\000\000\000\000\000\000\000\000\000\000\000\000\"@\000\000\000\000\000\000\000\000\000\000\000\000\000\000\000\000\000\000\000\000\000\000\000\000\000\000\000\000\000\000\"@\000\000\000\000\000\000\000\000"
      }
    }
  }
}
node {
  name: "Const_2"
  op: "Const"
  device: "/device:CPU:0"
  attr {
    key: "_output_shapes"
    value {
      list {
        shape {
          dim {
            size: 537
          }
        }
      }
    }
  }
  attr {
    key: "dtype"
    value {
      type: DT_DOUBLE
    }
  }
  attr {
    key: "value"
    value {
      tensor {
        dtype: DT_DOUBLE
        tensor_shape {
          dim {
            size: 537
          }
        }
        tensor_content: "qG\334\021w\304\275?\000\000\000\000\000\000\360?\000\000\000\000\000\000\000\000H\341z\024\256G\301?\000\000\000\000\000\000\000\000{\024\256G\341z\304?\000\000\000\000\000\000\000\000\000\000\000\000\000\000\000\000q=\n\327\243p\275?\000\000\000\000\000\000\000\000\000\000\000\000\000\000\000\000\024;\261\023;\261\223?\000\000\000\000\000\000\000\000)\\\217\302\365(\254?\000\000\000\000\000\000\000\000\030\363\251\027\363\251\267?\236\330\211\235\330\211\315?\000\000\000\000\000\000\000\000\000\000\000\000\000\000\000\000\000\000\000\000\000\000\000\000\000\000\000\000\000\000\000\000\315\314\314\314\314\314\314?\367\006\224\211+\335\213?\000\000\000\000\000\000\360?\222$I\222$I\262?\333\266m\333\266m\313?g\320\262\3439\225\304?A\255_)P\353\307?\000\000\000\000\000\000\000\000\000\000\000\000\000\000\000\000\026eQ\026eQ\306?\000\000\000\000\000\000\360?\000\000\000\000\000\000\000\000\000\000\000\000\000\000\000\000\000\000\000\000\000\000\000\000UUUUUU\245?\030\206a\030\206a\230?\000\000\000\000\000\000\000\000\030\206a\030\206a\270?\026eQ\026eQ\266?\n\327\243p=\n\247?\000\000\000\000\000\000\000\000\000\000\000\000\000\000\000\000\000\000\000\000\000\000\000\000\000\000\000\000\000\000\000\000\270\036\205\353Q\270\216?\000\000\000\000\000\000\360?\000\000\000\000\000\000\340?8\321\323\271\275\226\274?UUUUUU\325?\267k\345\204g\372\273?\000\000\000\000\000\000\000\000\000\000\000\000\000\000\000\000\000\000\000\000\000\000\300?\000\000\000\000\000\000\000\000\024\256G\341z\024\316?\341z\024\256G\341\272?\000\000\000\000\000\000\000\000\343&\314\357jq\263?UUUUUU\305?F\027]t\321E\307?\000\000\000\000\000\000\000\000{\024\256G\341z\264?\000\000\000\000\000\000\000\000\000\000\000\000\000\000\000\000\000\000\000\000\000\000\000\000\341z\024\256G\341\272?\341z\024\256G\341\272?\303\365(\\\217\302\265?A\321V\203\347\010\264?\025\025\025\025\025\025\245?\000\000\000\000\000\000\000\000g\320\262\3439\225\304?\000\000\000\000\000\000\000\000\000\000\000\000\000\000\360?\000\000\000\000\000\000\000\000\000\000\000\000\000\000\000\000\000\000\000\000\000\000\000\000\022&a\022&a\302?\000\000\000\000\000\000\300?\000\000\000\000\000\000\000\000\000\000\000\000\000\000\000\000\253\252\252\252\252\252\304?\000\000\000\000\000\000\000\000\000\000\000\000\000\000\000\000\000\000\000\000\000\000\360?\210\306\372\320X\037\312?\006\026X`\201\005\226?\303\365(\\\217\302\305?\000\000\000\000\000\000\000\000\000\000\000\000\000\000\000\000/,FBi\343\275?\000\000\000\000\000\000\340?\000\000\000\000\000\000\000\000\000\000\000\000\000\000\360?A\255_)P\353\307?\000\000\000\000\000\000\000\000\000\000\000\000\000\000\000\000{\024\256G\341z\244?\000\000\000\000\000\000\000\000\000\000\000\000\000\000\000\000\000\000\000\000\000\000\000\000\303\365(\\\217\302\265?\000\000\000\000\000\000\340?\343\225O\304l.\275?\201\371@va1\302?\000\000\000\000\000\000\000\000q=\n\327\243p\315?333333\303?\000\000\000\000\000\000\000\000g\267\360\2531\221~?\253\252\252\252\252\252\300?\000\000\000\000\000\000\360?\226Z\251\225Z\251\305?\232\231\231\231\231\231\231?\000\000\000\000\000\000\000\000)\\\217\302\365(\254?\000\000\000\000\000\000\000\000\000\000\000\000\000\000\000\000\000\000\000\000\000\000\000\000\000\000\000\000\000\000\000\000/,FBi\343\275?\000\000\000\000\000\000\000\000\000\000\000\000\000\000\000\000\217\302\365(\\\217\302?\000\000\000\000\000\000\340?)\\\217\302\365(\274?\352Moz\323\233\276?\\\375\240\243\002_\314?\000\000\000\000\000\000\000\000\000\000\000\000\000\000\000\000\000\000\000\000\000\000\000\000\270\036\205\353Q\270\216?\000\000\000\000\000\000\000\000\000\000\000\000\000\000\360?{\024\256G\341z\224?\000\000\000\000\000\000\000\000\000\000\000\000\000\000\000\000UUUUUU\325?\000\000\000\000\000\000\360?\000\000\000\000\000\000\000\000\201\371@va1\242?\366(\\\217\302\365\310?\343\225O\304l.\255?\000\000\000\000\000\000\000\000{\024\256G\341z\204?\256C\277\331:\364\313?\000\000\000\000\000\000\360?\000\000\000\000\000\000\000\000\201\204\237\\\210\272\231?\177\245@\255_)\300?\000\000\000\000\000\000\000\000\000\000\000\000\000\000\300?\002\241\344N\321\302y?\000\000\000\000\000\000\000\000\000\000\000\000\000\000\000\000\000\000\000\000\000\000\000\000\352f\320\262\3439\305?\000\000\000\000\000\000\340?\000\000\000\000\000\000\000\000)\\\217\302\365(\254?[\277R\240\326\257\224?\000\000\000\000\000\000\000\000\000\000\000\000\000\000\000\000\027l\301\026l\301\246?\000\000\000\000\000\000\000\0009\005/\247\340\345\244?H\341z\024\256G\301?:5\017r\327\317\306?\036\036\036\036\036\036\236?\315\314\314\314\314\314\314?)\\\217\302\365(\254?\000\000\000\000\000\000\000\000\000\000\000\000\000\000\360?\320\272\301\024\371\254\253?\341z\024\256G\341\272?\000\000\000\000\000\000\000\000\000\000\000\000\000\000\000\000\000\000\000\000\000\000\000\000Zv<\247\222\002\242?\000\000\000\000\000\000\000\000\000\000\000\000\000\000\000\000\010\037|\360\301\007\257?\000\000\000\000\000\000\000\000\000\000\000\000\000\000\360?\000\000\000\000\000\000\360?\000\000\000\000\000\000\000\000\024\256G\341z\024\316?\000\000\000\000\000\000\000\000{\024\256G\341z\264?\000\000\000\000\000\000\000\000\000\000\000\000\000\000\000\000\000\000\000\000\000\000\000\000\000\000\000\000\000\000\000\000\000\000\000\000\000\000\000\000\355\215\325\037\350\221\302?UUUUUU\265?\000\000\000\000\000\000\000\000\000\000\000\000\000\000\000\000\361\223\013Q7\203\306?{\024\256G\341zt?\000\000\000\000\000\000\000\000\000\000\000\000\000\000\000\000\177\245@\255_)\300?\033\312k(\257\241\274?\000\000\000\000\000\000\360?\000\000\000\000\000\000\360?\270\036\205\353Q\270\216?\000\000\000\000\000\000\360?\000\000\000\000\000\000\360?\000\000\000\000\000\000\000\000\000\000\000\000\000\000\000\000\000\000\000\000\000\000\000\000\000\000\000\000\000\000\000\000\000\000\000\000\000\000\360?\000\000\000\000\000\000\000\000\000\000\000\000\000\000\000\000J\361\002\231\024/\300?\374\370\361\343\307\217\257?\000\000\000\000\000\000\000\000\244p=\n\327\243\260?\270\036\205\353Q\270\236?\022&a\022&a\262?\000\000\000\000\000\000\000\000\303\365(\\\217\302\265?\000\000\000\000\000\000\000\000g\320\262\3439\225\224?\000\000\000\000\000\000\000\000{\024\256G\341z\264?\3449\225\024\220\360\303?\000\000\000\000\000\000\000\000\000\000\000\000\000\000\000\000\2328\214\325\326\337\256?\020\215\365\241\261>\304?\000\000\000\000\000\000\260?R\270\036\205\353Q\320?1ogH\314\333\311?\355q\025\020\014\311\306?\270\036\205\353Q\270\236?\270\036\205\353Q\270\216?\000\000\000\000\000\000\000\000\000\000\000\000\000\000\300?\000\000\000\000\000\000\360?\216\336\025\231/M\314?\000\000\000\000\000\000\000\000ogH\314\333\031\262?{\024\256G\341z\244?\322\244I\223&M\312?\000\000\000\000\000\000\360?\000\000\000\000\000\000\340?\022&a\022&a\322?\000\000\000\000\000\000\000\000\247B\264\341\363\307\314?\000\000\000\000\000\000\000\000\000\000\000\000\000\000\000\000\000\000\000\000\000\000\360?\000\000\000\000\000\000\000\000\000\000\000\000\000\000\000\000\244p=\n\327\243\260?\000\000\000\000\000\000\000\000\000\000\000\000\000\000\360?\000\000\000\000\000\000\360?\000\000\000\000\000\000\000\000o\254\376@\217\224\320?\000\000\000\000\000\000\000\000\000\000\000\000\000\000\000\000\217\302\365(\\\217\302?\024\256G\341z\024\316?\000\000\000\000\000\000\304?\000\000\000\000\000\000\340?\037\205\353Q\270\036\305?\n\327\243p=\n\307?\232\231\231\231\231\231\231?f\227]v\331e\267?\366(\\\217\302\365\310?q=\n\327\243p\275?\000\000\000\000\000\000\340?\000\000\000\000\000\000\000\000\000\000\000\000\000\000\000\000\000\000\000\000\000\000\000\000q=\n\327\243p\315?\000\000\000\000\000\000\300?\000\000\000\000\000\000\000\000\000\000\000\000\000\000\360?\226Z\251\225Z\251\305?\000\000\000\000\000\000\000\000\000\000\000\000\000\000\000\000\000\000\000\000\000\000\360?\000\000\000\000\000\000\360?\245\224RJ)\245\244?\000\000\000\000\000\000\000\000\000\000\000\000\000\000\000\000)\\\217\302\365(\314?\000\000\000\000\000\000\000\000TI\001\t?\271\260?\262\002a\244\035+\300?\000\000\000\000\000\000\360? tT\340\213\253\277?\000\000\000\000\000\000\000\000{\024\256G\341z\244?\000\000\000\000\000\000\000\000\000\000\000\000\000\000\000\000\013Y\310B\026\262\300?\000\000\000\000\000\000\360?jW\242v%j\307?\000\000\000\000\000\000\000\000^Cy\r\3455\244?\000\000\000\000\000\000\000\000\000\000\000\000\000\000\000\000,\341\250\376>o\303?UUUUUU\275?\000\000\000\000\000\000\360?\000\000\000\000\000\000\000\000UUUUUU\305?\000\000\000\000\000\000\000\000\354Q\270\036\205\353\261?[\277R\240\326\257\304?\330\222C\\e\n\310?\000\000\000\000\000\000\360?\000\000\000\000\000\000\000\000UUUUUU\205?\000\000\000\000\000\000\000\000\000\000\000\000\000\000\340?\210Y@\276H\224\312?\020\004A\020\004A\220?\300\034\221b\250\277\314?\000\000\000\000\000\000\360?\232\231\231\231\231\231\271?\270\036\205\353Q\270\216?UUUUUU\345?\000\000\000\000\000\000\360?\000\000\000\000\000\000\360?\000\000\000\000\000\000\000\000\000\000\000\000\000\000\000\000\000\000\000\000\000\000\000\000\354Q\270\036\205\353\241?\303\365(\\\217\302\305?\000\000\000\000\000\000\360?\000\000\000\000\000\000\360?\270\005\024Fu\232\274?{\024\256G\341z\224?\\e\n\230\017d\307?\000\000\000\000\000\000\000\000\341\345\024\274\234\202\267?333333\303?{\024\256G\341z\304?1ogH\314\333\251?\000\000\000\000\000\000\360?oz\323\233\336\364\306?\000\000\000\000\000\000\000\000\000\000\000\000\000\000\000\000Zv<\247\222\002\262?\000\000\000\000\000\000\000\000\000\000\000\000\000\000\000\000\000\000\000\000\000\000\000\000\000\000\000\000\000\000\000\000\n\327\243p=\n\247?\201\371@va1\302?\000\000\000\000\000\000\000\000\222$I\222$I\302?\362V\3669\244&\310?4\371\262A\223/\233?\000\000\000\000\000\000\000\000\217\302\365(\\\217\302?\000\000\000\000\000\000\000\000\000\000\000\000\000\000\000\000\006}A_\320\027\304?\000\000\000\000\000\000\000\000\000\000\000\000\000\000\000\000\000\000\000\000\000\000\000\000\000\000\000\000\000\000\000\000ogH\314\333\031\302?H\341z\024\256G\301?\025\025\025\025\025\025\305?\000\000\000\000\000\000\000\000\222\033\271\221\033\271\301?F\027]t\321E\247?333333\263?e\223M6\331d\303?UUUUUU\305?\262\002a\244\035+\240?\327\337\036\330\350]\301?8\321\323\271\275\226\314?\355\215\325\037\350\221\302?UUUUUU\205?\000\000\000\000\000\000\000\000\000\000\000\000\000\000\000\000\000\000\000\000\000\000\000\000\000\000\000\000\000\000\360?\000\000\000\000\000\000\000\0009\005/\247\340\345\204?\000\000\000\000\000\000\000\000\000\000\000\000\000\000\000\000\256G\341z\024\256\307?{\024\256G\341z\264?UUUUUU\305?}\037\253\331\223|\317?\000\000\000\000\000\000\360?\000\000\000\000\000\000\000\000\000\000\000\000\000\000\360?\000\000\000\000\000\000\000\000{\024\256G\341z\224?\345\027K~\261\344\307?X\372s\266\343C\320?\000\000\000\000\000\000\340?\000\000\000\000\000\000\000\000\000\000\000\000\000\000\000\000y\025\211W\221x\305?\000\000\000\000\000\000\000\000{\024\256G\341zt?\000\000\000\000\000\000\000\0009\005/\247\340\345\304?\\e\n\230\017d\307?\000\000\000\000\000\000\000\000\000\000\000\000\000\000\000\000\000\000\000\000\000\000\000\000\000\000\000\000\000\000\000\000\000\000\000\000\000\000\000\000\000\000\000\000\000\000\000\000\000\000\000\000\000\000\000\000UUUUUU\305?\000\000\000\000\000\000\340?\000\000\000\000\000\000\360?\201\204\237\\\210\272\251?\000\000\000\000\000\000\360?\000\000\000\000\000\000\000\000\270\036\205\353Q\270\236?\000\000\000\000\000\000\000\000\000\000\000\000\000\000\000\000\270\036\205\353Q\270\236?{\024\256G\341z\224?i\361\312\'b6\307?\000\000\000\000\000\000\000\000\000\000\000\000\000\000\000\000\000\000\000\000\000\000\000\000\000\000\000\000\000\000\360?Ava1\022J\273?\000\000\000\000\000\000\000\000AL\256 &W\260?\000\000\000\000\000\000\000\000R\270\036\205\353Q\270?\000\000\000\000\000\000\000\000\000\000\000\000\000\000\000\000\000\000\000\000\000\000\000\000\000\000\000\000\000\000\360?\000\000\000\000\000\000\340?\000\000\000\000\000\000\360?UUUUUU\325?\000\000\000\000\000\000\000\0001ogH\314\333\251?\000\000\000\000\000\000\000\000\000\000\000\000\000\000\320?\000\000\000\000\000\000\360?\000\000\000\000\000\000\000\000\000\000\000\000\000\000\000\000\224\013Q7\203\226\275?\000\000\000\000\000\000\000\000\000\000\000\000\000\000\000\000\270\036\205\353Q\270\216?\000\000\000\000\000\000\000\000\000\000\000\000\000\000\000\000\000\000\000\000\000\000\000\000\000\000\000\000\000\000\000\000\000\000\000\000\000\000\000\000p\037\301}\004\367\221?\000\000\000\000\000\000\000\000\000\000\000\000\000\000\000\000\314\021)\206\372\313\301?\000\000\000\000\000\000\000\000\000\000\000\000\000\000\000\000\000\000\000\000\000\000\000\000\000\000\000\000\000\000\000\000\000\000\000\000\000\000\000\000\000\000\000\000\000\000\000\000\000\000\000\000\000\000\000\000\000\000\000\000\000\000\000\000\000\000\000\000\000\000\000\000\000\000\000\000\000\000\000\000\000\000\000\000\000\000\000\000\000\000\000\000\000\000\000\000\000\000\000\000\000\000\000\000H\341z\024\256G\301?\000\000\000\000\000\000\000\000\000\000\000\000\000\000\000\000\000\000\000\000\000\000\000\000\227\226\226\226\226\226\266?\000\000\000\000\000\000\000\000\3449\225\024\220\360\303?\347\322\241\006\2733\311?\000\000\000\000\000\000\000\000\303\365(\\\217\302\265?\000\000\000\000\000\000\000\000\274\336F\177($w?\000\000\000\000\000\000\000\000\354Q\270\036\205\353\241?\217\302\365(\\\217\302?\000\000\000\000\000\000\000\000\211D\"\221H$\302?g\320\262\3439\225\204?4O\250\005\214I\274?UUUUUU\325?qBJ\236eD\237?\000\000\000\000\000\000\000\000\000\000\000\000\000\000\000\000\2328\214\325\326\337\276?\000\000\000\000\000\000\000\000\000\000\000\000\000\000\000\000\000\000\000\000\000\000\000\000\000\000\000\000\000\000\000\000\000\000\000\000\000\000\360?\000\000\000\000\000\000\000\000\000\000\000\000\000\000\000\000=\n\327\243p=\312?\000\000\000\000\000\000\000\000\000\000\000\000\000\000\000\000\000\000\000\000\000\000\000\000\205\353Q\270\036\205\323?\222$I\222$I\222?{\024\256G\341z\204?\000\000\000\000\000\000\000\000\232\231\231\231\231\231\271?\000\000\000\000\000\000\000\000\000\000\000\000\000\000\000\000\000\000\000\000\000\000\360?\000\000\000\000\000\000\000\000\030\206a\030\206a\230?\000\000\000\000\000\000\000\000\000\000\000\000\000\000\360?\000\000\000\000\000\000\000\000\354Q\270\036\205\353\261?\000\000\000\000\000\000\000\000\n\327\243p=\n\247?\000\000\000\000\000\000\000\000\000\000\000\000\000\000\000\000\000\000\000\000\000\000\000\000\n\327\243p=\n\247?\000\000\000\000\000\000\000\000"
      }
    }
  }
}
node {
  name: "Const_3"
  op: "Const"
  device: "/device:CPU:0"
  attr {
    key: "_output_shapes"
    value {
      list {
        shape {
          dim {
            size: 537
          }
        }
      }
    }
  }
  attr {
    key: "dtype"
    value {
      type: DT_DOUBLE
    }
  }
  attr {
    key: "value"
    value {
      tensor {
        dtype: DT_DOUBLE
        tensor_shape {
          dim {
            size: 537
          }
        }
        tensor_content: "\000\000\000\000\000\000;@\000\000\000\000\000\000\000\000\000\000\000\000\000\000\000\000\000\000\000\000\000\300_@\000\000\000\000\000\000:@\000\000\000\000\000\300T@\000\000\000\000\000\0003@\000\000\000\000\000\000\020@\000\000\000\000\000\000S@\000\000\000\000\000\000>@\000\000\000\000\000\0001@\000\000\000\000\000\200[@\000\000\000\000\000\000(@\000\000\000\000\000\300U@\000\000\000\000\000\000\000\000\000\000\000\000\000\000H@\000\000\000\000\000@Z@\000\000\000\000\000\000\020@\000\000\000\000\000\0003@\000\000\000\000\000\000\360?\000\000\000\000\000\200R@\000\000\000\000\000@Y@\000\000\000\000\000\340`@\000\000\000\000\000\000\000\000\000\000\000\000\000\000 @\000\000\000\000\000\000\010@\000\000\000\000\000\000W@\000\000\000\000\000\200Z@\000\000\000\000\000\000E@\000\000\000\000\000\000\000\000\000\000\000\000\000@X@\000\000\000\000\000\000\000\000\000\000\000\000\000\000A@\000\000\000\000\000\000\010@\000\000\000\000\000\000.@\000\000\000\000\000\0008@\000\000\000\000\000\300]@\000\000\000\000\000\000\010@\000\000\000\000\000\200\\@\000\000\000\000\000@X@\000\000\000\000\000\300b@\000\000\000\000\000\240a@\000\000\000\000\000\000\000\000\000\000\000\000\000`g@\000\000\000\000\000\000J@\000\000\000\000\000\000h@\000\000\000\000\000\000\000\000\000\000\000\000\000\000\360?\000\000\000\000\000\300X@\000\000\000\000\000@R@\000\000\000\000\000\200\\@\000\000\000\000\000\000(@\000\000\000\000\000\300R@\000\000\000\000\000\000\030@\000\000\000\000\000\000&@\000\000\000\000\000\200S@\000\000\000\000\000\300Y@\000\000\000\000\000\000\000\000\000\000\000\000\000\000\"@\000\000\000\000\000\000\030@\000\000\000\000\000\000\000@\000\000\000\000\000\000\360?\000\000\000\000\000\000,@\000\000\000\000\000\000\000\000\000\000\000\000\000\0005@\000\000\000\000\000\000\000\000\000\000\000\000\000\300Y@\000\000\000\000\000@Z@\000\000\000\000\000\000U@\000\000\000\000\000\200K@\000\000\000\000\000\000`@\000\000\000\000\000\000\000@\000\000\000\000\000\200\\@\000\000\000\000\000\340h@\000\000\000\000\000\000\000\000\000\000\000\000\000\0007@\000\000\000\000\000\000\000\000\000\000\000\000\000\200T@\000\000\000\000\000\000X@\000\000\000\000\000\200a@\000\000\000\000\000\000\010@\000\000\000\000\000\000\000\000\000\000\000\000\000\000Z@\000\000\000\000\000\000.@\000\000\000\000\000\000 @\000\000\000\000\000\000\000\000\000\000\000\000\000\200W@\000\000\000\000\000\300T@\000\000\000\000\000\200S@\000\000\000\000\000\000\020@\000\000\000\000\000\0000@\000\000\000\000\000@Y@\000\000\000\000\000\000\360?\000\000\000\000\000\000.@\000\000\000\000\000\000\000\000\000\000\000\000\000@S@\000\000\000\000\000\000<@\000\000\000\000\000\000\360?\000\000\000\000\000\000G@\000\000\000\000\000\0003@\000\000\000\000\000\0009@\000\000\000\000\000\000\000\000\000\000\000\000\000\200A@\000\000\000\000\000\000\360?\000\000\000\000\000@V@\000\000\000\000\000@U@\000\000\000\000\000\000\360?\000\000\000\000\000\300Q@\000\000\000\000\000\200@@\000\000\000\000\000\300f@\000\000\000\000\000\0004@\000\000\000\000\000\200T@\000\000\000\000\000\000\000\000\000\000\000\000\000@X@\000\000\000\000\000\240e@\000\000\000\000\000\200E@\000\000\000\000\000\300U@\000\000\000\000\000\000\000\000\000\000\000\000\000\000\360?\000\000\000\000\000\000\360?\000\000\000\000\000\0000@\000\000\000\000\000@_@\000\000\000\000\000\000\000\000\000\000\000\000\000\000\360?\000\000\000\000\000\300S@\000\000\000\000\000\000\000\000\000\000\000\000\000\200N@\000\000\000\000\000\300Z@\000\000\000\000\000\300U@\000\000\000\000\000\000\000\000\000\000\000\000\000\000*@\000\000\000\000\000\000\000\000\000\000\000\000\000\000c@\000\000\000\000\000\000I@\000\000\000\000\000\000\000\000\000\000\000\000\000\240`@\000\000\000\000\000\000\000\000\000\000\000\000\000\000.@\000\000\000\000\000\000\360?\000\000\000\000\000\000\000\000\000\000\000\000\000\000\024@\000\000\000\000\000\200S@\000\000\000\000\000\000Y@\000\000\000\000\000 b@\000\000\000\000\000\000E@\000\000\000\000\000\240f@\000\000\000\000\000@Q@\000\000\000\000\000\000\000\000\000\000\000\000\000\000\000\000\000\000\000\000\000\240b@\000\000\000\000\000\200Q@\000\000\000\000\000\000\000@\000\000\000\000\000\300\\@\000\000\000\000\000 c@\000\000\000\000\000\200E@\000\000\000\000\000\000\030@\000\000\000\000\000\000*@\000\000\000\000\000@R@\000\000\000\000\000\000\360?\000\000\000\000\000\000I@\000\000\000\000\000\200f@\000\000\000\000\000\000^@\000\000\000\000\000\000\360?\000\000\000\000\000\000\000\000\000\000\000\000\000\200D@\000\000\000\000\000\000\030@\000\000\000\000\000\340a@\000\000\000\000\000\200Z@\000\000\000\000\000\200C@\000\000\000\000\000\000?@\000\000\000\000\000\200W@\000\000\000\000\000\300\\@\000\000\000\000\000\000N@\000\000\000\000\000\000\000\000\000\000\000\000\000\000A@\000\000\000\000\000\200P@\000\000\000\000\000\000\360?\000\000\000\000\000\000\000\000\000\000\000\000\000\000\360?\000\000\000\000\000\240f@\000\000\000\000\000\0004@\000\000\000\000\000\000\360?\000\000\000\000\000\0007@\000\000\000\000\000\000\030@\000\000\000\000\000\000\000\000\000\000\000\000\000\000\000\000\000\000\000\000\000\000\000\000\000\000\000\000\000\0002@\000\000\000\000\000\000\000\000\000\000\000\000\000\300S@\000\000\000\000\000\000.@\000\000\000\000\000\0009@\000\000\000\000\000\000\000\000\000\000\000\000\000\000\360?\000\000\000\000\000\000\000\000\000\000\000\000\000\000W@\000\000\000\000\000\000\000@\000\000\000\000\000\000\000\000\000\000\000\000\000\000\000\000\000\000\000\000\000@[@\000\000\000\000\000\340c@\000\000\000\000\000\0001@\000\000\000\000\000\000<@\000\000\000\000\000\200V@\000\000\000\000\000\000?@\000\000\000\000\000\000\000\000\000\000\000\000\000\000\000\000\000\000\000\000\000\300`@\000\000\000\000\000\000\000\000\000\000\000\000\000\000\000\000\000\000\000\000\000\200E@\000\000\000\000\000\000\000\000\000\000\000\000\000\000\360?\000\000\000\000\000\000\024@\000\000\000\000\000\000\000\000\000\000\000\000\000\0004@\000\000\000\000\000\0003@\000\000\000\000\000\200E@\000\000\000\000\000\000K@\000\000\000\000\000\000\000\000\000\000\000\000\000\200c@\000\000\000\000\000@g@\000\000\000\000\000 b@\000\000\000\000\000\000\360?\000\000\000\000\000@X@\000\000\000\000\000\000\360?\000\000\000\000\000@Z@\000\000\000\000\000\000\360?\000\000\000\000\000\000]@\000\000\000\000\000\300X@\000\000\000\000\000\000\360?\000\000\000\000\000\000\000@\000\000\000\000\000\300`@\000\000\000\000\000\200U@\000\000\000\000\000\000\030@\000\000\000\000\000\200R@\000\000\000\000\000@Z@\000\000\000\000\000\200S@\000\000\000\000\000@`@\000\000\000\000\000\000\\@\000\000\000\000\000\000.@\000\000\000\000\000@]@\000\000\000\000\000\000\000\000\000\000\000\000\000\300[@\000\000\000\000\000\000\000\000\000\000\000\000\000@Y@\000\000\000\000\000\300[@\000\000\000\000\000\000>@\000\000\000\000\000\000\000\000\000\000\000\000\000\000\000\000\000\000\000\000\000\200R@\000\000\000\000\000\0004@\000\000\000\000\000\000R@\000\000\000\000\000\000\360?\000\000\000\000\000\300b@\000\000\000\000\000\000\000\000\000\000\000\000\000\000\000\000\000\000\000\000\000\000\000@\000\000\000\000\000\300X@\000\000\000\000\000\000\000\000\000\000\000\000\000\000\000\000\000\000\000\000\000\000\000\000\000\000\000\000\000\000\000@\000\000\000\000\000\300S@\000\000\000\000\000\000A@\000\000\000\000\000\000\000\000\000\000\000\000\000@V@\000\000\000\000\000\000\\@\000\000\000\000\000\0000@\000\000\000\000\000\000\360?\000\000\000\000\000\000X@\000\000\000\000\000\000Y@\000\000\000\000\000\240f@\000\000\000\000\000\000[@\000\000\000\000\000\200Z@\000\000\000\000\000\000Z@\000\000\000\000\000\000\000\000\000\000\000\000\000\000;@\000\000\000\000\000\0007@\000\000\000\000\000\0005@\000\000\000\000\000\200S@\000\000\000\000\000\000c@\000\000\000\000\000\000\360?\000\000\000\000\000\000\000\000\000\000\000\000\000\000[@\000\000\000\000\000\200H@\000\000\000\000\000\000\020@\000\000\000\000\000\000\000\000\000\000\000\000\000\000\000\000\000\000\000\000\000@[@\000\000\000\000\000\000\000\000\000\000\000\000\000\000\360?\000\000\000\000\000\300U@\000\000\000\000\000\000>@\000\000\000\000\000\200_@\000\000\000\000\000\000_@\000\000\000\000\000\000\000\000\000\000\000\000\000\200W@\000\000\000\000\000\200I@\000\000\000\000\000\200[@\000\000\000\000\000\0002@\000\000\000\000\000\000\000\000\000\000\000\000\000@Y@\000\000\000\000\000\000\000\000\000\000\000\000\000\000J@\000\000\000\000\000\200F@\000\000\000\000\000\200F@\000\000\000\000\000\000,@\000\000\000\000\000\0006@\000\000\000\000\000\000V@\000\000\000\000\000\200_@\000\000\000\000\000\000\000\000\000\000\000\000\000\000*@\000\000\000\000\000\000@@\000\000\000\000\000\000=@\000\000\000\000\000@b@\000\000\000\000\000\300R@\000\000\000\000\000\000Z@\000\000\000\000\000\000\000\000\000\000\000\000\000\000=@\000\000\000\000\000\200V@\000\000\000\000\000\000@@\000\000\000\000\000\000\360?\000\000\000\000\000\300W@\000\000\000\000\000\000O@\000\000\000\000\000\300T@\000\000\000\000\000\000\000\000\000\000\000\000\000@\\@\000\000\000\000\000``@\000\000\000\000\000\000\360?\000\000\000\000\000\000\000\000\000\000\000\000\000\000\000\000\000\000\000\000\000\200P@\000\000\000\000\000\000*@\000\000\000\000\000\0007@\000\000\000\000\000\000[@\000\000\000\000\000\000Z@\000\000\000\000\000\000\000\000\000\000\000\000\000\000\000\000\000\000\000\000\000\000[@\000\000\000\000\000\000\020@\000\000\000\000\000\200Y@\000\000\000\000\000\200@@\000\000\000\000\000@]@\000\000\000\000\000\200P@\000\000\000\000\000\000Q@\000\000\000\000\000\300W@\000\000\000\000\000\000\000\000\000\000\000\000\000\200Y@\000\000\000\000\000\000\000\000\000\000\000\000\000\000<@\000\000\000\000\000\200U@\000\000\000\000\000\000I@\000\000\000\000\000\000Q@\000\000\000\000\000\0006@\000\000\000\000\000\0008@\000\000\000\000\000\000\020@\000\000\000\000\000\300Y@\000\000\000\000\000\200E@\000\000\000\000\000\000D@\000\000\000\000\000\000W@\000\000\000\000\000\000U@\000\000\000\000\000\000K@\000\000\000\000\000@V@\000\000\000\000\000\000\000\000\000\000\000\000\000\000\000\000\000\000\000\000\000\000V@\000\000\000\000\000\0001@\000\000\000\000\000\000\360?\000\000\000\000\000\000\000@\000\000\000\000\000\0001@\000\000\000\000\000@Y@\000\000\000\000\000\200W@\000\000\000\000\000\200C@\000\000\000\000\000\200R@\000\000\000\000\000\000:@\000\000\000\000\000\200`@\000\000\000\000\000\200_@\000\000\000\000\000@R@\000\000\000\000\000@S@\000\000\000\000\000\200_@\000\000\000\000\000\000^@\000\000\000\000\000\200N@\000\000\000\000\000\300Y@\000\000\000\000\000@V@\000\000\000\000\000\000\000\000\000\000\000\000\000\200I@\000\000\000\000\000\0000@\000\000\000\000\000\000\000\000\000\000\000\000\000\000$@\000\000\000\000\000\000L@\000\000\000\000\000\000\000\000\000\000\000\000\000\000\360?\000\000\000\000\000\000Z@\000\000\000\000\000\240b@\000\000\000\000\000\200Y@\000\000\000\000\000\300P@\000\000\000\000\000\000\000\000\000\000\000\000\000\000J@\000\000\000\000\000\000\000\000\000\000\000\000\000\000,@\000\000\000\000\000\300a@\000\000\000\000\000\000>@\000\000\000\000\000\200S@\000\000\000\000\000\000\360?\000\000\000\000\000\000\000\000\000\000\000\000\000\000\360?\000\000\000\000\000\200U@\000\000\000\000\000@Y@\000\000\000\000\000\300d@\000\000\000\000\000\000\360?\000\000\000\000\000\300T@\000\000\000\000\000@Q@\000\000\000\000\000\000\024@\000\000\000\000\000\0001@\000\000\000\000\000\000L@\000\000\000\000\000\000\360?\000\000\000\000\000\0003@\000\000\000\000\000\000\000\000\000\000\000\000\000\000\000\000\000\000\000\000\000\000@@\000\000\000\000\000\000\360?\000\000\000\000\000\000\000\000\000\000\000\000\000\340c@\000\000\000\000\000\000\000\000\000\000\000\000\000\000\000\000\000\000\000\000\000 `@\000\000\000\000\000\000\030@\000\000\000\000\000\000\000\000\000\000\000\000\000\200^@\000\000\000\000\000@h@\000\000\000\000\000\300^@\000\000\000\000\000\000\360?\000\000\000\000\000\000\000\000\000\000\000\000\000\0005@\000\000\000\000\000\000\000\000\000\000\000\000\000@V@\000\000\000\000\000\000\010@\000\000\000\000\000\0002@\000\000\000\000\000\000.@\000\000\000\000\000\200I@\000\000\000\000\000\000\000\000\000\000\000\000\000\000\000\000\000\000\000\000\000\000 @\000\000\000\000\000\000\000\000\000\000\000\000\000\000\000\000\000\000\000\000\000\000\000\000\000\000\000\000\000\000\360?\000\000\000\000\000\000\360?\000\000\000\000\000\300_@\000\000\000\000\000\200h@\000\000\000\000\000@U@\000\000\000\000\000\000\000\000\000\000\000\000\000\000:@\000\000\000\000\000\0000@\000\000\000\000\000\300X@\000\000\000\000\000\000I@\000\000\000\000\000\000=@\000\000\000\000\000\000h@\000\000\000\000\000\000\"@\000\000\000\000\000\000.@\000\000\000\000\000\000\360?\000\000\000\000\000\0007@\000\000\000\000\000\000\000\000\000\000\000\000\000\000Q@\000\000\000\000\000\000\360?\000\000\000\000\000\000B@\000\000\000\000\000\000W@\000\000\000\000\000\000\000\000\000\000\000\000\000\000G@\000\000\000\000\000\000\"@\000\000\000\000\000\000\000@\000\000\000\000\000\000\034@\000\000\000\000\000\000\000\000\000\000\000\000\000\0003@\000\000\000\000\000\000 @\000\000\000\000\000\340g@\000\000\000\000\000\200a@\000\000\000\000\000\000\000\000\000\000\000\000\000\000\010@\000\000\000\000\000\000\360?\000\000\000\000\000\000J@\000\000\000\000\000\000\000\000\000\000\000\000\000\200g@\000\000\000\000\000\000\360?\000\000\000\000\000\000(@\000\000\000\000\000\000E@\000\000\000\000\000@W@\000\000\000\000\000\300[@\000\000\000\000\000\000\000\000\000\000\000\000\000\300]@\000\000\000\000\000\0002@\000\000\000\000\000\340b@\000\000\000\000\000\000\000\000\000\000\000\000\000``@\000\000\000\000\000\300V@\000\000\000\000\000\000\360?\000\000\000\000\000\000R@\000\000\000\000\000\300f@\000\000\000\000\000\000Z@\000\000\000\000\000\000\360?\000\000\000\000\000@Q@\000\000\000\000\000\000&@\000\000\000\000\000\000\000@\000\000\000\000\000\200V@\000\000\000\000\000\000*@\000\000\000\000\000\0002@\000\000\000\000\000\000\360?\000\000\000\000\000\0000@\000\000\000\000\000\000\000\000\000\000\000\000\000\000\010@\000\000\000\000\000\000\000\000\000\000\000\000\000\000T@\000\000\000\000\000\0004@\000\000\000\000\000\0003@\000\000\000\000\000\240g@\000\000\000\000\000\300V@\000\000\000\000\000\200H@\000\000\000\000\000\300U@\000\000\000\000\000\000\000\000\000\000\000\000\000\000R@\000\000\000\000\000\000\360?\000\000\000\000\000\0008@\000\000\000\000\000\000\000\000\000\000\000\000\000\000T@\000\000\000\000\000\000D@\000\000\000\000\000\0002@\000\000\000\000\000\000\000\000\000\000\000\000\000\000\000\000\000\000\000\000\000`a@\000\000\000\000\000\000\020@\000\000\000\000\000\000X@\000\000\000\000\000\000\000\000\000\000\000\000\000\000\"@\000\000\000\000\000\000\000\000\000\000\000\000\000`f@\000\000\000\000\000\000B@"
      }
    }
  }
}
node {
  name: "Const_4"
  op: "Const"
  device: "/device:CPU:0"
  attr {
    key: "_output_shapes"
    value {
      list {
        shape {
          dim {
            size: 537
          }
        }
      }
    }
  }
  attr {
    key: "dtype"
    value {
      type: DT_DOUBLE
    }
  }
  attr {
    key: "value"
    value {
      tensor {
        dtype: DT_DOUBLE
        tensor_shape {
          dim {
            size: 537
          }
        }
        tensor_content: "\006}A_\320\027\344?\000\000\000\000\000\000\000\000\000\000\000\000\000\000\000\000R\270\036\205\353Q\344?\274\273\273\273\273\273\353?\217\302\365(\\\217\332?=\317\363<\317\363\354?UUUUUU\345?R\270\036\205\353Q\330?\000\000\000\000\000\000\356?\216\3438\216\3438\356?\007i\220\006i\220\346?\236\330\211\235\330\211\355?\327\243p=\n\327\333?\000\000\000\000\000\000\000\000\032\254\320\031\254\320\331?\261\023;\261\023;\341?\222$I\222$I\322?ffffff\356?UUUUUU\325?\207\362\032\312k(\357?)\\\217\302\365(\340?Y\037\032\353Cc\355?\000\000\000\000\000\000\000\000\222$I\222$I\342?\333\266m\333\266m\313?\224\013Q7\203\226\335?w\206\304\274\235!\341?\320\027\364\005}A\357?\000\000\000\000\000\000\000\000`\375\325_\375\325\337?\000\000\000\000\000\000\000\000\216\3438\216\3438\356?\000\000\000\000\000\000\360?<<<<<<\354?\000\000\000\000\000\000\340?\216\3438\216\3438\356?\000\000\000\000\000\000\360?\3234M\3234M\343?`\375\325_\375\325\337?\000\000\000\000\000\000\350?8\340\361\207\003\036\357?\000\000\000\000\000\000\000\000\354Q\270\036\205\353\355?\026\323YLg1\355?\270\036\205\353Q\270\356?\000\000\000\000\000\000\000\000\000\000\000\000\000\000\340?\257%\207\270\312\024\340?Cb\336\316\220\230\327?&C\260\2166\357\343?\236\330\211\235\330\211\355?Cy\r\3455\224\357?\000\000\000\000\000\000\350?\000\000\000\000\000\000\360?\366(\\\217\302\365\330?{\024\256G\341z\340?\000\000\000\000\000\000\000\000T:\262g *\275?UUUUUU\325?F\027]t\321E\307?\000\000\000\000\000\000\360?\354Q\270\036\205\353\341?\000\000\000\000\000\000\000\000\323\233\336\364\2467\355?\000\000\000\000\000\000\000\000{\024\256G\341z\340?\315\314\314\314\314\314\340?\341z\024\256G\341\332?\352Moz\323\233\336?\030\030\030\030\030\030\350?\000\000\000\000\000\000\360?\234A\313\216\347T\342?\327\243p=\n\327\357?\000\000\000\000\000\000\000\000q=\n\327\243p\355?\000\000\000\000\000\000\000\000\000\000\000\000\000\000\360? \370\201\037\370\201\337?ffffff\346?\000\000\000\000\000\000\360?\000\000\000\000\000\000\000\000UUUUUU\341?\000\000\000\000\000\000\360?\034\307q\034\307q\354?\000\000\000\000\000\000\000\000\254\017\215\365\241\261\336?\217<\362\310#\217\354?\366(\\\217\302\365\330?UUUUUU\345?\036\036\036\036\036\036\356?m\274\243\232\365g\340?\000\000\000\000\000\000\340?\000\000\000\000\000\000\360?\000\000\000\000\000\000\000\0009\216\3438\216\343\330?\'\233l\262\311&\353?\000\000\000\000\000\000\340?q=\n\327\243p\355?\000\000\000\000\000\000\360?%I\222$I\222\354?\000\000\000\000\000\000\000\000ffffff\306?\000\000\000\000\000\000\340?\"fs\351P\203\335?\377\014~\023=\235\333?\000\000\000\000\000\000\360?\270\036\205\353Q\270\326?ffffff\332?\037\205\353Q\270\036\355?\240rv\013\277\032\303?UUUUUU\333?\000\000\000\000\000\000\000\000`\375\325_\375\325\337?\256G\341z\024\256\353?F\027]t\321E\357?\327\243p=\n\327\333?\000\000\000\000\000\000\000\000\000\000\000\000\000\000\360?\000\000\000\000\000\000\340?(\257\241\274\206\362\352?R\315\3723\370M\344?\000\000\000\000\000\000\000\000\000\000\000\000\000\000\360?H\341z\024\256G\331?\000\000\000\000\000\000\000\000\205\353Q\270\036\205\323?\352Moz\323\233\342?=\211L\303v\263\334?\000\000\000\000\000\000\000\000\000\000\000\000\000\000\360?\000\000\000\000\000\000\000\000R\270\036\205\353Q\350?\256\354sHM0\356?\000\000\000\000\000\000\000\000H\341z\024\256G\345?\000\000\000\000\000\000\000\000\000\000\000\000\000\000\356?UUUUUU\325?\000\000\000\000\000\000\000\000\000\000\000\000\000\000\344?\317\355\265\344\020W\331?\000\000\000\000\000\000\340?\010z\244\204\234\n\350?\000\000\000\000\000\000\354?\366(\\\217\302\365\354?\250\021\226{\032a\331?\000\000\000\000\000\000\000\000\000\000\000\000\000\000\000\000\230&\016c\265\365\347?K\201Z\277R\240\326?UUUUUU\345?ffffff\342?tHM0\336\312\356??\351\223>\351\223\356?UUUUUU\345?n\333\266m\333\266\355?\265\365\267\0076z\327?\000\000\000\000\000\000\340?\023\332Kh/\241\355?\315\314\314\314\314\314\354?e\223M6\331d\343?\000\000\000\000\000\000\360?\000\000\000\000\000\000\000\000}\322\'}\322\'\355?UUUUUU\345?\326\207\306\372\320X\347?\366(\\\217\302\365\340?\252y\220\273~\266\330?------\355?\024\256G\341z\024\336?ffffff\342?\236\330\211\235\330\211\355?\000\000\000\000\000\000\000\000}\326\r\246\310g\355?\037\205\353Q\270\036\325?\000\000\000\000\000\000\360?\000\000\000\000\000\000\000\000\000\000\000\000\000\000\360?\262\332\372\333\003\033\355?\236\347y\236\347y\356?\000\000\000\000\000\000\360?N6\331d\223M\346?\333\266m\333\266m\353?\000\000\000\000\000\000\000\000\000\000\000\000\000\000\000\000\000\000\000\000\000\000\000\000\n\327\243p=\n\267?\000\000\000\000\000\000\000\000H\341z\024\256G\331?\000\000\000\000\000\000\356?\023\332Kh/\241\355?\000\000\000\000\000\000\000\000\000\000\000\000\000\000\340?\000\000\000\000\000\000\000\000\341\326\336X\375\201\336?UUUUUU\305?\000\000\000\000\000\000\000\000\000\000\000\000\000\000\000\000xE\346K\023\207\341?q=\n\327\243p\351?\216\3438\216\3438\356?\336\335\335\335\335\335\355?\027]t\321E\027\335?\257\241\274\206\362\032\312?\000\000\000\000\000\000\000\000\000\000\000\000\000\000\000\000q=\n\327\243p\345?\000\000\000\000\000\000\000\000\000\000\000\000\000\000\000\000?\351\223>\351\223\356?\000\000\000\000\000\000\000\000\000\000\000\000\000\000\360?\000\000\000\000\000\000\360?\000\000\000\000\000\000\000\000\027]t\321E\027\355?ffffff\356?m\035\372\315\326\241\337?\275z\365\352\325\253\327?\000\000\000\000\000\000\000\000\366(\\\217\302\365\350?\303\365(\\\217\302\355?\270|\313\267|\313\347?\000\000\000\000\000\000\340?\n\327\243p=\n\337?\000\000\000\000\000\000\360?\364\256\310|i\342\340?\000\000\000\000\000\000\360?\217\302\365(\\\217\342?_\2328\214\325\326\337?\000\000\000\000\000\000\360?\034\307q\034\307q\314?,2_\2328\214\345?\005/\247\340\345\024\334?\000\000\000\000\000\000\330?\256G\341z\024\256\327?\370\340\203\017>\370\340?\256\002\202!\331\"\332?\315\314\314\314\314\314\344?\354Q\270\036\205\353\341?\000\000\000\000\000\000\356?\270\036\205\353Q\270\342?\000\000\000\000\000\000\000\000\271\020u3h\331\341?\000\000\000\000\000\000\000\000\375J\201Z\277R\340?\303\365(\\\217\302\341?\322\244I\223&M\332?\000\000\000\000\000\000\000\000\000\000\000\000\000\000\000\000\230\204I\230\204I\330?\000\000\000\000\000\000\360?\271\026\tj*D\333?\000\000\000\000\000\000\360?\346O[h\300\222\356?\000\000\000\000\000\000\000\000\000\000\000\000\000\000\000\000UUUUUU\345?\256G\341z\024\256\337?\000\000\000\000\000\000\000\000\000\000\000\000\000\000\000\000\000\000\000\000\000\000\000\000UUUUUU\345?\246C\rvg2\332?}\326\r\246\310g\355?\000\000\000\000\000\000\000\000{\024\256G\341z\334?\354Q\270\036\205\353\341?\000\000\000\000\000\000\340?\000\000\000\000\000\000\340?\270\036\205\353Q\270\336?\000\000\000\000\000\000\340?\366(\\\217\302\365\354?\225RJ)\245\224\342?\366(\\\217\302\365\340?\244p=\n\327\243\340?\000\000\000\000\000\000\000\000\267m\333\266m\333\356?\000\000\000\000\000\000\360?\214.\272\350\242\213\356?\366(\\\217\302\365\330?R\270\036\205\353Q\350?\000\000\000\000\000\000\360?\000\000\000\000\000\000\000\000\222\033\271\221\033\271\341?vb\'vb\'\356?\000\000\000\000\000\000\360?\000\000\000\000\000\000\000\000\000\000\000\000\000\000\000\000!\204\020B\010!\354?\000\000\000\000\000\000\000\000\000\000\000\000\000\000\340?\327\243p=\n\327\333?\253\252\252\252\252\252\352?%\005$\374\344B\344?&N\375\236[\342\344?\000\000\000\000\000\000\000\000_\\\375\240\243\002\337?tHM0\336\312\356?\232\231\231\231\231\231\341?/\272\350\242\213.\352?\000\000\000\000\000\000\000\000Y\310B\026\262\220\341?\000\000\000\000\000\000\000\000K\324\256D\355J\324?\000\000\000\000\000\000\356?(\257\241\274\206\362\342?\336\335\335\335\335\335\355?\352Moz\323\233\356?o\223\3562\246|\335?\000\000\000\000\000\000\345?\000\000\000\000\000\000\000\000n\333\266m\333\266\355?\032\244A\032\244A\332?\037|\360\301\007\037\354?\\\217\302\365(\\\347?>\370\340\203\017>\330?\212\236\316\355\265\344\340?\000\000\000\000\000\000\000\000\357\275\367\336{\357\355?\000\000\000\000\000\000\356?\340\351\326\374\260H\311?\000\000\000\000\000\000\340?\3657\350v\255\234\340?\337\367}\337\367}\357?h\334\255\363\nh\334?\000\000\000\000\000\000\000\000\024\256G\341z\024\342?\366(\\\217\302\365\344?UUUUUU\325?\000\000\000\000\000\000\000\000\000\000\000\000\000\000\000\000\017\017\017\017\017\017\357?n\333\266m\333\266\355?ffffff\342?H\341z\024\256G\341?\244p=\n\327\243\340?\000\000\000\000\000\000\000\000\000\000\000\000\000\000\000\000\020\267\200\302\250N\343?{\024\256G\341z\224?\314\007\262\013\213\221\340?\000\000\000\000\000\000\360?\307\372\320X\037\032\343?\037\205\353Q\270\036\325?\303\365(\\\217\302\325?\n\324\372\225\002\265\336?\000\000\000\000\000\000\000\000\234\336\364\2467\275\341?\000\000\000\000\000\000\000\000\336\335\335\335\335\335\355?\nH\370\311\205\250\333?\032a\271\247\021\226\353?}\326\r\246\310g\355?,Q\273\022\265+\341?\270\036\205\353Q\270\356?{\024\256G\341z\224?+S\300| \273\340?\253\252\252\252\252\252\354?\236\347y\236\347y\336?\271S\264p\006\204\342?\016\232|\331\240\311\347?\277\032\023\351\201\312\351?{\024\256G\341z\334?\000\000\000\000\000\000\000\000\000\000\000\000\000\000\000\000\030\364\005}A_\340?\303\365(\\\217\302\345?\000\000\000\000\000\000\340?\000\000\000\000\000\000\360?\033\312k(\257\241\354?\375J\201Z\277R\340?\024\256G\341z\024\336?]]]]]]\335?S\003{\307\324\300\356?\232\231\231\231\231\231\331?UUUUUU\345?)\\\217\302\365(\344?Q\334\n\305\255P\334?\177\372\351\247\237~\332?\211S\277\347\2268\345?`\243wE\346K\343?5\353\317\3407\321\323?\317d\264x\345\023\341?\253\252\252\252\252\252\355?\000\000\000\000\000\000\000\000\216\3438\216\3438\356?\036\036\036\036\036\036\356?\000\000\000\000\000\000\000\000\000\000\000\000\000\000\360?\222$I\222$I\342?\000\000\000\000\000\000\000\000\000\000\000\000\000\000\360?\244p=\n\327\243\340?\327\243p=\n\327\347?\000\000\000\000\000\000\341?\356\326y\0054\356\326?\000\000\000\000\000\000\000\000:\244&\030oe\357?\000\000\000\000\000\000\000\000ffffff\346?\270\036\205\353Q\270\346?\232\231\231\231\231\231\331?\240\263\035\037\202\224\333?\000\000\000\000\000\000\340?\000\000\000\000\000\000\000\000\000\000\000\000\000\000\360?\301\321\023\034=\301\341?b\355\033\326\276a\355?\217\302\365(\\\217\352?\000\000\000\000\000\000\360?\204\3745;j\021\342?#\241\264\361\216j\326?\000\000\000\000\000\000\360?\216\3438\216\3438\356?\347}\212K\206`\355?\000\000\000\000\000\000\360?=\317\363<\317\363\354?\000\000\000\000\000\000\000\000\000\000\000\000\000\000\000\000\010\037|\360\301\007\337?\000\000\000\000\000\000\340?\000\000\000\000\000\000\000\000\340\036\330\350]\221\351?\000\000\000\000\000\000\000\000\000\000\000\000\000\000\000\000\244p=\n\327\243\344?UUUUUU\345?\000\000\000\000\000\000\000\000\205\353Q\270\036\205\343?\n\327\243p=\n\357?L\207\032\354\316d\344?\000\000\000\000\000\000\360?\000\000\000\000\000\000\000\000\323\233\336\364\2467\355?\000\000\000\000\000\000\000\000\366g\360\233\350\351\334?\000\000\000\000\000\000\360?br\0051\271\202\330?<<<<<<\354?R\270\036\205\353Q\320?\000\000\000\000\000\000\000\000\000\000\000\000\000\000\000\000\034\307q\034\307q\354?\000\000\000\000\000\000\000\000\000\000\000\000\000\000\000\000\000\000\000\000\000\000\000\000UUUUUU\325?\000\000\000\000\000\000\360?\334\031\022\363v\206\344?\\\217\302\365(\\\357?\360r\n^N\301\333?\000\000\000\000\000\000\000\000n\333\266m\333\266\355?\036\036\036\036\036\036\356?_\2328\214\325\326\337?\256\354sHM0\356?\000\000\000\000\000\000\360?\270\036\205\353Q\270\356?\315\314\314\314\314\314\354?\000\000\000\000\000\000\356?\000\000\000\000\000\000\340?\354\304N\354\304N\354?\000\000\000\000\000\000\000\000g1\235\305t\026\343?\000\000\000\000\000\000\360?\000\000\000\000\000\000\360?}\037\253\331\223|\337?\000\000\000\000\000\000\000\000}g\243\276\263Q\357?\000\000\000\000\000\000\360?UUUUUU\345?\000\000\000\000\000\000\360?\000\000\000\000\000\000\000\000\243\213.\272\350\242\353?\000\000\000\000\000\000\360?\211y;Cb\336\356?\355\254vV;\253\355?\000\000\000\000\000\000\000\000\000\000\000\000\000\000\350?\000\000\000\000\000\000\360?\244p=\n\327\243\320?\000\000\000\000\000\000\000\000J\375)\365\247\324\357?\000\000\000\000\000\000\360?\227\226\226\226\226\226\326?\323\233\336\364\2467\355?\326\326\337\036\330\350\335?\316\245C\rvg\342?\000\000\000\000\000\000\000\000\n\327\243p=\n\343?\000\000\000\000\000\000\360?\302\232%\306\247L\353?\000\000\000\000\000\000\000\000\366(\\\217\302\365\344?\037\205\353Q\270\036\335?\000\000\000\000\000\000\340?\211D\"\221H$\342?R@\302O.D\355?\025\315\023j\001c\342?UUUUUU\325?\321\007T\307\336\332\340?;\261\023;\261\023\353?\000\000\000\000\000\000\360?\021u3h\331\361\334?\000\000\000\000\000\000\360?\r\3455\224\327P\356?\000\000\000\000\000\000\340?\000\000\000\000\000\000\360?\000\000\000\000\000\000\000\000\000\000\000\000\000\000\360?\000\000\000\000\000\000\000\000\232\231\231\231\231\231\331?\236\347y\236\347y\356?ffffff\356?\270\0076zWd\356?\037\205\353Q\270\036\335?\000\000\000\000\000\000\354?\327\243p=\n\327\333?\000\000\000\000\000\000\000\000\n\327\243p=\n\327?\000\000\000\000\000\000\360?\270\036\205\353Q\270\356?\000\000\000\000\000\000\000\000\036\036\036\036\036\036\356?\236\347y\236\347y\356?\000\000\000\000\000\000\360?\000\000\000\000\000\000\000\000\000\000\000\000\000\000\000\000=\n\327\243p=\346?\000\000\000\000\000\000\360?\270\036\205\353Q\270\336?\000\000\000\000\000\000\000\000\000\000\000\000\000\000\360?\000\000\000\000\000\000\000\000\244p=\n\327\243\354?*\362Y7\230\"\357?"
      }
    }
  }
}
node {
  name: "Const_5"
  op: "Const"
  device: "/device:CPU:0"
  attr {
    key: "_output_shapes"
    value {
      list {
        shape {
          dim {
            size: 537
          }
        }
      }
    }
  }
  attr {
    key: "dtype"
    value {
      type: DT_DOUBLE
    }
  }
  attr {
    key: "value"
    value {
      tensor {
        dtype: DT_DOUBLE
        tensor_shape {
          dim {
            size: 537
          }
        }
        tensor_content: "\000\000\000\000\000\000&@\000\000\000\000\000\000\000\000\000\000\000\000\000\000\360?\000\000\000\000\000\000G@\000\000\000\000\000\000\020@\000\000\000\000\000@U@\000\000\000\000\000\000\000@\000\000\000\000\000\000\000@\000\000\000\000\000@Y@\000\000\000\000\000\000\000@\000\000\000\000\000\000\360?\000\000\000\000\000\200E@\000\000\000\000\000\000\360?\000\000\000\000\000\200Y@\000\000\000\000\000\000\000@\000\000\000\000\000\000N@\000\000\000\000\000\200F@\000\000\000\000\000\000$@\000\000\000\000\000\000\360?\000\000\000\000\000\000\000@\000\000\000\000\000\000\000@\000\000\000\000\000\000K@\000\000\000\000\000\000$@\000\000\000\000\000\000\000\000\000\000\000\000\000\000\024@\000\000\000\000\000\000 @\000\000\000\000\000\300R@\000\000\000\000\000\200K@\000\000\000\000\000\000\360?\000\000\000\000\000\000\010@\000\000\000\000\000\000P@\000\000\000\000\000\000\000\000\000\000\000\000\000\000\000@\000\000\000\000\000\000\000\000\000\000\000\000\000\000\000@\000\000\000\000\000\0006@\000\000\000\000\000\000\020@\000\000\000\000\000\000\000\000\000\000\000\000\000\200L@\000\000\000\000\000@T@\000\000\000\000\000\200D@\000\000\000\000\000\000\020@\000\000\000\000\000\000\360?\000\000\000\000\000\000*@\000\000\000\000\000\000\024@\000\000\000\000\000\000\024@\000\000\000\000\000\000\000\000\000\000\000\000\000\000\000\000\000\000\000\000\000\000S@\000\000\000\000\000\200M@\000\000\000\000\000\200H@\000\000\000\000\000\000\360?\000\000\000\000\000\000\360?\000\000\000\000\000\000\360?\000\000\000\000\000\000\000\000\000\000\000\000\000\300R@\000\000\000\000\000\000S@\000\000\000\000\000\000\360?\000\000\000\000\000\000P@\000\000\000\000\000\000\"@\000\000\000\000\000\000\034@\000\000\000\000\000\000\000\000\000\000\000\000\000\000\"@\000\000\000\000\000\000\360?\000\000\000\000\000\000\000@\000\000\000\000\000\000\000@\000\000\000\000\000\000S@\000\000\000\000\000\200R@\000\000\000\000\000\300X@\000\000\000\000\000\200I@\000\000\000\000\000\200A@\000\000\000\000\000\000\000\000\000\000\000\000\000\200J@\000\000\000\000\000\000\360?\000\000\000\000\000\000\000\000\000\000\000\000\000\000\000@\000\000\000\000\000\000\360?\000\000\000\000\000\000\000\000\000\000\000\000\000\300Q@\000\000\000\000\000\200A@\000\000\000\000\000\000\000\000\000\000\000\000\000\000\360?\000\000\000\000\000\200L@\000\000\000\000\000\000\000\000\000\000\000\000\000\000\360?\000\000\000\000\000\000\000\000\000\000\000\000\000\000O@\000\000\000\000\000\000 @\000\000\000\000\000\000V@\000\000\000\000\000\000\000@\000\000\000\000\000\000\360?\000\000\000\000\000@R@\000\000\000\000\000\000\000\000\000\000\000\000\000\000\000\000\000\000\000\000\000\000\000\000\000\000\000\000\000\000U@\000\000\000\000\000\000\024@\000\000\000\000\000\000\360?\000\000\000\000\000\000\000@\000\000\000\000\000\000\000\000\000\000\000\000\000\000\010@\000\000\000\000\000\000\010@\000\000\000\000\000\200b@\000\000\000\000\000\000\000\000\000\000\000\000\000\200T@\000\000\000\000\000\000U@\000\000\000\000\000\000\000\000\000\000\000\000\000\300T@\000\000\000\000\000\200A@\000\000\000\000\000\0002@\000\000\000\000\000@\\@\000\000\000\000\000@U@\000\000\000\000\000\000\000\000\000\000\000\000\000@P@\000\000\000\000\000\0006@\000\000\000\000\000\000\360?\000\000\000\000\000\200Y@\000\000\000\000\000\000\360?\000\000\000\000\000\000\000\000\000\000\000\000\000\000\360?\000\000\000\000\000\000\010@\000\000\000\000\000\200H@\000\000\000\000\000\000\000@\000\000\000\000\000\000\000\000\000\000\000\000\000\000W@\000\000\000\000\000\000\360?\000\000\000\000\000@]@\000\000\000\000\000\200K@\000\000\000\000\000\000P@\000\000\000\000\000\000\360?\000\000\000\000\000\000\000\000\000\000\000\000\000\000\360?\000\000\000\000\000\200F@\000\000\000\000\000\000\010@\000\000\000\000\000\000\000\000\000\000\000\000\000\200O@\000\000\000\000\000\000\000@\000\000\000\000\000\000\360?\000\000\000\000\000\000\360?\000\000\000\000\000\000\000\000\000\000\000\000\000\000\010@\000\000\000\000\000\000\\@\000\000\000\000\000\200N@\000\000\000\000\000\200B@\000\000\000\000\000\000\030@\000\000\000\000\000\0001@\000\000\000\000\000\300P@\000\000\000\000\000\000\000\000\000\000\000\000\000\000\000@\000\000\000\000\000\200F@\000\000\000\000\000\300Y@\000\000\000\000\000\000\360?\000\000\000\000\000\000N@\000\000\000\000\000\000\024@\000\000\000\000\000\000\000@\000\000\000\000\000\000\010@\000\000\000\000\000\000\360?\000\000\000\000\000@W@\000\000\000\000\000\000\000\000\000\000\000\000\000\000\020@\000\000\000\000\000\000\"@\000\000\000\000\000\200R@\000\000\000\000\000\000\000\000\000\000\000\000\000\000\000@\000\000\000\000\000\000\000@\000\000\000\000\000\000\010@\000\000\000\000\000\200F@\000\000\000\000\000\300P@\000\000\000\000\000\000F@\000\000\000\000\000\000\000@\000\000\000\000\000\200N@\000\000\000\000\000\200R@\000\000\000\000\000\000\024@\000\000\000\000\000\000\000\000\000\000\000\000\000\000\360?\000\000\000\000\000@\\@\000\000\000\000\000\000\000\000\000\000\000\000\000\000\010@\000\000\000\000\000\000\000\000\000\000\000\000\000\000&@\000\000\000\000\000\000\360?\000\000\000\000\000\000\000\000\000\000\000\000\000\000 @\000\000\000\000\000\000\360?\000\000\000\000\000\000\000\000\000\000\000\000\000\000\000\000\000\000\000\000\000\000\010@\000\000\000\000\000\340`@\000\000\000\000\000\000\010@\000\000\000\000\000@Z@\000\000\000\000\000\000\360?\000\000\000\000\000\000\000@\000\000\000\000\000\000\360?\000\000\000\000\000\000\360?\000\000\000\000\000\000\360?\000\000\000\000\000@R@\000\000\000\000\000\000\"@\000\000\000\000\000\000\360?\000\000\000\000\000\000\360?\000\000\000\000\000\200K@\000\000\000\000\000\000D@\000\000\000\000\000\000\360?\000\000\000\000\000\000\000@\000\000\000\000\000\300T@\000\000\000\000\000\000Z@\000\000\000\000\000\000\000\000\000\000\000\000\000\000\000\000\000\000\000\000\000\200O@\000\000\000\000\000\000\000\000\000\000\000\000\000\000\000\000\000\000\000\000\000\000\000@\000\000\000\000\000\000\360?\000\000\000\000\000\000\000\000\000\000\000\000\000\000\000\000\000\000\000\000\000\000\000\000\000\000\000\000\000\000\000@\000\000\000\000\000\000\360?\000\000\000\000\000\200@@\000\000\000\000\000\300T@\000\000\000\000\000\000\360?\000\000\000\000\000\000?@\000\000\000\000\000\000 @\000\000\000\000\000\000B@\000\000\000\000\000\000\360?\000\000\000\000\000\200U@\000\000\000\000\000\000\000\000\000\000\000\000\000\200V@\000\000\000\000\000\000\000\000\000\000\000\000\000\000Q@\000\000\000\000\000@Q@\000\000\000\000\000\000\000\000\000\000\000\000\000\000\034@\000\000\000\000\000\200J@\000\000\000\000\000\300S@\000\000\000\000\000\000\"@\000\000\000\000\000\300R@\000\000\000\000\000\200J@\000\000\000\000\000\300S@\000\000\000\000\000\000P@\000\000\000\000\000@U@\000\000\000\000\000\000\360?\000\000\000\000\000\000M@\000\000\000\000\000\000\000\000\000\000\000\000\000\000F@\000\000\000\000\000\000\360?\000\000\000\000\000\300T@\000\000\000\000\000@T@\000\000\000\000\000\000<@\000\000\000\000\000\000\000\000\000\000\000\000\000\000\360?\000\000\000\000\000@P@\000\000\000\000\000\000\000\000\000\000\000\000\000\200M@\000\000\000\000\000\000\000\000\000\000\000\000\000\000\034@\000\000\000\000\000\000\000\000\000\000\000\000\000\000\360?\000\000\000\000\000\000\360?\000\000\000\000\000\000V@\000\000\000\000\000\000\360?\000\000\000\000\000\000\000\000\000\000\000\000\000\000\000\000\000\000\000\000\000\000\360?\000\000\000\000\000\000P@\000\000\000\000\000\000\010@\000\000\000\000\000\000\360?\000\000\000\000\000\200T@\000\000\000\000\000\200D@\000\000\000\000\000\000&@\000\000\000\000\000\000\000\000\000\000\000\000\000\300Q@\000\000\000\000\000\000P@\000\000\000\000\000\000,@\000\000\000\000\000\200N@\000\000\000\000\000\200K@\000\000\000\000\000@R@\000\000\000\000\000\000\360?\000\000\000\000\000\000\360?\000\000\000\000\000\000\000\000\000\000\000\000\000\000\360?\000\000\000\000\000\000S@\000\000\000\000\000\0007@\000\000\000\000\000\000\000\000\000\000\000\000\000\000\000\000\000\000\000\000\000\000K@\000\000\000\000\000\000\010@\000\000\000\000\000\000\000\000\000\000\000\000\000\000\000\000\000\000\000\000\000\000\000\000\000\000\000\000\000\000$@\000\000\000\000\000\000\360?\000\000\000\000\000\000\360?\000\000\000\000\000@Q@\000\000\000\000\000\000\030@\000\000\000\000\000\000N@\000\000\000\000\000\000E@\000\000\000\000\000\000\000\000\000\000\000\000\000\000S@\000\000\000\000\000\000\000@\000\000\000\000\000\200T@\000\000\000\000\000\000\020@\000\000\000\000\000\000\360?\000\000\000\000\000\200M@\000\000\000\000\000\000\000\000\000\000\000\000\000\200T@\000\000\000\000\000\000\010@\000\000\000\000\000\000<@\000\000\000\000\000\000\360?\000\000\000\000\000\000\360?\000\000\000\000\000\200R@\000\000\000\000\000\000F@\000\000\000\000\000\000\000\000\000\000\000\000\000\000\360?\000\000\000\000\000\200@@\000\000\000\000\000\000\020@\000\000\000\000\000\000D@\000\000\000\000\000\300V@\000\000\000\000\000\000L@\000\000\000\000\000\000\000\000\000\000\000\000\000\000\000@\000\000\000\000\000\000\024@\000\000\000\000\000@`@\000\000\000\000\000\000\000\000\000\000\000\000\000\000I@\000\000\000\000\000\000\000\000\000\000\000\000\000\000O@\000\000\000\000\000\000\000\000\000\000\000\000\000\300P@\000\000\000\000\000\200P@\000\000\000\000\000\000\000\000\000\000\000\000\000\000\000\000\000\000\000\000\000\000\000\000\000\000\000\000\000\000\000@\000\000\000\000\000\000\360?\000\000\000\000\000\0001@\000\000\000\000\000@U@\000\000\000\000\000\000O@\000\000\000\000\000\000\000\000\000\000\000\000\000\000\000\000\000\000\000\000\000\200I@\000\000\000\000\000\000h@\000\000\000\000\000\200M@\000\000\000\000\000\000\000\000\000\000\000\000\000\200N@\000\000\000\000\000\000Z@\000\000\000\000\000\000Y@\000\000\000\000\000@W@\000\000\000\000\000\000\000\000\000\000\000\000\000\200H@\000\000\000\000\000\000\000@\000\000\000\000\000\000\000@\000\000\000\000\000\300X@\000\000\000\000\000\000 @\000\000\000\000\000\000\030@\000\000\000\000\000\0003@\000\000\000\000\000\000\360?\000\000\000\000\000`g@\000\000\000\000\000\200P@\000\000\000\000\000\000\024@\000\000\000\000\000\000@@\000\000\000\000\000\200B@\000\000\000\000\000\000:@\000\000\000\000\000\000*@\000\000\000\000\000\200T@\000\000\000\000\000\000\360?\000\000\000\000\000\000\360?\000\000\000\000\000\200L@\000\000\000\000\000\000 @\000\000\000\000\000\000\360?\000\000\000\000\000\000\000\000\000\000\000\000\000\000\000@\000\000\000\000\000@Q@\000\000\000\000\000\300S@\000\000\000\000\000\000@@\000\000\000\000\000\000\010@\000\000\000\000\000\000>@\000\000\000\000\000\200L@\000\000\000\000\000\200M@\000\000\000\000\000\300P@\000\000\000\000\000\200S@\000\000\000\000\000\000M@\000\000\000\000\000\000J@\000\000\000\000\000\000W@\000\000\000\000\000\000O@\000\000\000\000\000\000\030@\000\000\000\000\000\000\360?\000\000\000\000\000\000\010@\000\000\000\000\000\000\360?\000\000\000\000\000\000\000\000\000\000\000\000\000\000\000\000\000\000\000\000\000\200D@\000\000\000\000\000\000\360?\000\000\000\000\000\000\000\000\000\000\000\000\000\200M@\000\000\000\000\000\200A@\000\000\000\000\000\000M@\000\000\000\000\000\200R@\000\000\000\000\000\000\000\000\000\000\000\000\000\000\360?\000\000\000\000\000\000\000\000\000\000\000\000\000\000\030@\000\000\000\000\000\000K@\000\000\000\000\000\000?@\000\000\000\000\000\200L@\000\000\000\000\000\000\000\000\000\000\000\000\000\000\360?\000\000\000\000\000\000\000\000\000\000\000\000\000\200E@\000\000\000\000\000\000\"@\000\000\000\000\000\200@@\000\000\000\000\000\000\000\000\000\000\000\000\000\000D@\000\000\000\000\000\000W@\000\000\000\000\000\000\000\000\000\000\000\000\000\000\360?\000\000\000\000\000\000\024@\000\000\000\000\000\000\000\000\000\000\000\000\000\000\000@\000\000\000\000\000\000\360?\000\000\000\000\000\000\360?\000\000\000\000\000\0007@\000\000\000\000\000\000\000\000\000\000\000\000\000\000\000\000\000\000\000\000\000\000>@\000\000\000\000\000\000\000\000\000\000\000\000\000\000\360?\000\000\000\000\000@P@\000\000\000\000\000\000\010@\000\000\000\000\000\000\360?\000\000\000\000\000\000R@\000\000\000\000\000\000\000@\000\000\000\000\000\200A@\000\000\000\000\000\000\000\000\000\000\000\000\000\000\360?\000\000\000\000\000\000\000@\000\000\000\000\000\000\000\000\000\000\000\000\000\300U@\000\000\000\000\000\000\000\000\000\000\000\000\000\000:@\000\000\000\000\000\000\000@\000\000\000\000\000@`@\000\000\000\000\000\000\360?\000\000\000\000\000\000\360?\000\000\000\000\000\000\360?\000\000\000\000\000\000\000\000\000\000\000\000\000\000\360?\000\000\000\000\000\000\000\000\000\000\000\000\000\000\360?\000\000\000\000\000\000\000\000\000\000\000\000\000\200N@\000\000\000\000\000\000\020@\000\000\000\000\000\000O@\000\000\000\000\000\000\000\000\000\000\000\000\000\000\000@\000\000\000\000\000\000\360?\000\000\000\000\000@S@\000\000\000\000\000\000\010@\000\000\000\000\000\000\000\000\000\000\000\000\000\000\024@\000\000\000\000\000\000\360?\000\000\000\000\000\000\360?\000\000\000\000\000\000\360?\000\000\000\000\000\000\010@\000\000\000\000\000\000\360?\000\000\000\000\000\000F@\000\000\000\000\000\000\000\000\000\000\000\000\000\000\000\000\000\000\000\000\000@Q@\000\000\000\000\000\000\360?\000\000\000\000\000\000\360?\000\000\000\000\000\000\000\000\000\000\000\000\000\000\360?\000\000\000\000\000\000\000\000\000\000\000\000\000\000\360?\000\000\000\000\000\000\010@\000\000\000\000\000\000\000\000\000\000\000\000\000\000\034@\000\000\000\000\000\000&@\000\000\000\000\000\000\360?\000\000\000\000\000\000\360?\000\000\000\000\000\000\000\000\000\000\000\000\000@^@\000\000\000\000\000\000\360?\000\000\000\000\000\000\360?\000\000\000\000\000\000\000\000\000\000\000\000\000\0003@\000\000\000\000\000\000\020@\000\000\000\000\000\300R@\000\000\000\000\000\000F@\000\000\000\000\000\000\360?\000\000\000\000\000\000P@\000\000\000\000\000\000\000\000\000\000\000\000\000\0009@\000\000\000\000\000\000\360?\000\000\000\000\000\000O@\000\000\000\000\000\000T@\000\000\000\000\000\000\360?\000\000\000\000\000\200B@\000\000\000\000\000\000.@\000\000\000\000\000\200L@\000\000\000\000\000\000\360?\000\000\000\000\000\000M@\000\000\000\000\000\000\000@\000\000\000\000\000\000\000\000\000\000\000\000\000@U@\000\000\000\000\000\000\000\000\000\000\000\000\000\000\360?\000\000\000\000\000\000\360?\000\000\000\000\000\000\000\000\000\000\000\000\000\000\000\000\000\000\000\000\000\000\000\000\000\000\000\000\000\000\360?\000\000\000\000\000\300S@\000\000\000\000\000\000\360?\000\000\000\000\000\000\360?\000\000\000\000\000\000$@\000\000\000\000\000\000H@\000\000\000\000\000\000\030@\000\000\000\000\000\300[@\000\000\000\000\000\000\360?\000\000\000\000\000\000[@\000\000\000\000\000\000\000\000\000\000\000\000\000\000\360?\000\000\000\000\000\000\000\000\000\000\000\000\000\000\024@\000\000\000\000\000\000\360?\000\000\000\000\000\000\000\000\000\000\000\000\000\000\000\000\000\000\000\000\000\000\360?\000\000\000\000\000\200G@\000\000\000\000\000\000\000\000\000\000\000\000\000\300W@\000\000\000\000\000\000\360?\000\000\000\000\000\000\000\000\000\000\000\000\000\000\360?\000\000\000\000\000\000(@\000\000\000\000\000\000\360?"
      }
    }
  }
}
node {
  name: "Const_6"
  op: "Const"
  device: "/device:CPU:0"
  attr {
    key: "_output_shapes"
    value {
      list {
        shape {
          dim {
            size: 537
          }
        }
      }
    }
  }
  attr {
    key: "dtype"
    value {
      type: DT_DOUBLE
    }
  }
  attr {
    key: "value"
    value {
      tensor {
        dtype: DT_DOUBLE
        tensor_shape {
          dim {
            size: 537
          }
        }
