node {
  name: "global_step/Initializer/zeros"
  op: "Const"
  attr {
    key: "_class"
    value {
      list {
        s: "loc:@global_step"
      }
    }
  }
  attr {
    key: "_output_shapes"
    value {
      list {
        shape {
        }
      }
    }
  }
  attr {
    key: "dtype"
    value {
      type: DT_INT64
    }
  }
  attr {
    key: "value"
    value {
      tensor {
        dtype: DT_INT64
        tensor_shape {
        }
        int64_val: 0
      }
    }
  }
}
node {
  name: "global_step"
  op: "VariableV2"
  attr {
    key: "_class"
    value {
      list {
        s: "loc:@global_step"
      }
    }
  }
  attr {
    key: "_output_shapes"
    value {
      list {
        shape {
        }
      }
    }
  }
  attr {
    key: "container"
    value {
      s: ""
    }
  }
  attr {
    key: "dtype"
    value {
      type: DT_INT64
    }
  }
  attr {
    key: "shape"
    value {
      shape {
      }
    }
  }
  attr {
    key: "shared_name"
    value {
      s: ""
    }
  }
}
node {
  name: "global_step/Assign"
  op: "Assign"
  input: "global_step"
  input: "global_step/Initializer/zeros"
  attr {
    key: "T"
    value {
      type: DT_INT64
    }
  }
  attr {
    key: "_class"
    value {
      list {
        s: "loc:@global_step"
      }
    }
  }
  attr {
    key: "_output_shapes"
    value {
      list {
        shape {
        }
      }
    }
  }
  attr {
    key: "use_locking"
    value {
      b: true
    }
  }
  attr {
    key: "validate_shape"
    value {
      b: true
    }
  }
}
node {
  name: "global_step/read"
  op: "Identity"
  input: "global_step"
  attr {
    key: "T"
    value {
      type: DT_INT64
    }
  }
  attr {
    key: "_class"
    value {
      list {
        s: "loc:@global_step"
      }
    }
  }
  attr {
    key: "_output_shapes"
    value {
      list {
        shape {
        }
      }
    }
  }
}
node {
  name: "IsVariableInitialized"
  op: "IsVariableInitialized"
  input: "global_step"
  attr {
    key: "_class"
    value {
      list {
        s: "loc:@global_step"
      }
    }
  }
  attr {
    key: "_output_shapes"
    value {
      list {
        shape {
        }
      }
    }
  }
  attr {
    key: "dtype"
    value {
      type: DT_INT64
    }
  }
}
node {
  name: "cond/Switch"
  op: "Switch"
  input: "IsVariableInitialized"
  input: "IsVariableInitialized"
  attr {
    key: "T"
    value {
      type: DT_BOOL
    }
  }
  attr {
    key: "_output_shapes"
    value {
      list {
        shape {
        }
        shape {
        }
      }
    }
  }
}
node {
  name: "cond/switch_t"
  op: "Identity"
  input: "cond/Switch:1"
  attr {
    key: "T"
    value {
      type: DT_BOOL
    }
  }
  attr {
    key: "_output_shapes"
    value {
      list {
        shape {
        }
      }
    }
  }
}
node {
  name: "cond/switch_f"
  op: "Identity"
  input: "cond/Switch"
  attr {
    key: "T"
    value {
      type: DT_BOOL
    }
  }
  attr {
    key: "_output_shapes"
    value {
      list {
        shape {
        }
      }
    }
  }
}
node {
  name: "cond/pred_id"
  op: "Identity"
  input: "IsVariableInitialized"
  attr {
    key: "T"
    value {
      type: DT_BOOL
    }
  }
  attr {
    key: "_output_shapes"
    value {
      list {
        shape {
        }
      }
    }
  }
}
node {
  name: "cond/read/Switch"
  op: "RefSwitch"
  input: "global_step"
  input: "cond/pred_id"
  attr {
    key: "T"
    value {
      type: DT_INT64
    }
  }
  attr {
    key: "_class"
    value {
      list {
        s: "loc:@global_step"
      }
    }
  }
  attr {
    key: "_output_shapes"
    value {
      list {
        shape {
        }
        shape {
        }
      }
    }
  }
}
node {
  name: "cond/read"
  op: "Identity"
  input: "cond/read/Switch:1"
  attr {
    key: "T"
    value {
      type: DT_INT64
    }
  }
  attr {
    key: "_output_shapes"
    value {
      list {
        shape {
        }
      }
    }
  }
}
node {
  name: "cond/Switch_1"
  op: "Switch"
  input: "global_step/Initializer/zeros"
  input: "cond/pred_id"
  attr {
    key: "T"
    value {
      type: DT_INT64
    }
  }
  attr {
    key: "_class"
    value {
      list {
        s: "loc:@global_step"
      }
    }
  }
  attr {
    key: "_output_shapes"
    value {
      list {
        shape {
        }
        shape {
        }
      }
    }
  }
}
node {
  name: "cond/Merge"
  op: "Merge"
  input: "cond/Switch_1"
  input: "cond/read"
  attr {
    key: "N"
    value {
      i: 2
    }
  }
  attr {
    key: "T"
    value {
      type: DT_INT64
    }
  }
  attr {
    key: "_output_shapes"
    value {
      list {
        shape {
        }
        shape {
        }
      }
    }
  }
}
node {
  name: "add/y"
  op: "Const"
  attr {
    key: "_output_shapes"
    value {
      list {
        shape {
        }
      }
    }
  }
  attr {
    key: "dtype"
    value {
      type: DT_INT64
    }
  }
  attr {
    key: "value"
    value {
      tensor {
        dtype: DT_INT64
        tensor_shape {
        }
        int64_val: 0
      }
    }
  }
}
node {
  name: "add"
  op: "Add"
  input: "cond/Merge"
  input: "add/y"
  attr {
    key: "T"
    value {
      type: DT_INT64
    }
  }
  attr {
    key: "_output_shapes"
    value {
      list {
        shape {
        }
      }
    }
  }
}
node {
  name: "Const"
  op: "Const"
  device: "/device:CPU:0"
  attr {
    key: "_output_shapes"
    value {
      list {
        shape {
          dim {
            size: 537
          }
        }
      }
    }
  }
  attr {
    key: "dtype"
    value {
      type: DT_DOUBLE
    }
  }
  attr {
    key: "value"
    value {
      tensor {
        dtype: DT_DOUBLE
        tensor_shape {
          dim {
            size: 537
          }
        }
        tensor_content: "\000\000\000\000\000\000&@\000\000\000\000\000\000\000\000\000\000\000\000\000\000\360?\000\000\000\000\000\000G@\000\000\000\000\000\000\020@\000\000\000\000\000@U@\000\000\000\000\000\000\000@\000\000\000\000\000\000\000@\000\000\000\000\000@Y@\000\000\000\000\000\000\000@\000\000\000\000\000\000\360?\000\000\000\000\000\200E@\000\000\000\000\000\000\360?\000\000\000\000\000\200Y@\000\000\000\000\000\000\000@\000\000\000\000\000\000N@\000\000\000\000\000\200F@\000\000\000\000\000\000$@\000\000\000\000\000\000\360?\000\000\000\000\000\000\000@\000\000\000\000\000\000\000@\000\000\000\000\000\000K@\000\000\000\000\000\000$@\000\000\000\000\000\000\000\000\000\000\000\000\000\000\024@\000\000\000\000\000\000 @\000\000\000\000\000\300R@\000\000\000\000\000\200K@\000\000\000\000\000\000\360?\000\000\000\000\000\000\010@\000\000\000\000\000\000P@\000\000\000\000\000\000\000\000\000\000\000\000\000\000\000@\000\000\000\000\000\000\000\000\000\000\000\000\000\000\000@\000\000\000\000\000\0006@\000\000\000\000\000\000\020@\000\000\000\000\000\000\000\000\000\000\000\000\000\200L@\000\000\000\000\000@T@\000\000\000\000\000\200D@\000\000\000\000\000\000\020@\000\000\000\000\000\000\360?\000\000\000\000\000\000*@\000\000\000\000\000\000\024@\000\000\000\000\000\000\024@\000\000\000\000\000\000\000\000\000\000\000\000\000\000\000\000\000\000\000\000\000\000S@\000\000\000\000\000\200M@\000\000\000\000\000\200H@\000\000\000\000\000\000\360?\000\000\000\000\000\000\360?\000\000\000\000\000\000\360?\000\000\000\000\000\000\000\000\000\000\000\000\000\300R@\000\000\000\000\000\000S@\000\000\000\000\000\000\360?\000\000\000\000\000\000P@\000\000\000\000\000\000\"@\000\000\000\000\000\000\034@\000\000\000\000\000\000\000\000\000\000\000\000\000\000\"@\000\000\000\000\000\000\360?\000\000\000\000\000\000\000@\000\000\000\000\000\000\000@\000\000\000\000\000\000S@\000\000\000\000\000\200R@\000\000\000\000\000\300X@\000\000\000\000\000\200I@\000\000\000\000\000\200A@\000\000\000\000\000\000\000\000\000\000\000\000\000\200J@\000\000\000\000\000\000\360?\000\000\000\000\000\000\000\000\000\000\000\000\000\000\000@\000\000\000\000\000\000\360?\000\000\000\000\000\000\000\000\000\000\000\000\000\300Q@\000\000\000\000\000\200A@\000\000\000\000\000\000\000\000\000\000\000\000\000\000\360?\000\000\000\000\000\200L@\000\000\000\000\000\000\000\000\000\000\000\000\000\000\360?\000\000\000\000\000\000\000\000\000\000\000\000\000\000O@\000\000\000\000\000\000 @\000\000\000\000\000\000V@\000\000\000\000\000\000\000@\000\000\000\000\000\000\360?\000\000\000\000\000@R@\000\000\000\000\000\000\000\000\000\000\000\000\000\000\000\000\000\000\000\000\000\000\000\000\000\000\000\000\000\000U@\000\000\000\000\000\000\024@\000\000\000\000\000\000\360?\000\000\000\000\000\000\000@\000\000\000\000\000\000\000\000\000\000\000\000\000\000\010@\000\000\000\000\000\000\010@\000\000\000\000\000\200b@\000\000\000\000\000\000\000\000\000\000\000\000\000\200T@\000\000\000\000\000\000U@\000\000\000\000\000\000\000\000\000\000\000\000\000\300T@\000\000\000\000\000\200A@\000\000\000\000\000\0002@\000\000\000\000\000@\\@\000\000\000\000\000@U@\000\000\000\000\000\000\000\000\000\000\000\000\000@P@\000\000\000\000\000\0006@\000\000\000\000\000\000\360?\000\000\000\000\000\200Y@\000\000\000\000\000\000\360?\000\000\000\000\000\000\000\000\000\000\000\000\000\000\360?\000\000\000\000\000\000\010@\000\000\000\000\000\200H@\000\000\000\000\000\000\000@\000\000\000\000\000\000\000\000\000\000\000\000\000\000W@\000\000\000\000\000\000\360?\000\000\000\000\000@]@\000\000\000\000\000\200K@\000\000\000\000\000\000P@\000\000\000\000\000\000\360?\000\000\000\000\000\000\000\000\000\000\000\000\000\000\360?\000\000\000\000\000\200F@\000\000\000\000\000\000\010@\000\000\000\000\000\000\000\000\000\000\000\000\000\200O@\000\000\000\000\000\000\000@\000\000\000\000\000\000\360?\000\000\000\000\000\000\360?\000\000\000\000\000\000\000\000\000\000\000\000\000\000\010@\000\000\000\000\000\000\\@\000\000\000\000\000\200N@\000\000\000\000\000\200B@\000\000\000\000\000\000\030@\000\000\000\000\000\0001@\000\000\000\000\000\300P@\000\000\000\000\000\000\000\000\000\000\000\000\000\000\000@\000\000\000\000\000\200F@\000\000\000\000\000\300Y@\000\000\000\000\000\000\360?\000\000\000\000\000\000N@\000\000\000\000\000\000\024@\000\000\000\000\000\000\000@\000\000\000\000\000\000\010@\000\000\000\000\000\000\360?\000\000\000\000\000@W@\000\000\000\000\000\000\000\000\000\000\000\000\000\000\020@\000\000\000\000\000\000\"@\000\000\000\000\000\200R@\000\000\000\000\000\000\000\000\000\000\000\000\000\000\000@\000\000\000\000\000\000\000@\000\000\000\000\000\000\010@\000\000\000\000\000\200F@\000\000\000\000\000\300P@\000\000\000\000\000\000F@\000\000\000\000\000\000\000@\000\000\000\000\000\200N@\000\000\000\000\000\200R@\000\000\000\000\000\000\024@\000\000\000\000\000\000\000\000\000\000\000\000\000\000\360?\000\000\000\000\000@\\@\000\000\000\000\000\000\000\000\000\000\000\000\000\000\010@\000\000\000\000\000\000\000\000\000\000\000\000\000\000&@\000\000\000\000\000\000\360?\000\000\000\000\000\000\000\000\000\000\000\000\000\000 @\000\000\000\000\000\000\360?\000\000\000\000\000\000\000\000\000\000\000\000\000\000\000\000\000\000\000\000\000\000\010@\000\000\000\000\000\340`@\000\000\000\000\000\000\010@\000\000\000\000\000@Z@\000\000\000\000\000\000\360?\000\000\000\000\000\000\000@\000\000\000\000\000\000\360?\000\000\000\000\000\000\360?\000\000\000\000\000\000\360?\000\000\000\000\000@R@\000\000\000\000\000\000\"@\000\000\000\000\000\000\360?\000\000\000\000\000\000\360?\000\000\000\000\000\200K@\000\000\000\000\000\000D@\000\000\000\000\000\000\360?\000\000\000\000\000\000\000@\000\000\000\000\000\300T@\000\000\000\000\000\000Z@\000\000\000\000\000\000\000\000\000\000\000\000\000\000\000\000\000\000\000\000\000\200O@\000\000\000\000\000\000\000\000\000\000\000\000\000\000\000\000\000\000\000\000\000\000\000@\000\000\000\000\000\000\360?\000\000\000\000\000\000\000\000\000\000\000\000\000\000\000\000\000\000\000\000\000\000\000\000\000\000\000\000\000\000\000@\000\000\000\000\000\000\360?\000\000\000\000\000\200@@\000\000\000\000\000\300T@\000\000\000\000\000\000\360?\000\000\000\000\000\000?@\000\000\000\000\000\000 @\000\000\000\000\000\000B@\000\000\000\000\000\000\360?\000\000\000\000\000\200U@\000\000\000\000\000\000\000\000\000\000\000\000\000\200V@\000\000\000\000\000\000\000\000\000\000\000\000\000\000Q@\000\000\000\000\000@Q@\000\000\000\000\000\000\000\000\000\000\000\000\000\000\034@\000\000\000\000\000\200J@\000\000\000\000\000\300S@\000\000\000\000\000\000\"@\000\000\000\000\000\300R@\000\000\000\000\000\200J@\000\000\000\000\000\300S@\000\000\000\000\000\000P@\000\000\000\000\000@U@\000\000\000\000\000\000\360?\000\000\000\000\000\000M@\000\000\000\000\000\000\000\000\000\000\000\000\000\000F@\000\000\000\000\000\000\360?\000\000\000\000\000\300T@\000\000\000\000\000@T@\000\000\000\000\000\000<@\000\000\000\000\000\000\000\000\000\000\000\000\000\000\360?\000\000\000\000\000@P@\000\000\000\000\000\000\000\000\000\000\000\000\000\200M@\000\000\000\000\000\000\000\000\000\000\000\000\000\000\034@\000\000\000\000\000\000\000\000\000\000\000\000\000\000\360?\000\000\000\000\000\000\360?\000\000\000\000\000\000V@\000\000\000\000\000\000\360?\000\000\000\000\000\000\000\000\000\000\000\000\000\000\000\000\000\000\000\000\000\000\360?\000\000\000\000\000\000P@\000\000\000\000\000\000\010@\000\000\000\000\000\000\360?\000\000\000\000\000\200T@\000\000\000\000\000\200D@\000\000\000\000\000\000&@\000\000\000\000\000\000\000\000\000\000\000\000\000\300Q@\000\000\000\000\000\000P@\000\000\000\000\000\000,@\000\000\000\000\000\200N@\000\000\000\000\000\200K@\000\000\000\000\000@R@\000\000\000\000\000\000\360?\000\000\000\000\000\000\360?\000\000\000\000\000\000\000\000\000\000\000\000\000\000\360?\000\000\000\000\000\000S@\000\000\000\000\000\0007@\000\000\000\000\000\000\000\000\000\000\000\000\000\000\000\000\000\000\000\000\000\000K@\000\000\000\000\000\000\010@\000\000\000\000\000\000\000\000\000\000\000\000\000\000\000\000\000\000\000\000\000\000\000\000\000\000\000\000\000\000$@\000\000\000\000\000\000\360?\000\000\000\000\000\000\360?\000\000\000\000\000@Q@\000\000\000\000\000\000\030@\000\000\000\000\000\000N@\000\000\000\000\000\000E@\000\000\000\000\000\000\000\000\000\000\000\000\000\000S@\000\000\000\000\000\000\000@\000\000\000\000\000\200T@\000\000\000\000\000\000\020@\000\000\000\000\000\000\360?\000\000\000\000\000\200M@\000\000\000\000\000\000\000\000\000\000\000\000\000\200T@\000\000\000\000\000\000\010@\000\000\000\000\000\000<@\000\000\000\000\000\000\360?\000\000\000\000\000\000\360?\000\000\000\000\000\200R@\000\000\000\000\000\000F@\000\000\000\000\000\000\000\000\000\000\000\000\000\000\360?\000\000\000\000\000\200@@\000\000\000\000\000\000\020@\000\000\000\000\000\000D@\000\000\000\000\000\300V@\000\000\000\000\000\000L@\000\000\000\000\000\000\000\000\000\000\000\000\000\000\000@\000\000\000\000\000\000\024@\000\000\000\000\000@`@\000\000\000\000\000\000\000\000\000\000\000\000\000\000I@\000\000\000\000\000\000\000\000\000\000\000\000\000\000O@\000\000\000\000\000\000\000\000\000\000\000\000\000\300P@\000\000\000\000\000\200P@\000\000\000\000\000\000\000\000\000\000\000\000\000\000\000\000\000\000\000\000\000\000\000\000\000\000\000\000\000\000\000@\000\000\000\000\000\000\360?\000\000\000\000\000\0001@\000\000\000\000\000@U@\000\000\000\000\000\000O@\000\000\000\000\000\000\000\000\000\000\000\000\000\000\000\000\000\000\000\000\000\200I@\000\000\000\000\000\000h@\000\000\000\000\000\200M@\000\000\000\000\000\000\000\000\000\000\000\000\000\200N@\000\000\000\000\000\000Z@\000\000\000\000\000\000Y@\000\000\000\000\000@W@\000\000\000\000\000\000\000\000\000\000\000\000\000\200H@\000\000\000\000\000\000\000@\000\000\000\000\000\000\000@\000\000\000\000\000\300X@\000\000\000\000\000\000 @\000\000\000\000\000\000\030@\000\000\000\000\000\0003@\000\000\000\000\000\000\360?\000\000\000\000\000`g@\000\000\000\000\000\200P@\000\000\000\000\000\000\024@\000\000\000\000\000\000@@\000\000\000\000\000\200B@\000\000\000\000\000\000:@\000\000\000\000\000\000*@\000\000\000\000\000\200T@\000\000\000\000\000\000\360?\000\000\000\000\000\000\360?\000\000\000\000\000\200L@\000\000\000\000\000\000 @\000\000\000\000\000\000\360?\000\000\000\000\000\000\000\000\000\000\000\000\000\000\000@\000\000\000\000\000@Q@\000\000\000\000\000\300S@\000\000\000\000\000\000@@\000\000\000\000\000\000\010@\000\000\000\000\000\000>@\000\000\000\000\000\200L@\000\000\000\000\000\200M@\000\000\000\000\000\300P@\000\000\000\000\000\200S@\000\000\000\000\000\000M@\000\000\000\000\000\000J@\000\000\000\000\000\000W@\000\000\000\000\000\000O@\000\000\000\000\000\000\030@\000\000\000\000\000\000\360?\000\000\000\000\000\000\010@\000\000\000\000\000\000\360?\000\000\000\000\000\000\000\000\000\000\000\000\000\000\000\000\000\000\000\000\000\200D@\000\000\000\000\000\000\360?\000\000\000\000\000\000\000\000\000\000\000\000\000\200M@\000\000\000\000\000\200A@\000\000\000\000\000\000M@\000\000\000\000\000\200R@\000\000\000\000\000\000\000\000\000\000\000\000\000\000\360?\000\000\000\000\000\000\000\000\000\000\000\000\000\000\030@\000\000\000\000\000\000K@\000\000\000\000\000\000?@\000\000\000\000\000\200L@\000\000\000\000\000\000\000\000\000\000\000\000\000\000\360?\000\000\000\000\000\000\000\000\000\000\000\000\000\200E@\000\000\000\000\000\000\"@\000\000\000\000\000\200@@\000\000\000\000\000\000\000\000\000\000\000\000\000\000D@\000\000\000\000\000\000W@\000\000\000\000\000\000\000\000\000\000\000\000\000\000\360?\000\000\000\000\000\000\024@\000\000\000\000\000\000\000\000\000\000\000\000\000\000\000@\000\000\000\000\000\000\360?\000\000\000\000\000\000\360?\000\000\000\000\000\0007@\000\000\000\000\000\000\000\000\000\000\000\000\000\000\000\000\000\000\000\000\000\000>@\000\000\000\000\000\000\000\000\000\000\000\000\000\000\360?\000\000\000\000\000@P@\000\000\000\000\000\000\010@\000\000\000\000\000\000\360?\000\000\000\000\000\000R@\000\000\000\000\000\000\000@\000\000\000\000\000\200A@\000\000\000\000\000\000\000\000\000\000\000\000\000\000\360?\000\000\000\000\000\000\000@\000\000\000\000\000\000\000\000\000\000\000\000\000\300U@\000\000\000\000\000\000\000\000\000\000\000\000\000\000:@\000\000\000\000\000\000\000@\000\000\000\000\000@`@\000\000\000\000\000\000\360?\000\000\000\000\000\000\360?\000\000\000\000\000\000\360?\000\000\000\000\000\000\000\000\000\000\000\000\000\000\360?\000\000\000\000\000\000\000\000\000\000\000\000\000\000\360?\000\000\000\000\000\000\000\000\000\000\000\000\000\200N@\000\000\000\000\000\000\020@\000\000\000\000\000\000O@\000\000\000\000\000\000\000\000\000\000\000\000\000\000\000@\000\000\000\000\000\000\360?\000\000\000\000\000@S@\000\000\000\000\000\000\010@\000\000\000\000\000\000\000\000\000\000\000\000\000\000\024@\000\000\000\000\000\000\360?\000\000\000\000\000\000\360?\000\000\000\000\000\000\360?\000\000\000\000\000\000\010@\000\000\000\000\000\000\360?\000\000\000\000\000\000F@\000\000\000\000\000\000\000\000\000\000\000\000\000\000\000\000\000\000\000\000\000@Q@\000\000\000\000\000\000\360?\000\000\000\000\000\000\360?\000\000\000\000\000\000\000\000\000\000\000\000\000\000\360?\000\000\000\000\000\000\000\000\000\000\000\000\000\000\360?\000\000\000\000\000\000\010@\000\000\000\000\000\000\000\000\000\000\000\000\000\000\034@\000\000\000\000\000\000&@\000\000\000\000\000\000\360?\000\000\000\000\000\000\360?\000\000\000\000\000\000\000\000\000\000\000\000\000@^@\000\000\000\000\000\000\360?\000\000\000\000\000\000\360?\000\000\000\000\000\000\000\000\000\000\000\000\000\0003@\000\000\000\000\000\000\020@\000\000\000\000\000\300R@\000\000\000\000\000\000F@\000\000\000\000\000\000\360?\000\000\000\000\000\000P@\000\000\000\000\000\000\000\000\000\000\000\000\000\0009@\000\000\000\000\000\000\360?\000\000\000\000\000\000O@\000\000\000\000\000\000T@\000\000\000\000\000\000\360?\000\000\000\000\000\200B@\000\000\000\000\000\000.@\000\000\000\000\000\200L@\000\000\000\000\000\000\360?\000\000\000\000\000\000M@\000\000\000\000\000\000\000@\000\000\000\000\000\000\000\000\000\000\000\000\000@U@\000\000\000\000\000\000\000\000\000\000\000\000\000\000\360?\000\000\000\000\000\000\360?\000\000\000\000\000\000\000\000\000\000\000\000\000\000\000\000\000\000\000\000\000\000\000\000\000\000\000\000\000\000\360?\000\000\000\000\000\300S@\000\000\000\000\000\000\360?\000\000\000\000\000\000\360?\000\000\000\000\000\000$@\000\000\000\000\000\000H@\000\000\000\000\000\000\030@\000\000\000\000\000\300[@\000\000\000\000\000\000\360?\000\000\000\000\000\000[@\000\000\000\000\000\000\000\000\000\000\000\000\000\000\360?\000\000\000\000\000\000\000\000\000\000\000\000\000\000\024@\000\000\000\000\000\000\360?\000\000\000\000\000\000\000\000\000\000\000\000\000\000\000\000\000\000\000\000\000\000\360?\000\000\000\000\000\200G@\000\000\000\000\000\000\000\000\000\000\000\000\000\300W@\000\000\000\000\000\000\360?\000\000\000\000\000\000\000\000\000\000\000\000\000\000\360?\000\000\000\000\000\000(@\000\000\000\000\000\000\360?"
      }
    }
  }
}
node {
  name: "Const_1"
  op: "Const"
  device: "/device:CPU:0"
  attr {
    key: "_output_shapes"
    value {
      list {
        shape {
          dim {
            size: 537
          }
        }
      }
    }
  }
  attr {
    key: "dtype"
    value {
      type: DT_DOUBLE
    }
  }
  attr {
    key: "value"
    value {
      tensor {
        dtype: DT_DOUBLE
        tensor_shape {
          dim {
            size: 537
          }
        }
        tensor_content: "\030\364\005}A_\320?\000\000\000\000\000\000\000\000\000\000\000\000\000\000\360?q=\n\327\243p\315?\021\021\021\021\021\021\301?333333\333?\030\206a\030\206a\270?UUUUUU\325?)\\\217\302\365(\340?\000\000\000\000\000\000\260?\034\307q\034\307q\254?B\032\244A\032\244\321?\024;\261\023;\261\263?R\270\036\205\353Q\340?\000\000\000\000\000\000\360?\220k\"\220k\"\340?\236\330\211\235\330\211\315?\267m\333\266m\333\346?\232\231\231\231\231\231\251?UUUUUU\345?(\257\241\274\206\362\232?H\341z\024\256G\321?[\204\3745;j\261?\000\000\000\000\000\000\000\000\267m\333\266m\333\326?\222$I\222$I\342?9\214\325\326\337\036\330?r\034\307q\034\307\321?\364\005}A_\320\227?\000\000\000\000\000\000\360?\025P\001\025P\001\325?\000\000\000\000\000\000\000\000\034\307q\034\307q\254?\000\000\000\000\000\000\000\000\036\036\036\036\036\036\276?UUUUUU\335?\020\004A\020\004A\240?\000\000\000\000\000\000\000\000\3234M\3234M\323?[\251\225Z\251\225\332?=\n\327\243p=\312?\360\370\303\001\217?\234?\000\000\000\000\000\000\360?\244p=\n\327\243\260?Lg1\235\305t\266?\232\231\231\231\231\231\231?\000\000\000\000\000\000\000\000\000\000\000\000\000\000\000\000S\300| \273\260\330?gH\314\333\031\022\323?\307\036f\001\371\"\321?\024;\261\023;\261\263?(\257\241\274\206\362\212?\000\000\000\000\000\000\300?\000\000\000\000\000\000\000\000\000\000\000\000\000\000\330?R\270\036\205\353Q\330?\000\000\000\000\000\000\360?\3313\020\225\216\354\351?\000\000\000\000\000\000\340?]t\321E\027]\344?\000\000\000\000\000\000\000\000\n\327\243p=\n\327?\000\000\000\000\000\000\360?d!\013Y\310B\266?\000\000\000\000\000\000\360?R\270\036\205\353Q\330?\256G\341z\024\256\327?\256G\341z\024\256\337?\306\375\272\244\362a\334?ZZZZZZ\312?\000\000\000\000\000\000\000\000\225\024\220\360\223\013\321?{\024\256G\341zt?\000\000\000\000\000\000\000\000{\024\256G\341z\264?\000\000\000\000\000\000\360?\000\000\000\000\000\000\000\000\327tM\327tM\327?ffffff\306?\000\000\000\000\000\000\000\000\000\000\000\000\000\000\360?\000\000\000\000\000\000\323?\000\000\000\000\000\000\000\000\034\307q\034\307q\274?\000\000\000\000\000\000\000\000\020\215\365\241\261>\324?\006\026X`\201\005\266?)\\\217\302\365(\334?UUUUUU\325?\036\036\036\036\036\036\256?\032\374&z:\267\327?\000\000\000\000\000\000\000\000\000\000\000\000\000\000\000\000\000\000\000\000\000\000\000\000\'\233l\262\311&\333?e\223M6\331d\303?\000\000\000\000\000\000\340?{\024\256G\341z\244?\000\000\000\000\000\000\000\000\333\266m\333\266m\273?\000\000\000\000\000\000\360?\256G\341z\024\256\347?\000\000\000\000\000\000\000\000e\264x\345\0231\333?Ava1\022J\333?\000\000\000\000\000\000\000\000\217\302\365(\\\217\332?\000\000\000\000\000\000\334?\n\327\243p=\n\267?\351\201\312\331-\374\352?UUUUUU\334?\000\000\000\000\000\000\000\000UUUUUU\325?)\\\217\302\365(\274?F\027]t\321E\227?R\270\036\205\353Q\340?\000\000\000\000\000\000\360?\000\000\000\000\000\000\000\000\000\000\000\000\000\000\340?^Cy\r\3455\304?\241\264\361\216j\326\317?\000\000\000\000\000\000\360?\000\000\000\000\000\000\000\000q=\n\327\243p\335?\000\000\000\000\000\000\340?\270\036\205\353Q\270\342?\262\220\205,d!\323?\025\370\342\352\007\035\325?\000\000\000\000\000\000\360?\000\000\000\000\000\000\000\000\000\000\000\000\000\000\360?\315\314\314\314\314\314\314?\"5\301x+\373\254?\000\000\000\000\000\000\000\000)\\\217\302\365(\324?\000\000\000\000\000\000\360?\000\000\000\000\000\000\260?UUUUUU\325?\000\000\000\000\000\000\000\000\000\000\000\000\000\000\330?\201\371@va1\342?\205\353Q\270\036\205\323?g2Z\274\362\211\310?\000\000\000\000\000\000\300?\303\365(\\\217\302\265?\201L\212\027\310\244\330?\000\000\000\000\000\000\000\000\000\000\000\000\000\000\360?\021u3h\331\361\314?\373\225\002\265~\245\340?UUUUUU\325?333333\323?\241\344N\321\302\031\240?\027l\301\026l\301\246?UUUUUU\325?\222$I\222$I\262?\326\326\337\036\330\350\335?\000\000\000\000\000\000\000\000h/\241\275\204\366\262?\n\327\243p=\n\247?A\255_)P\353\327?\000\000\000\000\000\000\000\000\000\000\000\000\000\000\360?\027l\301\026l\301\246?UUUUUU\325?Y\037\032\353Cc\315?q=\n\327\243p\325?\271\353g\213\225\341\333?\036\036\036\036\036\036\256?\205\353Q\270\036\205\323?\256G\341z\024\256\327?\024;\261\023;\261\263?\000\000\000\000\000\000\000\000\320\272\301\024\371\254\233?\024\256G\341z\024\342?\000\000\000\000\000\000\000\000\000\000\000\000\000\000\360?\000\000\000\000\000\000\000\000\216\336\025\231/M\254?\030\206a\030\206a\250?\000\000\000\000\000\000\000\000\010\037|\360\301\007\317?\222$I\222$I\302?\000\000\000\000\000\000\000\000\000\000\000\000\000\000\000\000\000\000\000\000\000\000\360?\232\231\231\231\231\231\345?\000\000\000\000\000\000\360?\315\314\314\314\314\314\340?\000\000\000\000\000\000\260?h/\241\275\204\366\262?\000\000\000\000\000\000\360?\000\000\000\000\000\000\340?\000\000\000\000\000\000\360?(b6\227\0165\330?\000\000\000\000\000\000\350?\000\000\000\000\000\000\360?\000\000\000\000\000\000\360?\030\253\255\277=\260\321?\232\231\231\231\231\231\311?\034\307q\034\307q\254?\021\021\021\021\021\021\261?)P\353W\n\324\332?Q^Cy\r\345\345?\000\000\000\000\000\000\000\000\000\000\000\000\000\000\000\000)\\\217\302\365(\324?\000\000\000\000\000\000\000\000\000\000\000\000\000\000\000\000\027l\301\026l\301\246?\000\000\000\000\000\000\360?\000\000\000\000\000\000\000\000\000\000\000\000\000\000\000\000\000\000\000\000\000\000\000\000F\027]t\321E\267?\232\231\231\231\231\231\251?\356i\204\345\236F\330?\022#F\214\0301\342?\000\000\000\000\000\000\360?\327\243p=\n\327\303?{\024\256G\341z\244?\030z\241\027z\241\307?\000\000\000\000\000\000\340?\205\353Q\270\036\205\333?\000\000\000\000\000\000\000\000\021u3h\331\361\334?\000\000\000\000\000\000\000\000\303\365(\\\217\302\325?\257\310|i\3420\326?\000\000\000\000\000\000\000\0009\216\3438\216\343\350?\225\024\220\360\223\013\321?s\n^N\301\313\331?\000\000\000\000\000\000\342?\000\000\000\000\000\000\330?w\206\304\274\235!\321?[Ds\326\240x\332?{\024\256G\341z\324?333333\333?\000\000\000\000\000\000\260?\217\302\365(\\\217\322?\000\000\000\000\000\000\000\000\216\336\025\231/M\314?\000\000\000\000\000\000\360?)P\353W\n\324\332?\354Q\270\036\205\353\331?\304\210\021#F\214\330?\000\000\000\000\000\000\000\000\000\000\000\000\000\000\340?UUUUUU\325?\000\000\000\000\000\000\000\000\364\307\034\245\333W\326?\000\000\000\000\000\000\000\000\241\001Kz\371\323\246?\000\000\000\000\000\000\000\000\000\000\000\000\000\000\360?UUUUUU\325?)\\\217\302\365(\334?\000\000\000\000\000\000\360?\000\000\000\000\000\000\000\000\000\000\000\000\000\000\000\000UUUUUU\325?\353\017\364H\t9\325?\034L\221\317\272\301\264?\000\000\000\000\000\000\360?=\n\327\243p=\332?=\n\327\243p=\312?\000\000\000\000\000\000\326?\000\000\000\000\000\000\000\000\270\036\205\353Q\270\326?{\024\256G\341z\324?\354Q\270\036\205\353\261?\375\364\323O?\375\324?\232\231\231\231\231\231\321?\\\217\302\365(\\\327?\000\000\000\000\000\000\340?\222$I\222$I\242?\000\000\000\000\000\000\000\000F\027]t\321E\247?R\270\036\205\353Q\330?q=\n\327\243p\275?\000\000\000\000\000\000\000\000\000\000\000\000\000\000\000\000\222\033\271\221\033\271\321?\236\330\211\235\330\211\255?\000\000\000\000\000\000\000\000\000\000\000\000\000\000\000\000\000\000\000\000\000\000\000\000\245\224RJ)\245\264?\000\000\000\000\000\000\360?\000\000\000\000\000\000\340?\024\256G\341z\024\326?UUUUUU\305?`\243wE\346K\323?\267\304\251\337sK\314?\000\000\000\000\000\000\000\000\231\206\355fy\022\331?\301x+\373\034R\243?=\n\327\243p=\332?F\027]t\321E\307?\000\000\000\000\000\000\360?\310B\026\262\220\205\324?\000\000\000\000\000\000\000\000\000\000\000\000\000\000\340?\000\000\000\000\000\000\260?Cy\r\3455\224\327?\021\021\021\021\021\021\261?d!\013Y\310B\246?\373\373\274M\272\313\330?UUUUUU\315?\000\000\000\000\000\000\000\000\222$I\222$I\262?;\261\023;\261\023\333?\010\037|\360\301\007\277?\232\231\231\231\231\231\311?\025\250\365+\005j\335?\201\371@va1\322?\000\000\000\000\000\000\000\000\204\020B\010!\204\260?\253\252\252\252\252\252\252?\210E\312\300\323\255\351?\000\000\000\000\000\000\000\000Sc\017\263\200|\321?\000\000\000\000\000\000\000\0008\225\t\333 8\325?\000\000\000\000\000\000\000\000q=\n\327\243p\325?\037\205\353Q\270\036\325?\000\000\000\000\000\000\000\000\000\000\000\000\000\000\000\000\000\000\000\000\000\000\000\000\036\036\036\036\036\036\236?\222$I\222$I\262?333333\333?333333\333?\327\243p=\n\327\323?\000\000\000\000\000\000\000\000\000\000\000\000\000\000\000\000r\220y)\021<\322?\270\036\205\353Q\270\356?\272\275\226\034\342*\323?\000\000\000\000\000\000\000\000\373\320X\037\032\353\323?\244p=\n\327\243\340?\000\000\000\000\000\000\340?\020>\370\340\203\017\336?\000\000\000\000\000\000\000\000\221\205,d!\013\321?\000\000\000\000\000\000\360?\021\021\021\021\021\021\261?_\2328\214\325\326\337?\226{\032a\271\247\301?\034L\221\317\272\301\264?\251]\211\332\225\250\335?{\024\256G\341z\244?\354Q\270\036\205\353\355?\352\334^K\016q\325?\253\252\252\252\252\252\272?\030\206a\030\206a\330?*Z8\003B\311\315?\2438\3271\212s\315?\004\225\263[\370\325\310?=\n\327\243p=\332?\000\000\000\000\000\000\360?\000\000\000\000\000\000\360?MYS\326\2245\325?{\024\256G\341z\324?\000\000\000\000\000\000\340?\000\000\000\000\000\000\000\000(\257\241\274\206\362\272?N6\331d\223M\326?H\341z\024\256G\331?\030\030\030\030\030\030\330?\316\312O\210\263\362\243?\236\330\211\235\330\211\335?m\262\311&\233l\322?\341z\024\256G\341\322?\375Y\316\237\345\374\331?\327Zk\255\265\326\332?\2278\365{n\211\323?TI\001\t?\271\320?/,FBi\343\335?ko\254\376@\217\324?\000\000\000\000\000\000\260?\000\000\000\000\000\000\360?\034\307q\034\307q\254?\036\036\036\036\036\036\256?\000\000\000\000\000\000\000\000\000\000\000\000\000\000\000\000\262>4\326\207\306\332?\000\000\000\000\000\000\360?\000\000\000\000\000\000\000\000\341z\024\256G\341\322?ffffff\306?UUUUUU\323?T\231\260\r\202S\331?\000\000\000\000\000\000\000\000\301x+\373\034R\223?\000\000\000\000\000\000\000\000333333\323?H\341z\024\256G\321?t\332@\247\rt\332?\010Rn*\232\'\324?\000\000\000\000\000\000\000\000\000\000\000\000\000\000\360?\000\000\000\000\000\000\000\000\301\321\023\034=\301\321?\362\224 O\t\362\264?\037\205\353Q\270\036\305?\000\000\000\000\000\000\000\000[\204\3745;j\321?/,FBi\343\335?\000\000\000\000\000\000\000\000\034\307q\034\307q\254?\311\020\254\243\315\373\264?\000\000\000\000\000\000\000\000\030\206a\030\206a\270?\000\000\000\000\000\000\360?\000\000\000\000\000\000\360?N6\331d\223M\326?\000\000\000\000\000\000\000\000\000\000\000\000\000\000\000\000`\243wE\346K\303?\000\000\000\000\000\000\000\000\000\000\000\000\000\000\360?\315\314\314\314\314\314\324?UUUUUU\325?\000\000\000\000\000\000\360?\n\327\243p=\n\327?{\024\256G\341z\204?i\361\312\'b6\307?\000\000\000\000\000\000\000\000\000\000\000\000\000\000\360?d!\013Y\310B\266?\000\000\000\000\000\000\000\000z:\267\327\222C\334?\000\000\000\000\000\000\000\000G}g\243\276\263\341?\036\036\036\036\036\036\276?\315\314\314\314\314\314\344?\000\000\000\000\000\000\360?\000\000\000\000\000\000\360?\034\307q\034\307q\274?\000\000\000\000\000\000\000\000\000\000\000\000\000\000\340?\000\000\000\000\000\000\000\000UUUUUU\325?\000\000\000\000\000\000\000\000b\336\316\220\230\267\323?{\024\256G\341z\224?\020\215\365\241\261>\324?\000\000\000\000\000\000\000\000\222$I\222$I\262?\036\036\036\036\036\036\256?\274\"\363\245\211\303\330?\"5\301x+\373\254?\000\000\000\000\000\000\000\000\232\231\231\231\231\231\231?\232\231\231\231\231\231\271?\000\000\000\000\000\000\260?\000\000\000\000\000\000\340?\236\330\211\235\330\211\275?\000\000\000\000\000\000\360?:\213\351,\246\263\330?\000\000\000\000\000\000\000\000\000\000\000\000\000\000\000\000\235W@\343n\235\327?\000\000\000\000\000\000\360?W\020\223+\210\311\225?\000\000\000\000\000\000\000\000UUUUUU\325?\000\000\000\000\000\000\000\000\000\000\000\000\000\000\360?t\321E\027]t\301?\000\000\000\000\000\000\000\000ogH\314\333\031\242?\225\230JL%\246\262?\000\000\000\000\000\000\360?\000\000\000\000\000\000\320?\000\000\000\000\000\000\000\000\\\217\302\365(\\\343?\000\000\000\000\000\000\360?\300Z\001k\005\254u?\000\000\000\000\000\000\000\000\342\341\341\341\341\341\341?d!\013Y\310B\266?9\214\325\326\337\036\330?\343\225O\304l.\315?\000\000\000\000\000\000\360?{\024\256G\341z\324?\000\000\000\000\000\000\000\000\003^o\243?\024\302?\000\000\000\000\000\000\360?\327\243p=\n\327\323?\232\231\231\231\231\231\331?\000\000\000\000\000\000\340?\251T*\225J\245\322?`\243wE\346K\263?\010Rn*\232\'\324?UUUUUU\325?7Ls\027\374U\334?\024;\261\023;\261\303?\000\000\000\000\000\000\000\000\311|i\3420V\333?\000\000\000\000\000\000\000\000(\257\241\274\206\362\252?\000\000\000\000\000\000\340?\000\000\000\000\000\000\000\000\000\000\000\000\000\000\000\000\000\000\000\000\000\000\000\000\000\000\000\000\000\000\360?H\341z\024\256G\331?\030\206a\030\206a\250?\232\231\231\231\231\231\251?\201\204\237\\\210\272\251?\270\036\205\353Q\270\316?\333\266m\333\266m\273?\303\365(\\\217\302\341?\000\000\000\000\000\000\360?H\341z\024\256G\341?\000\000\000\000\000\000\000\000{\024\256G\341z\244?\000\000\000\000\000\000\000\000\036\036\036\036\036\036\256?\030\206a\030\206a\230?\000\000\000\000\000\000\000\000\000\000\000\000\000\000\000\000\000\000\000\000\000\000\360?\024\256G\341z\024\316?\000\000\000\000\000\000\000\000ffffff\336?\000\000\000\000\000\000\360?\000\000\000\000\000\000\000\000\000\000\000\000\000\000\360?\270\036\205\353Q\270\256?\320\272\301\024\371\254\233?"
      }
    }
  }
}
node {
  name: "Const_2"
  op: "Const"
  device: "/device:CPU:0"
  attr {
    key: "_output_shapes"
    value {
      list {
        shape {
          dim {
            size: 537
          }
        }
      }
    }
  }
  attr {
    key: "dtype"
    value {
      type: DT_DOUBLE
    }
  }
  attr {
    key: "value"
    value {
      tensor {
        dtype: DT_DOUBLE
        tensor_shape {
          dim {
            size: 537
          }
        }
        tensor_content: "\000\000\000\000\000\000;@\000\000\000\000\000\000\000\000\000\000\000\000\000\000\000\000\000\000\000\000\000\300_@\000\000\000\000\000\000:@\000\000\000\000\000\300T@\000\000\000\000\000\0003@\000\000\000\000\000\000\020@\000\000\000\000\000\000S@\000\000\000\000\000\000>@\000\000\000\000\000\0001@\000\000\000\000\000\200[@\000\000\000\000\000\000(@\000\000\000\000\000\300U@\000\000\000\000\000\000\000\000\000\000\000\000\000\000H@\000\000\000\000\000@Z@\000\000\000\000\000\000\020@\000\000\000\000\000\0003@\000\000\000\000\000\000\360?\000\000\000\000\000\200R@\000\000\000\000\000@Y@\000\000\000\000\000\340`@\000\000\000\000\000\000\000\000\000\000\000\000\000\000 @\000\000\000\000\000\000\010@\000\000\000\000\000\000W@\000\000\000\000\000\200Z@\000\000\000\000\000\000E@\000\000\000\000\000\000\000\000\000\000\000\000\000@X@\000\000\000\000\000\000\000\000\000\000\000\000\000\000A@\000\000\000\000\000\000\010@\000\000\000\000\000\000.@\000\000\000\000\000\0008@\000\000\000\000\000\300]@\000\000\000\000\000\000\010@\000\000\000\000\000\200\\@\000\000\000\000\000@X@\000\000\000\000\000\300b@\000\000\000\000\000\240a@\000\000\000\000\000\000\000\000\000\000\000\000\000`g@\000\000\000\000\000\000J@\000\000\000\000\000\000h@\000\000\000\000\000\000\000\000\000\000\000\000\000\000\360?\000\000\000\000\000\300X@\000\000\000\000\000@R@\000\000\000\000\000\200\\@\000\000\000\000\000\000(@\000\000\000\000\000\300R@\000\000\000\000\000\000\030@\000\000\000\000\000\000&@\000\000\000\000\000\200S@\000\000\000\000\000\300Y@\000\000\000\000\000\000\000\000\000\000\000\000\000\000\"@\000\000\000\000\000\000\030@\000\000\000\000\000\000\000@\000\000\000\000\000\000\360?\000\000\000\000\000\000,@\000\000\000\000\000\000\000\000\000\000\000\000\000\0005@\000\000\000\000\000\000\000\000\000\000\000\000\000\300Y@\000\000\000\000\000@Z@\000\000\000\000\000\000U@\000\000\000\000\000\200K@\000\000\000\000\000\000`@\000\000\000\000\000\000\000@\000\000\000\000\000\200\\@\000\000\000\000\000\340h@\000\000\000\000\000\000\000\000\000\000\000\000\000\0007@\000\000\000\000\000\000\000\000\000\000\000\000\000\200T@\000\000\000\000\000\000X@\000\000\000\000\000\200a@\000\000\000\000\000\000\010@\000\000\000\000\000\000\000\000\000\000\000\000\000\000Z@\000\000\000\000\000\000.@\000\000\000\000\000\000 @\000\000\000\000\000\000\000\000\000\000\000\000\000\200W@\000\000\000\000\000\300T@\000\000\000\000\000\200S@\000\000\000\000\000\000\020@\000\000\000\000\000\0000@\000\000\000\000\000@Y@\000\000\000\000\000\000\360?\000\000\000\000\000\000.@\000\000\000\000\000\000\000\000\000\000\000\000\000@S@\000\000\000\000\000\000<@\000\000\000\000\000\000\360?\000\000\000\000\000\000G@\000\000\000\000\000\0003@\000\000\000\000\000\0009@\000\000\000\000\000\000\000\000\000\000\000\000\000\200A@\000\000\000\000\000\000\360?\000\000\000\000\000@V@\000\000\000\000\000@U@\000\000\000\000\000\000\360?\000\000\000\000\000\300Q@\000\000\000\000\000\200@@\000\000\000\000\000\300f@\000\000\000\000\000\0004@\000\000\000\000\000\200T@\000\000\000\000\000\000\000\000\000\000\000\000\000@X@\000\000\000\000\000\240e@\000\000\000\000\000\200E@\000\000\000\000\000\300U@\000\000\000\000\000\000\000\000\000\000\000\000\000\000\360?\000\000\000\000\000\000\360?\000\000\000\000\000\0000@\000\000\000\000\000@_@\000\000\000\000\000\000\000\000\000\000\000\000\000\000\360?\000\000\000\000\000\300S@\000\000\000\000\000\000\000\000\000\000\000\000\000\200N@\000\000\000\000\000\300Z@\000\000\000\000\000\300U@\000\000\000\000\000\000\000\000\000\000\000\000\000\000*@\000\000\000\000\000\000\000\000\000\000\000\000\000\000c@\000\000\000\000\000\000I@\000\000\000\000\000\000\000\000\000\000\000\000\000\240`@\000\000\000\000\000\000\000\000\000\000\000\000\000\000.@\000\000\000\000\000\000\360?\000\000\000\000\000\000\000\000\000\000\000\000\000\000\024@\000\000\000\000\000\200S@\000\000\000\000\000\000Y@\000\000\000\000\000 b@\000\000\000\000\000\000E@\000\000\000\000\000\240f@\000\000\000\000\000@Q@\000\000\000\000\000\000\000\000\000\000\000\000\000\000\000\000\000\000\000\000\000\240b@\000\000\000\000\000\200Q@\000\000\000\000\000\000\000@\000\000\000\000\000\300\\@\000\000\000\000\000 c@\000\000\000\000\000\200E@\000\000\000\000\000\000\030@\000\000\000\000\000\000*@\000\000\000\000\000@R@\000\000\000\000\000\000\360?\000\000\000\000\000\000I@\000\000\000\000\000\200f@\000\000\000\000\000\000^@\000\000\000\000\000\000\360?\000\000\000\000\000\000\000\000\000\000\000\000\000\200D@\000\000\000\000\000\000\030@\000\000\000\000\000\340a@\000\000\000\000\000\200Z@\000\000\000\000\000\200C@\000\000\000\000\000\000?@\000\000\000\000\000\200W@\000\000\000\000\000\300\\@\000\000\000\000\000\000N@\000\000\000\000\000\000\000\000\000\000\000\000\000\000A@\000\000\000\000\000\200P@\000\000\000\000\000\000\360?\000\000\000\000\000\000\000\000\000\000\000\000\000\000\360?\000\000\000\000\000\240f@\000\000\000\000\000\0004@\000\000\000\000\000\000\360?\000\000\000\000\000\0007@\000\000\000\000\000\000\030@\000\000\000\000\000\000\000\000\000\000\000\000\000\000\000\000\000\000\000\000\000\000\000\000\000\000\000\000\000\0002@\000\000\000\000\000\000\000\000\000\000\000\000\000\300S@\000\000\000\000\000\000.@\000\000\000\000\000\0009@\000\000\000\000\000\000\000\000\000\000\000\000\000\000\360?\000\000\000\000\000\000\000\000\000\000\000\000\000\000W@\000\000\000\000\000\000\000@\000\000\000\000\000\000\000\000\000\000\000\000\000\000\000\000\000\000\000\000\000@[@\000\000\000\000\000\340c@\000\000\000\000\000\0001@\000\000\000\000\000\000<@\000\000\000\000\000\200V@\000\000\000\000\000\000?@\000\000\000\000\000\000\000\000\000\000\000\000\000\000\000\000\000\000\000\000\000\300`@\000\000\000\000\000\000\000\000\000\000\000\000\000\000\000\000\000\000\000\000\000\200E@\000\000\000\000\000\000\000\000\000\000\000\000\000\000\360?\000\000\000\000\000\000\024@\000\000\000\000\000\000\000\000\000\000\000\000\000\0004@\000\000\000\000\000\0003@\000\000\000\000\000\200E@\000\000\000\000\000\000K@\000\000\000\000\000\000\000\000\000\000\000\000\000\200c@\000\000\000\000\000@g@\000\000\000\000\000 b@\000\000\000\000\000\000\360?\000\000\000\000\000@X@\000\000\000\000\000\000\360?\000\000\000\000\000@Z@\000\000\000\000\000\000\360?\000\000\000\000\000\000]@\000\000\000\000\000\300X@\000\000\000\000\000\000\360?\000\000\000\000\000\000\000@\000\000\000\000\000\300`@\000\000\000\000\000\200U@\000\000\000\000\000\000\030@\000\000\000\000\000\200R@\000\000\000\000\000@Z@\000\000\000\000\000\200S@\000\000\000\000\000@`@\000\000\000\000\000\000\\@\000\000\000\000\000\000.@\000\000\000\000\000@]@\000\000\000\000\000\000\000\000\000\000\000\000\000\300[@\000\000\000\000\000\000\000\000\000\000\000\000\000@Y@\000\000\000\000\000\300[@\000\000\000\000\000\000>@\000\000\000\000\000\000\000\000\000\000\000\000\000\000\000\000\000\000\000\000\000\200R@\000\000\000\000\000\0004@\000\000\000\000\000\000R@\000\000\000\000\000\000\360?\000\000\000\000\000\300b@\000\000\000\000\000\000\000\000\000\000\000\000\000\000\000\000\000\000\000\000\000\000\000@\000\000\000\000\000\300X@\000\000\000\000\000\000\000\000\000\000\000\000\000\000\000\000\000\000\000\000\000\000\000\000\000\000\000\000\000\000\000@\000\000\000\000\000\300S@\000\000\000\000\000\000A@\000\000\000\000\000\000\000\000\000\000\000\000\000@V@\000\000\000\000\000\000\\@\000\000\000\000\000\0000@\000\000\000\000\000\000\360?\000\000\000\000\000\000X@\000\000\000\000\000\000Y@\000\000\000\000\000\240f@\000\000\000\000\000\000[@\000\000\000\000\000\200Z@\000\000\000\000\000\000Z@\000\000\000\000\000\000\000\000\000\000\000\000\000\000;@\000\000\000\000\000\0007@\000\000\000\000\000\0005@\000\000\000\000\000\200S@\000\000\000\000\000\000c@\000\000\000\000\000\000\360?\000\000\000\000\000\000\000\000\000\000\000\000\000\000[@\000\000\000\000\000\200H@\000\000\000\000\000\000\020@\000\000\000\000\000\000\000\000\000\000\000\000\000\000\000\000\000\000\000\000\000@[@\000\000\000\000\000\000\000\000\000\000\000\000\000\000\360?\000\000\000\000\000\300U@\000\000\000\000\000\000>@\000\000\000\000\000\200_@\000\000\000\000\000\000_@\000\000\000\000\000\000\000\000\000\000\000\000\000\200W@\000\000\000\000\000\200I@\000\000\000\000\000\200[@\000\000\000\000\000\0002@\000\000\000\000\000\000\000\000\000\000\000\000\000@Y@\000\000\000\000\000\000\000\000\000\000\000\000\000\000J@\000\000\000\000\000\200F@\000\000\000\000\000\200F@\000\000\000\000\000\000,@\000\000\000\000\000\0006@\000\000\000\000\000\000V@\000\000\000\000\000\200_@\000\000\000\000\000\000\000\000\000\000\000\000\000\000*@\000\000\000\000\000\000@@\000\000\000\000\000\000=@\000\000\000\000\000@b@\000\000\000\000\000\300R@\000\000\000\000\000\000Z@\000\000\000\000\000\000\000\000\000\000\000\000\000\000=@\000\000\000\000\000\200V@\000\000\000\000\000\000@@\000\000\000\000\000\000\360?\000\000\000\000\000\300W@\000\000\000\000\000\000O@\000\000\000\000\000\300T@\000\000\000\000\000\000\000\000\000\000\000\000\000@\\@\000\000\000\000\000``@\000\000\000\000\000\000\360?\000\000\000\000\000\000\000\000\000\000\000\000\000\000\000\000\000\000\000\000\000\200P@\000\000\000\000\000\000*@\000\000\000\000\000\0007@\000\000\000\000\000\000[@\000\000\000\000\000\000Z@\000\000\000\000\000\000\000\000\000\000\000\000\000\000\000\000\000\000\000\000\000\000[@\000\000\000\000\000\000\020@\000\000\000\000\000\200Y@\000\000\000\000\000\200@@\000\000\000\000\000@]@\000\000\000\000\000\200P@\000\000\000\000\000\000Q@\000\000\000\000\000\300W@\000\000\000\000\000\000\000\000\000\000\000\000\000\200Y@\000\000\000\000\000\000\000\000\000\000\000\000\000\000<@\000\000\000\000\000\200U@\000\000\000\000\000\000I@\000\000\000\000\000\000Q@\000\000\000\000\000\0006@\000\000\000\000\000\0008@\000\000\000\000\000\000\020@\000\000\000\000\000\300Y@\000\000\000\000\000\200E@\000\000\000\000\000\000D@\000\000\000\000\000\000W@\000\000\000\000\000\000U@\000\000\000\000\000\000K@\000\000\000\000\000@V@\000\000\000\000\000\000\000\000\000\000\000\000\000\000\000\000\000\000\000\000\000\000V@\000\000\000\000\000\0001@\000\000\000\000\000\000\360?\000\000\000\000\000\000\000@\000\000\000\000\000\0001@\000\000\000\000\000@Y@\000\000\000\000\000\200W@\000\000\000\000\000\200C@\000\000\000\000\000\200R@\000\000\000\000\000\000:@\000\000\000\000\000\200`@\000\000\000\000\000\200_@\000\000\000\000\000@R@\000\000\000\000\000@S@\000\000\000\000\000\200_@\000\000\000\000\000\000^@\000\000\000\000\000\200N@\000\000\000\000\000\300Y@\000\000\000\000\000@V@\000\000\000\000\000\000\000\000\000\000\000\000\000\200I@\000\000\000\000\000\0000@\000\000\000\000\000\000\000\000\000\000\000\000\000\000$@\000\000\000\000\000\000L@\000\000\000\000\000\000\000\000\000\000\000\000\000\000\360?\000\000\000\000\000\000Z@\000\000\000\000\000\240b@\000\000\000\000\000\200Y@\000\000\000\000\000\300P@\000\000\000\000\000\000\000\000\000\000\000\000\000\000J@\000\000\000\000\000\000\000\000\000\000\000\000\000\000,@\000\000\000\000\000\300a@\000\000\000\000\000\000>@\000\000\000\000\000\200S@\000\000\000\000\000\000\360?\000\000\000\000\000\000\000\000\000\000\000\000\000\000\360?\000\000\000\000\000\200U@\000\000\000\000\000@Y@\000\000\000\000\000\300d@\000\000\000\000\000\000\360?\000\000\000\000\000\300T@\000\000\000\000\000@Q@\000\000\000\000\000\000\024@\000\000\000\000\000\0001@\000\000\000\000\000\000L@\000\000\000\000\000\000\360?\000\000\000\000\000\0003@\000\000\000\000\000\000\000\000\000\000\000\000\000\000\000\000\000\000\000\000\000\000@@\000\000\000\000\000\000\360?\000\000\000\000\000\000\000\000\000\000\000\000\000\340c@\000\000\000\000\000\000\000\000\000\000\000\000\000\000\000\000\000\000\000\000\000 `@\000\000\000\000\000\000\030@\000\000\000\000\000\000\000\000\000\000\000\000\000\200^@\000\000\000\000\000@h@\000\000\000\000\000\300^@\000\000\000\000\000\000\360?\000\000\000\000\000\000\000\000\000\000\000\000\000\0005@\000\000\000\000\000\000\000\000\000\000\000\000\000@V@\000\000\000\000\000\000\010@\000\000\000\000\000\0002@\000\000\000\000\000\000.@\000\000\000\000\000\200I@\000\000\000\000\000\000\000\000\000\000\000\000\000\000\000\000\000\000\000\000\000\000 @\000\000\000\000\000\000\000\000\000\000\000\000\000\000\000\000\000\000\000\000\000\000\000\000\000\000\000\000\000\000\360?\000\000\000\000\000\000\360?\000\000\000\000\000\300_@\000\000\000\000\000\200h@\000\000\000\000\000@U@\000\000\000\000\000\000\000\000\000\000\000\000\000\000:@\000\000\000\000\000\0000@\000\000\000\000\000\300X@\000\000\000\000\000\000I@\000\000\000\000\000\000=@\000\000\000\000\000\000h@\000\000\000\000\000\000\"@\000\000\000\000\000\000.@\000\000\000\000\000\000\360?\000\000\000\000\000\0007@\000\000\000\000\000\000\000\000\000\000\000\000\000\000Q@\000\000\000\000\000\000\360?\000\000\000\000\000\000B@\000\000\000\000\000\000W@\000\000\000\000\000\000\000\000\000\000\000\000\000\000G@\000\000\000\000\000\000\"@\000\000\000\000\000\000\000@\000\000\000\000\000\000\034@\000\000\000\000\000\000\000\000\000\000\000\000\000\0003@\000\000\000\000\000\000 @\000\000\000\000\000\340g@\000\000\000\000\000\200a@\000\000\000\000\000\000\000\000\000\000\000\000\000\000\010@\000\000\000\000\000\000\360?\000\000\000\000\000\000J@\000\000\000\000\000\000\000\000\000\000\000\000\000\200g@\000\000\000\000\000\000\360?\000\000\000\000\000\000(@\000\000\000\000\000\000E@\000\000\000\000\000@W@\000\000\000\000\000\300[@\000\000\000\000\000\000\000\000\000\000\000\000\000\300]@\000\000\000\000\000\0002@\000\000\000\000\000\340b@\000\000\000\000\000\000\000\000\000\000\000\000\000``@\000\000\000\000\000\300V@\000\000\000\000\000\000\360?\000\000\000\000\000\000R@\000\000\000\000\000\300f@\000\000\000\000\000\000Z@\000\000\000\000\000\000\360?\000\000\000\000\000@Q@\000\000\000\000\000\000&@\000\000\000\000\000\000\000@\000\000\000\000\000\200V@\000\000\000\000\000\000*@\000\000\000\000\000\0002@\000\000\000\000\000\000\360?\000\000\000\000\000\0000@\000\000\000\000\000\000\000\000\000\000\000\000\000\000\010@\000\000\000\000\000\000\000\000\000\000\000\000\000\000T@\000\000\000\000\000\0004@\000\000\000\000\000\0003@\000\000\000\000\000\240g@\000\000\000\000\000\300V@\000\000\000\000\000\200H@\000\000\000\000\000\300U@\000\000\000\000\000\000\000\000\000\000\000\000\000\000R@\000\000\000\000\000\000\360?\000\000\000\000\000\0008@\000\000\000\000\000\000\000\000\000\000\000\000\000\000T@\000\000\000\000\000\000D@\000\000\000\000\000\0002@\000\000\000\000\000\000\000\000\000\000\000\000\000\000\000\000\000\000\000\000\000`a@\000\000\000\000\000\000\020@\000\000\000\000\000\000X@\000\000\000\000\000\000\000\000\000\000\000\000\000\000\"@\000\000\000\000\000\000\000\000\000\000\000\000\000`f@\000\000\000\000\000\000B@"
      }
    }
  }
}
node {
  name: "Const_3"
  op: "Const"
  device: "/device:CPU:0"
  attr {
    key: "_output_shapes"
    value {
      list {
        shape {
          dim {
            size: 537
          }
        }
      }
    }
  }
  attr {
    key: "dtype"
    value {
      type: DT_DOUBLE
    }
  }
  attr {
    key: "value"
    value {
      tensor {
        dtype: DT_DOUBLE
        tensor_shape {
          dim {
            size: 537
          }
        }
        tensor_content: "\006}A_\320\027\344?\000\000\000\000\000\000\000\000\000\000\000\000\000\000\000\000R\270\036\205\353Q\344?\274\273\273\273\273\273\353?\217\302\365(\\\217\332?=\317\363<\317\363\354?UUUUUU\345?R\270\036\205\353Q\330?\000\000\000\000\000\000\356?\216\3438\216\3438\356?\007i\220\006i\220\346?\236\330\211\235\330\211\355?\327\243p=\n\327\333?\000\000\000\000\000\000\000\000\032\254\320\031\254\320\331?\261\023;\261\023;\341?\222$I\222$I\322?ffffff\356?UUUUUU\325?\207\362\032\312k(\357?)\\\217\302\365(\340?Y\037\032\353Cc\355?\000\000\000\000\000\000\000\000\222$I\222$I\342?\333\266m\333\266m\313?\224\013Q7\203\226\335?w\206\304\274\235!\341?\320\027\364\005}A\357?\000\000\000\000\000\000\000\000`\375\325_\375\325\337?\000\000\000\000\000\000\000\000\216\3438\216\3438\356?\000\000\000\000\000\000\360?<<<<<<\354?\000\000\000\000\000\000\340?\216\3438\216\3438\356?\000\000\000\000\000\000\360?\3234M\3234M\343?`\375\325_\375\325\337?\000\000\000\000\000\000\350?8\340\361\207\003\036\357?\000\000\000\000\000\000\000\000\354Q\270\036\205\353\355?\026\323YLg1\355?\270\036\205\353Q\270\356?\000\000\000\000\000\000\000\000\000\000\000\000\000\000\340?\257%\207\270\312\024\340?Cb\336\316\220\230\327?&C\260\2166\357\343?\236\330\211\235\330\211\355?Cy\r\3455\224\357?\000\000\000\000\000\000\350?\000\000\000\000\000\000\360?\366(\\\217\302\365\330?{\024\256G\341z\340?\000\000\000\000\000\000\000\000T:\262g *\275?UUUUUU\325?F\027]t\321E\307?\000\000\000\000\000\000\360?\354Q\270\036\205\353\341?\000\000\000\000\000\000\000\000\323\233\336\364\2467\355?\000\000\000\000\000\000\000\000{\024\256G\341z\340?\315\314\314\314\314\314\340?\341z\024\256G\341\332?\352Moz\323\233\336?\030\030\030\030\030\030\350?\000\000\000\000\000\000\360?\234A\313\216\347T\342?\327\243p=\n\327\357?\000\000\000\000\000\000\000\000q=\n\327\243p\355?\000\000\000\000\000\000\000\000\000\000\000\000\000\000\360? \370\201\037\370\201\337?ffffff\346?\000\000\000\000\000\000\360?\000\000\000\000\000\000\000\000UUUUUU\341?\000\000\000\000\000\000\360?\034\307q\034\307q\354?\000\000\000\000\000\000\000\000\254\017\215\365\241\261\336?\217<\362\310#\217\354?\366(\\\217\302\365\330?UUUUUU\345?\036\036\036\036\036\036\356?m\274\243\232\365g\340?\000\000\000\000\000\000\340?\000\000\000\000\000\000\360?\000\000\000\000\000\000\000\0009\216\3438\216\343\330?\'\233l\262\311&\353?\000\000\000\000\000\000\340?q=\n\327\243p\355?\000\000\000\000\000\000\360?%I\222$I\222\354?\000\000\000\000\000\000\000\000ffffff\306?\000\000\000\000\000\000\340?\"fs\351P\203\335?\377\014~\023=\235\333?\000\000\000\000\000\000\360?\270\036\205\353Q\270\326?ffffff\332?\037\205\353Q\270\036\355?\240rv\013\277\032\303?UUUUUU\333?\000\000\000\000\000\000\000\000`\375\325_\375\325\337?\256G\341z\024\256\353?F\027]t\321E\357?\327\243p=\n\327\333?\000\000\000\000\000\000\000\000\000\000\000\000\000\000\360?\000\000\000\000\000\000\340?(\257\241\274\206\362\352?R\315\3723\370M\344?\000\000\000\000\000\000\000\000\000\000\000\000\000\000\360?H\341z\024\256G\331?\000\000\000\000\000\000\000\000\205\353Q\270\036\205\323?\352Moz\323\233\342?=\211L\303v\263\334?\000\000\000\000\000\000\000\000\000\000\000\000\000\000\360?\000\000\000\000\000\000\000\000R\270\036\205\353Q\350?\256\354sHM0\356?\000\000\000\000\000\000\000\000H\341z\024\256G\345?\000\000\000\000\000\000\000\000\000\000\000\000\000\000\356?UUUUUU\325?\000\000\000\000\000\000\000\000\000\000\000\000\000\000\344?\317\355\265\344\020W\331?\000\000\000\000\000\000\340?\010z\244\204\234\n\350?\000\000\000\000\000\000\354?\366(\\\217\302\365\354?\250\021\226{\032a\331?\000\000\000\000\000\000\000\000\000\000\000\000\000\000\000\000\230&\016c\265\365\347?K\201Z\277R\240\326?UUUUUU\345?ffffff\342?tHM0\336\312\356??\351\223>\351\223\356?UUUUUU\345?n\333\266m\333\266\355?\265\365\267\0076z\327?\000\000\000\000\000\000\340?\023\332Kh/\241\355?\315\314\314\314\314\314\354?e\223M6\331d\343?\000\000\000\000\000\000\360?\000\000\000\000\000\000\000\000}\322\'}\322\'\355?UUUUUU\345?\326\207\306\372\320X\347?\366(\\\217\302\365\340?\252y\220\273~\266\330?------\355?\024\256G\341z\024\336?ffffff\342?\236\330\211\235\330\211\355?\000\000\000\000\000\000\000\000}\326\r\246\310g\355?\037\205\353Q\270\036\325?\000\000\000\000\000\000\360?\000\000\000\000\000\000\000\000\000\000\000\000\000\000\360?\262\332\372\333\003\033\355?\236\347y\236\347y\356?\000\000\000\000\000\000\360?N6\331d\223M\346?\333\266m\333\266m\353?\000\000\000\000\000\000\000\000\000\000\000\000\000\000\000\000\000\000\000\000\000\000\000\000\n\327\243p=\n\267?\000\000\000\000\000\000\000\000H\341z\024\256G\331?\000\000\000\000\000\000\356?\023\332Kh/\241\355?\000\000\000\000\000\000\000\000\000\000\000\000\000\000\340?\000\000\000\000\000\000\000\000\341\326\336X\375\201\336?UUUUUU\305?\000\000\000\000\000\000\000\000\000\000\000\000\000\000\000\000xE\346K\023\207\341?q=\n\327\243p\351?\216\3438\216\3438\356?\336\335\335\335\335\335\355?\027]t\321E\027\335?\257\241\274\206\362\032\312?\000\000\000\000\000\000\000\000\000\000\000\000\000\000\000\000q=\n\327\243p\345?\000\000\000\000\000\000\000\000\000\000\000\000\000\000\000\000?\351\223>\351\223\356?\000\000\000\000\000\000\000\000\000\000\000\000\000\000\360?\000\000\000\000\000\000\360?\000\000\000\000\000\000\000\000\027]t\321E\027\355?ffffff\356?m\035\372\315\326\241\337?\275z\365\352\325\253\327?\000\000\000\000\000\000\000\000\366(\\\217\302\365\350?\303\365(\\\217\302\355?\270|\313\267|\313\347?\000\000\000\000\000\000\340?\n\327\243p=\n\337?\000\000\000\000\000\000\360?\364\256\310|i\342\340?\000\000\000\000\000\000\360?\217\302\365(\\\217\342?_\2328\214\325\326\337?\000\000\000\000\000\000\360?\034\307q\034\307q\314?,2_\2328\214\345?\005/\247\340\345\024\334?\000\000\000\000\000\000\330?\256G\341z\024\256\327?\370\340\203\017>\370\340?\256\002\202!\331\"\332?\315\314\314\314\314\314\344?\354Q\270\036\205\353\341?\000\000\000\000\000\000\356?\270\036\205\353Q\270\342?\000\000\000\000\000\000\000\000\271\020u3h\331\341?\000\000\000\000\000\000\000\000\375J\201Z\277R\340?\303\365(\\\217\302\341?\322\244I\223&M\332?\000\000\000\000\000\000\000\000\000\000\000\000\000\000\000\000\230\204I\230\204I\330?\000\000\000\000\000\000\360?\271\026\tj*D\333?\000\000\000\000\000\000\360?\346O[h\300\222\356?\000\000\000\000\000\000\000\000\000\000\000\000\000\000\000\000UUUUUU\345?\256G\341z\024\256\337?\000\000\000\000\000\000\000\000\000\000\000\000\000\000\000\000\000\000\000\000\000\000\000\000UUUUUU\345?\246C\rvg2\332?}\326\r\246\310g\355?\000\000\000\000\000\000\000\000{\024\256G\341z\334?\354Q\270\036\205\353\341?\000\000\000\000\000\000\340?\000\000\000\000\000\000\340?\270\036\205\353Q\270\336?\000\000\000\000\000\000\340?\366(\\\217\302\365\354?\225RJ)\245\224\342?\366(\\\217\302\365\340?\244p=\n\327\243\340?\000\000\000\000\000\000\000\000\267m\333\266m\333\356?\000\000\000\000\000\000\360?\214.\272\350\242\213\356?\366(\\\217\302\365\330?R\270\036\205\353Q\350?\000\000\000\000\000\000\360?\000\000\000\000\000\000\000\000\222\033\271\221\033\271\341?vb\'vb\'\356?\000\000\000\000\000\000\360?\000\000\000\000\000\000\000\000\000\000\000\000\000\000\000\000!\204\020B\010!\354?\000\000\000\000\000\000\000\000\000\000\000\000\000\000\340?\327\243p=\n\327\333?\253\252\252\252\252\252\352?%\005$\374\344B\344?&N\375\236[\342\344?\000\000\000\000\000\000\000\000_\\\375\240\243\002\337?tHM0\336\312\356?\232\231\231\231\231\231\341?/\272\350\242\213.\352?\000\000\000\000\000\000\000\000Y\310B\026\262\220\341?\000\000\000\000\000\000\000\000K\324\256D\355J\324?\000\000\000\000\000\000\356?(\257\241\274\206\362\342?\336\335\335\335\335\335\355?\352Moz\323\233\356?o\223\3562\246|\335?\000\000\000\000\000\000\345?\000\000\000\000\000\000\000\000n\333\266m\333\266\355?\032\244A\032\244A\332?\037|\360\301\007\037\354?\\\217\302\365(\\\347?>\370\340\203\017>\330?\212\236\316\355\265\344\340?\000\000\000\000\000\000\000\000\357\275\367\336{\357\355?\000\000\000\000\000\000\356?\340\351\326\374\260H\311?\000\000\000\000\000\000\340?\3657\350v\255\234\340?\337\367}\337\367}\357?h\334\255\363\nh\334?\000\000\000\000\000\000\000\000\024\256G\341z\024\342?\366(\\\217\302\365\344?UUUUUU\325?\000\000\000\000\000\000\000\000\000\000\000\000\000\000\000\000\017\017\017\017\017\017\357?n\333\266m\333\266\355?ffffff\342?H\341z\024\256G\341?\244p=\n\327\243\340?\000\000\000\000\000\000\000\000\000\000\000\000\000\000\000\000\020\267\200\302\250N\343?{\024\256G\341z\224?\314\007\262\013\213\221\340?\000\000\000\000\000\000\360?\307\372\320X\037\032\343?\037\205\353Q\270\036\325?\303\365(\\\217\302\325?\n\324\372\225\002\265\336?\000\000\000\000\000\000\000\000\234\336\364\2467\275\341?\000\000\000\000\000\000\000\000\336\335\335\335\335\335\355?\nH\370\311\205\250\333?\032a\271\247\021\226\353?}\326\r\246\310g\355?,Q\273\022\265+\341?\270\036\205\353Q\270\356?{\024\256G\341z\224?+S\300| \273\340?\253\252\252\252\252\252\354?\236\347y\236\347y\336?\271S\264p\006\204\342?\016\232|\331\240\311\347?\277\032\023\351\201\312\351?{\024\256G\341z\334?\000\000\000\000\000\000\000\000\000\000\000\000\000\000\000\000\030\364\005}A_\340?\303\365(\\\217\302\345?\000\000\000\000\000\000\340?\000\000\000\000\000\000\360?\033\312k(\257\241\354?\375J\201Z\277R\340?\024\256G\341z\024\336?]]]]]]\335?S\003{\307\324\300\356?\232\231\231\231\231\231\331?UUUUUU\345?)\\\217\302\365(\344?Q\334\n\305\255P\334?\177\372\351\247\237~\332?\211S\277\347\2268\345?`\243wE\346K\343?5\353\317\3407\321\323?\317d\264x\345\023\341?\253\252\252\252\252\252\355?\000\000\000\000\000\000\000\000\216\3438\216\3438\356?\036\036\036\036\036\036\356?\000\000\000\000\000\000\000\000\000\000\000\000\000\000\360?\222$I\222$I\342?\000\000\000\000\000\000\000\000\000\000\000\000\000\000\360?\244p=\n\327\243\340?\327\243p=\n\327\347?\000\000\000\000\000\000\341?\356\326y\0054\356\326?\000\000\000\000\000\000\000\000:\244&\030oe\357?\000\000\000\000\000\000\000\000ffffff\346?\270\036\205\353Q\270\346?\232\231\231\231\231\231\331?\240\263\035\037\202\224\333?\000\000\000\000\000\000\340?\000\000\000\000\000\000\000\000\000\000\000\000\000\000\360?\301\321\023\034=\301\341?b\355\033\326\276a\355?\217\302\365(\\\217\352?\000\000\000\000\000\000\360?\204\3745;j\021\342?#\241\264\361\216j\326?\000\000\000\000\000\000\360?\216\3438\216\3438\356?\347}\212K\206`\355?\000\000\000\000\000\000\360?=\317\363<\317\363\354?\000\000\000\000\000\000\000\000\000\000\000\000\000\000\000\000\010\037|\360\301\007\337?\000\000\000\000\000\000\340?\000\000\000\000\000\000\000\000\340\036\330\350]\221\351?\000\000\000\000\000\000\000\000\000\000\000\000\000\000\000\000\244p=\n\327\243\344?UUUUUU\345?\000\000\000\000\000\000\000\000\205\353Q\270\036\205\343?\n\327\243p=\n\357?L\207\032\354\316d\344?\000\000\000\000\000\000\360?\000\000\000\000\000\000\000\000\323\233\336\364\2467\355?\000\000\000\000\000\000\000\000\366g\360\233\350\351\334?\000\000\000\000\000\000\360?br\0051\271\202\330?<<<<<<\354?R\270\036\205\353Q\320?\000\000\000\000\000\000\000\000\000\000\000\000\000\000\000\000\034\307q\034\307q\354?\000\000\000\000\000\000\000\000\000\000\000\000\000\000\000\000\000\000\000\000\000\000\000\000UUUUUU\325?\000\000\000\000\000\000\360?\334\031\022\363v\206\344?\\\217\302\365(\\\357?\360r\n^N\301\333?\000\000\000\000\000\000\000\000n\333\266m\333\266\355?\036\036\036\036\036\036\356?_\2328\214\325\326\337?\256\354sHM0\356?\000\000\000\000\000\000\360?\270\036\205\353Q\270\356?\315\314\314\314\314\314\354?\000\000\000\000\000\000\356?\000\000\000\000\000\000\340?\354\304N\354\304N\354?\000\000\000\000\000\000\000\000g1\235\305t\026\343?\000\000\000\000\000\000\360?\000\000\000\000\000\000\360?}\037\253\331\223|\337?\000\000\000\000\000\000\000\000}g\243\276\263Q\357?\000\000\000\000\000\000\360?UUUUUU\345?\000\000\000\000\000\000\360?\000\000\000\000\000\000\000\000\243\213.\272\350\242\353?\000\000\000\000\000\000\360?\211y;Cb\336\356?\355\254vV;\253\355?\000\000\000\000\000\000\000\000\000\000\000\000\000\000\350?\000\000\000\000\000\000\360?\244p=\n\327\243\320?\000\000\000\000\000\000\000\000J\375)\365\247\324\357?\000\000\000\000\000\000\360?\227\226\226\226\226\226\326?\323\233\336\364\2467\355?\326\326\337\036\330\350\335?\316\245C\rvg\342?\000\000\000\000\000\000\000\000\n\327\243p=\n\343?\000\000\000\000\000\000\360?\302\232%\306\247L\353?\000\000\000\000\000\000\000\000\366(\\\217\302\365\344?\037\205\353Q\270\036\335?\000\000\000\000\000\000\340?\211D\"\221H$\342?R@\302O.D\355?\025\315\023j\001c\342?UUUUUU\325?\321\007T\307\336\332\340?;\261\023;\261\023\353?\000\000\000\000\000\000\360?\021u3h\331\361\334?\000\000\000\000\000\000\360?\r\3455\224\327P\356?\000\000\000\000\000\000\340?\000\000\000\000\000\000\360?\000\000\000\000\000\000\000\000\000\000\000\000\000\000\360?\000\000\000\000\000\000\000\000\232\231\231\231\231\231\331?\236\347y\236\347y\356?ffffff\356?\270\0076zWd\356?\037\205\353Q\270\036\335?\000\000\000\000\000\000\354?\327\243p=\n\327\333?\000\000\000\000\000\000\000\000\n\327\243p=\n\327?\000\000\000\000\000\000\360?\270\036\205\353Q\270\356?\000\000\000\000\000\000\000\000\036\036\036\036\036\036\356?\236\347y\236\347y\356?\000\000\000\000\000\000\360?\000\000\000\000\000\000\000\000\000\000\000\000\000\000\000\000=\n\327\243p=\346?\000\000\000\000\000\000\360?\270\036\205\353Q\270\336?\000\000\000\000\000\000\000\000\000\000\000\000\000\000\360?\000\000\000\000\000\000\000\000\244p=\n\327\243\354?*\362Y7\230\"\357?"
      }
    }
  }
}
node {
  name: "Const_4"
  op: "Const"
  device: "/device:CPU:0"
  attr {
    key: "_output_shapes"
    value {
      list {
        shape {
          dim {
            size: 537
          }
        }
      }
    }
  }
  attr {
    key: "dtype"
    value {
      type: DT_DOUBLE
    }
  }
  attr {
    key: "value"
    value {
      tensor {
        dtype: DT_DOUBLE
        tensor_shape {
          dim {
            size: 537
          }
        }
        tensor_content: "\000\000\000\000\000\000\024@\000\000\000\000\000\000\360?\000\000\000\000\000\000\000\000\000\000\000\000\000\000;@\000\000\000\000\000\000\000\000\000\000\000\000\000\000@@\000\000\000\000\000\000\000\000\000\000\000\000\000\000\000\000\000\000\000\000\000\0007@\000\000\000\000\000\000\000\000\000\000\000\000\000\000\000\000\000\000\000\000\000\000\010@\000\000\000\000\000\000\000\000\000\000\000\000\000\000&@\000\000\000\000\000\000\000\000\000\000\000\000\000\000&@\000\000\000\000\000\200F@\000\000\000\000\000\000\000\000\000\000\000\000\000\000\000\000\000\000\000\000\000\000\000\000\000\000\000\000\000\000\000\000\000\000\000\000\000\200F@\000\000\000\000\000\000\000@\000\000\000\000\000\000\360?\000\000\000\000\000\000\360?\000\000\000\000\000\000\010@\000\000\000\000\000\000@@\000\000\000\000\000\200B@\000\000\000\000\000\000\000\000\000\000\000\000\000\000\000\000\000\000\000\000\000\000A@\000\000\000\000\000\000\000@\000\000\000\000\000\000\000\000\000\000\000\000\000\000\000\000\000\000\000\000\000\000\000\000\000\000\000\000\000\000\000@\000\000\000\000\000\000\010@\000\000\000\000\000\000\000\000\000\000\000\000\000\0002@\000\000\000\000\000\0001@\000\000\000\000\000\000\"@\000\000\000\000\000\000\000\000\000\000\000\000\000\000\000\000\000\000\000\000\000\000\000\000\000\000\000\000\000\000\000\000\000\000\000\000\000\000\010@\000\000\000\000\000\000\360?\000\000\000\000\000\000\360?\000\000\000\000\000\0006@\000\000\000\000\000\200P@\000\000\000\000\000\0004@\000\000\000\000\000\000\000\000\000\000\000\000\000\000\000\000\000\000\000\000\000\000\360?\000\000\000\000\000\000\000\000\000\000\000\000\000\200G@\000\000\000\000\000\0005@\000\000\000\000\000\000\000\000\000\000\000\000\000\000\030@\000\000\000\000\000\000\010@\000\000\000\000\000\000\000@\000\000\000\000\000\000\000\000\000\000\000\000\000\000\000@\000\000\000\000\000\000\000\000\000\000\000\000\000\000\000\000\000\000\000\000\000\000\000\000\000\000\000\000\000\0005@\000\000\000\000\000\0005@\000\000\000\000\000\0001@\000\000\000\000\000\000\"@\000\000\000\000\000\000\034@\000\000\000\000\000\000\000\000\000\000\000\000\000\000@@\000\000\000\000\000\000\000\000\000\000\000\000\000\000\360?\000\000\000\000\000\000\000\000\000\000\000\000\000\000\000\000\000\000\000\000\000\000\000\000\000\000\000\000\000\000<@\000\000\000\000\000\0009@\000\000\000\000\000\000\000\000\000\000\000\000\000\000\000\000\000\000\000\000\000\000?@\000\000\000\000\000\000\000\000\000\000\000\000\000\000\000\000\000\000\000\000\000\000\360?\000\000\000\000\000\000D@\000\000\000\000\000\000\000@\000\000\000\000\000\000A@\000\000\000\000\000\000\000\000\000\000\000\000\000\000\000\000\000\000\000\000\000\0007@\000\000\000\000\000\000\360?\000\000\000\000\000\000\000\000\000\000\000\000\000\000\360?\000\000\000\000\000\200B@\000\000\000\000\000\000\000\000\000\000\000\000\000\000\000\000\000\000\000\000\000\000\000@\000\000\000\000\000\000\000\000\000\000\000\000\000\000\000\000\000\000\000\000\000\000\000\000\000\000\000\000\000\0001@\000\000\000\000\000\000\360?\000\000\000\000\000\0006@\000\000\000\000\000\000<@\000\000\000\000\000\000\000\000\000\000\000\000\000\000G@\000\000\000\000\000\000(@\000\000\000\000\000\000\000\000\000\000\000\000\000\000\360?\000\000\000\000\000\0009@\000\000\000\000\000\000\360?\000\000\000\000\000\200@@\000\000\000\000\000\000\024@\000\000\000\000\000\000\000\000\000\000\000\000\000\000&@\000\000\000\000\000\000\000\000\000\000\000\000\000\000\000\000\000\000\000\000\000\000\000\000\000\000\000\000\000\000\000\000\000\000\000\000\000\0007@\000\000\000\000\000\000\000\000\000\000\000\000\000\000\000\000\000\000\000\000\000\000=@\000\000\000\000\000\000\360?\000\000\000\000\000\0006@\000\000\000\000\000\0006@\000\000\000\000\000\200E@\000\000\000\000\000\000\000\000\000\000\000\000\000\000\000\000\000\000\000\000\000\000\000\000\000\000\000\000\000\000\010@\000\000\000\000\000\000\000\000\000\000\000\000\000\000\360?\000\000\000\000\000\000\020@\000\000\000\000\000\000\000\000\000\000\000\000\000\000\000\000\000\000\000\000\000\000\360?\000\000\000\000\000\000\360?\000\000\000\000\000\000\000\000\000\000\000\000\000\000\034@\000\000\000\000\000\200C@\000\000\000\000\000\000&@\000\000\000\000\000\000\000\000\000\000\000\000\000\000\000@\000\000\000\000\000\000C@\000\000\000\000\000\000\360?\000\000\000\000\000\000\000\000\000\000\000\000\000\000\024@\000\000\000\000\000\0009@\000\000\000\000\000\000\000\000\000\000\000\000\000\0009@\000\000\000\000\000\000\360?\000\000\000\000\000\000\000\000\000\000\000\000\000\000\000\000\000\000\000\000\000\000\000\000\000\000\000\000\000\200@@\000\000\000\000\000\000\360?\000\000\000\000\000\000\000\000\000\000\000\000\000\000&@\000\000\000\000\000\000\020@\000\000\000\000\000\000\000\000\000\000\000\000\000\000\000\000\000\000\000\000\000\000\000@\000\000\000\000\000\000\000\000\000\000\000\000\000\000 @\000\000\000\000\000\000;@\000\000\000\000\000\0002@\000\000\000\000\000\000\360?\000\000\000\000\000\200F@\000\000\000\000\000\000&@\000\000\000\000\000\000\000\000\000\000\000\000\000\000\360?\000\000\000\000\000\000\000@\000\000\000\000\000\0005@\000\000\000\000\000\000\000\000\000\000\000\000\000\000\000\000\000\000\000\000\000\000\000\000\000\000\000\000\000\000\034@\000\000\000\000\000\000\000\000\000\000\000\000\000\000\000\000\000\000\000\000\000\000\000@\000\000\000\000\000\000\000\000\000\000\000\000\000\000\360?\000\000\000\000\000\000\000@\000\000\000\000\000\000\000\000\000\000\000\000\000\200G@\000\000\000\000\000\000\000\000\000\000\000\000\000\0000@\000\000\000\000\000\000\000\000\000\000\000\000\000\000\000\000\000\000\000\000\000\000\000\000\000\000\000\000\000\000\000\000\000\000\000\000\000\000\000\000\000\000\000\000\000\000<@\000\000\000\000\000\000\360?\000\000\000\000\000\000\000\000\000\000\000\000\000\000\000\000\000\000\000\000\000\200A@\000\000\000\000\000\000\360?\000\000\000\000\000\000\000\000\000\000\000\000\000\000\000\000\000\000\000\000\000\0009@\000\000\000\000\000\0001@\000\000\000\000\000\000\360?\000\000\000\000\000\000\360?\000\000\000\000\000\000\010@\000\000\000\000\000\000\360?\000\000\000\000\000\000\360?\000\000\000\000\000\000\000\000\000\000\000\000\000\000\000\000\000\000\000\000\000\000\000\000\000\000\000\000\000\000\000\000\000\000\000\000\000\000\360?\000\000\000\000\000\000\000\000\000\000\000\000\000\000\000\000\000\000\000\000\000\000&@\000\000\000\000\000\000\"@\000\000\000\000\000\000\000\000\000\000\000\000\000\000*@\000\000\000\000\000\000\030@\000\000\000\000\000\000,@\000\000\000\000\000\000\000\000\000\000\000\000\000\0001@\000\000\000\000\000\000\000\000\000\000\000\000\000\000\020@\000\000\000\000\000\000\000\000\000\000\000\000\000\0000@\000\000\000\000\000\000?@\000\000\000\000\000\000\000\000\000\000\000\000\000\000\000\000\000\000\000\000\000\000(@\000\000\000\000\000\000?@\000\000\000\000\000\000\360?\000\000\000\000\000\200I@\000\000\000\000\000\000D@\000\000\000\000\000\000A@\000\000\000\000\000\000\030@\000\000\000\000\000\000\010@\000\000\000\000\000\000\000\000\000\000\000\000\000\0009@\000\000\000\000\000\000\360?\000\000\000\000\000\000F@\000\000\000\000\000\000\000\000\000\000\000\000\000\000,@\000\000\000\000\000\000 @\000\000\000\000\000\000.@\000\000\000\000\000\000\360?\000\000\000\000\000\000\360?\000\000\000\000\000\000L@\000\000\000\000\000\000\000\000\000\000\000\000\000\000C@\000\000\000\000\000\000\000\000\000\000\000\000\000\000\000\000\000\000\000\000\000\000\360?\000\000\000\000\000\000\000\000\000\000\000\000\000\000\000\000\000\000\000\000\000\000*@\000\000\000\000\000\000\000\000\000\000\000\000\000\000\360?\000\000\000\000\000\000\360?\000\000\000\000\000\000\000\000\000\000\000\000\000\000I@\000\000\000\000\000\000\000\000\000\000\000\000\000\000\000\000\000\000\000\000\000\000=@\000\000\000\000\000\200G@\000\000\000\000\000\000\024@\000\000\000\000\000\000\360?\000\000\000\000\000\200@@\000\000\000\000\000\000B@\000\000\000\000\000\000\024@\000\000\000\000\000\0001@\000\000\000\000\000\200C@\000\000\000\000\000\0007@\000\000\000\000\000\000\360?\000\000\000\000\000\000\000\000\000\000\000\000\000\000\000\000\000\000\000\000\000\000\000\000\000\000\000\000\000\000G@\000\000\000\000\000\0009@\000\000\000\000\000\000\000\000\000\000\000\000\000\000\360?\000\000\000\000\000\200@@\000\000\000\000\000\000\000\000\000\000\000\000\000\000\000\000\000\000\000\000\000\000\360?\000\000\000\000\000\000\360?\000\000\000\000\000\000\024@\000\000\000\000\000\000\000\000\000\000\000\000\000\000\000\000\000\000\000\000\000\000F@\000\000\000\000\000\000\000\000\000\000\000\000\000\000*@\000\000\000\000\000\0008@\000\000\000\000\000\000\360?\000\000\000\000\000\0008@\000\000\000\000\000\000\000\000\000\000\000\000\000\000 @\000\000\000\000\000\000\000\000\000\000\000\000\000\000\000\000\000\000\000\000\000\0008@\000\000\000\000\000\000\360?\000\000\000\000\000\000>@\000\000\000\000\000\000\000\000\000\000\000\000\000\000\010@\000\000\000\000\000\000\000\000\000\000\000\000\000\000\000\000\000\000\000\000\000\000=@\000\000\000\000\000\0006@\000\000\000\000\000\000\360?\000\000\000\000\000\000\000\000\000\000\000\000\000\000*@\000\000\000\000\000\000\000\000\000\000\000\000\000\000,@\000\000\000\000\000\000@@\000\000\000\000\000\200B@\000\000\000\000\000\000\360?\000\000\000\000\000\000\000\000\000\000\000\000\000\000\360?\000\000\000\000\000\000\000\000\000\000\000\000\000\000\360?\000\000\000\000\000\000C@\000\000\000\000\000\000\360?\000\000\000\000\000\000E@\000\000\000\000\000\000\360?\000\000\000\000\000\0004@\000\000\000\000\000\000\010@\000\000\000\000\000\000\000@\000\000\000\000\000\000\360?\000\000\000\000\000\000\360?\000\000\000\000\000\000\000\000\000\000\000\000\000\000\000\000\000\000\000\000\000\000\000\000\000\000\000\000\000\000\034@\000\000\000\000\000\000A@\000\000\000\000\000\000\360?\000\000\000\000\000\000\360?\000\000\000\000\000\0004@\000\000\000\000\000\000\020@\000\000\000\000\000\000B@\000\000\000\000\000\000\000\000\000\000\000\000\000\0002@\000\000\000\000\000\000>@\000\000\000\000\000\000@@\000\000\000\000\000\000$@\000\000\000\000\000\000\360?\000\000\000\000\000\200@@\000\000\000\000\000\000\000\000\000\000\000\000\000\000\000\000\000\000\000\000\000\000,@\000\000\000\000\000\000\000\000\000\000\000\000\000\000\000\000\000\000\000\000\000\000\000\000\000\000\000\000\000\000\000\000\000\000\000\000\000\000\"@\000\000\000\000\000\000<@\000\000\000\000\000\000\000\000\000\000\000\000\000\000(@\000\000\000\000\000\000>@\000\000\000\000\000\000\010@\000\000\000\000\000\000\000\000\000\000\000\000\000\000=@\000\000\000\000\000\000\000\000\000\000\000\000\000\000\000\000\000\000\000\000\000\000;@\000\000\000\000\000\000\000\000\000\000\000\000\000\000\000\000\000\000\000\000\000\000\000\000\000\000\000\000\000\000\000\000\000\000\000\000\000\000<@\000\000\000\000\000\000;@\000\000\000\000\000\000,@\000\000\000\000\000\000\000\000\000\000\000\000\000\000\"@\000\000\000\000\000\000\"@\000\000\000\000\000\000.@\000\000\000\000\000\0009@\000\000\000\000\000\000?@\000\000\000\000\000\000\030@\000\000\000\000\000\000;@\000\000\000\000\000\000F@\000\000\000\000\000\000<@\000\000\000\000\000\000\360?\000\000\000\000\000\000\000\000\000\000\000\000\000\000\000\000\000\000\000\000\000\000\000\000\000\000\000\000\000\000\360?\000\000\000\000\000\000\000\000\000\000\000\000\000\000\360?\000\000\000\000\000\000\000\000\000\000\000\000\000\000\000\000\000\000\000\000\000\200B@\000\000\000\000\000\0000@\000\000\000\000\000\000@@\000\000\000\000\000\000G@\000\000\000\000\000\000\360?\000\000\000\000\000\000\000\000\000\000\000\000\000\000\360?\000\000\000\000\000\000\000\000\000\000\000\000\000\000\020@\000\000\000\000\000\000,@\000\000\000\000\000\000G@\000\000\000\000\000\000\360?\000\000\000\000\000\000\000\000\000\000\000\000\000\000\000\000\000\000\000\000\000\000:@\000\000\000\000\000\000\000\000\000\000\000\000\000\000\360?\000\000\000\000\000\000\000\000\000\000\000\000\000\0008@\000\000\000\000\000\000B@\000\000\000\000\000\000\000\000\000\000\000\000\000\000\000\000\000\000\000\000\000\000\000\000\000\000\000\000\000\000\000\000\000\000\000\000\000\000\000\000\000\000\000\000\000\000\000\000\000\000\000\000\000\000\000\000\000\000\000\000\000\000&@\000\000\000\000\000\000\360?\000\000\000\000\000\000\360?\000\000\000\000\000\000$@\000\000\000\000\000\000\360?\000\000\000\000\000\000\000\000\000\000\000\000\000\000\030@\000\000\000\000\000\000\000\000\000\000\000\000\000\000\000\000\000\000\000\000\000\000\030@\000\000\000\000\000\000\020@\000\000\000\000\000\200A@\000\000\000\000\000\000\000\000\000\000\000\000\000\000\000\000\000\000\000\000\000\000\000\000\000\000\000\000\000\000\360?\000\000\000\000\000\0005@\000\000\000\000\000\000\000\000\000\000\000\000\000\000\010@\000\000\000\000\000\000\000\000\000\000\000\000\000\0003@\000\000\000\000\000\000\000\000\000\000\000\000\000\000\000\000\000\000\000\000\000\000\000\000\000\000\000\000\000\000\360?\000\000\000\000\000\000\360?\000\000\000\000\000\000\360?\000\000\000\000\000\000\360?\000\000\000\000\000\000\000\000\000\000\000\000\000\000$@\000\000\000\000\000\000\000\000\000\000\000\000\000\200H@\000\000\000\000\000\000\360?\000\000\000\000\000\000\000\000\000\000\000\000\000\000\000\000\000\000\000\000\000\0007@\000\000\000\000\000\000\000\000\000\000\000\000\000\000\000\000\000\000\000\000\000\000\010@\000\000\000\000\000\000\000\000\000\000\000\000\000\000\000\000\000\000\000\000\000\000\000\000\000\000\000\000\000\000\000\000\000\000\000\000\000\000\000\000\000\000\000\000\000\000\000@\000\000\000\000\000\000\000\000\000\000\000\000\000\000\000\000\000\000\000\000\000\000:@\000\000\000\000\000\000\000\000\000\000\000\000\000\000\000\000\000\000\000\000\000\000\000\000\000\000\000\000\000\000\000\000\000\000\000\000\000\000\000\000\000\000\000\000\000\000\000\000\000\000\000\000\000\000\000\000\000\000\000\000\000\000\000\000\000\000\000\000\000\000\000\000\000\000\000\000\000\000\000\000\000\000\000\000\000\000\000\000\000\000\000\000\000\000\000\000\000\000\000\000\000\000\000\000\000\000\000\000\000\000;@\000\000\000\000\000\000\000\000\000\000\000\000\000\000\000\000\000\000\000\000\000\000\000\000\000\000\000\000\000\000\010@\000\000\000\000\000\000\000\000\000\000\000\000\000\000?@\000\000\000\000\000\000C@\000\000\000\000\000\000\000\000\000\000\000\000\000\0001@\000\000\000\000\000\000\000\000\000\000\000\000\000\000\360?\000\000\000\000\000\000\000\000\000\000\000\000\000\000\034@\000\000\000\000\000\000=@\000\000\000\000\000\000\000\000\000\000\000\000\000\0002@\000\000\000\000\000\000\000@\000\000\000\000\000\0004@\000\000\000\000\000\000\360?\000\000\000\000\000\000\020@\000\000\000\000\000\000\000\000\000\000\000\000\000\000\000\000\000\000\000\000\000\0008@\000\000\000\000\000\000\000\000\000\000\000\000\000\000\000\000\000\000\000\000\000\000\000\000\000\000\000\000\000\000\000\000\000\000\000\000\000\000\360?\000\000\000\000\000\000\000\000\000\000\000\000\000\000\000\000\000\000\000\000\000\200D@\000\000\000\000\000\000\000\000\000\000\000\000\000\000\000\000\000\000\000\000\000\000\000\000\000\000\000\000\000\200N@\000\000\000\000\000\000\360?\000\000\000\000\000\000\000@\000\000\000\000\000\000\000\000\000\000\000\000\000\0004@\000\000\000\000\000\000\000\000\000\000\000\000\000\000\000\000\000\000\000\000\000\000\360?\000\000\000\000\000\000\000\000\000\000\000\000\000\000\360?\000\000\000\000\000\000\000\000\000\000\000\000\000\000\360?\000\000\000\000\000\000\000\000\000\000\000\000\000\000,@\000\000\000\000\000\000\000\000\000\000\000\000\000\000\"@\000\000\000\000\000\000\000\000\000\000\000\000\000\000\000\000\000\000\000\000\000\000\000\000\000\000\000\000\000\000\"@\000\000\000\000\000\000\000\000"
      }
    }
  }
}
node {
  name: "Const_5"
  op: "Const"
  device: "/device:CPU:0"
  attr {
    key: "_output_shapes"
    value {
      list {
        shape {
          dim {
            size: 537
          }
        }
      }
    }
  }
  attr {
    key: "dtype"
    value {
      type: DT_DOUBLE
    }
  }
  attr {
    key: "value"
    value {
      tensor {
        dtype: DT_DOUBLE
        tensor_shape {
          dim {
            size: 537
          }
        }
        tensor_content: "qG\334\021w\304\275?\000\000\000\000\000\000\360?\000\000\000\000\000\000\000\000H\341z\024\256G\301?\000\000\000\000\000\000\000\000{\024\256G\341z\304?\000\000\000\000\000\000\000\000\000\000\000\000\000\000\000\000q=\n\327\243p\275?\000\000\000\000\000\000\000\000\000\000\000\000\000\000\000\000\024;\261\023;\261\223?\000\000\000\000\000\000\000\000)\\\217\302\365(\254?\000\000\000\000\000\000\000\000\030\363\251\027\363\251\267?\236\330\211\235\330\211\315?\000\000\000\000\000\000\000\000\000\000\000\000\000\000\000\000\000\000\000\000\000\000\000\000\000\000\000\000\000\000\000\000\315\314\314\314\314\314\314?\367\006\224\211+\335\213?\000\000\000\000\000\000\360?\222$I\222$I\262?\333\266m\333\266m\313?g\320\262\3439\225\304?A\255_)P\353\307?\000\000\000\000\000\000\000\000\000\000\000\000\000\000\000\000\026eQ\026eQ\306?\000\000\000\000\000\000\360?\000\000\000\000\000\000\000\000\000\000\000\000\000\000\000\000\000\000\000\000\000\000\000\000UUUUUU\245?\030\206a\030\206a\230?\000\000\000\000\000\000\000\000\030\206a\030\206a\270?\026eQ\026eQ\266?\n\327\243p=\n\247?\000\000\000\000\000\000\000\000\000\000\000\000\000\000\000\000\000\000\000\000\000\000\000\000\000\000\000\000\000\000\000\000\270\036\205\353Q\270\216?\000\000\000\000\000\000\360?\000\000\000\000\000\000\340?8\321\323\271\275\226\274?UUUUUU\325?\267k\345\204g\372\273?\000\000\000\000\000\000\000\000\000\000\000\000\000\000\000\000\000\000\000\000\000\000\300?\000\000\000\000\000\000\000\000\024\256G\341z\024\316?\341z\024\256G\341\272?\000\000\000\000\000\000\000\000\343&\314\357jq\263?UUUUUU\305?F\027]t\321E\307?\000\000\000\000\000\000\000\000{\024\256G\341z\264?\000\000\000\000\000\000\000\000\000\000\000\000\000\000\000\000\000\000\000\000\000\000\000\000\341z\024\256G\341\272?\341z\024\256G\341\272?\303\365(\\\217\302\265?A\321V\203\347\010\264?\025\025\025\025\025\025\245?\000\000\000\000\000\000\000\000g\320\262\3439\225\304?\000\000\000\000\000\000\000\000\000\000\000\000\000\000\360?\000\000\000\000\000\000\000\000\000\000\000\000\000\000\000\000\000\000\000\000\000\000\000\000\022&a\022&a\302?\000\000\000\000\000\000\300?\000\000\000\000\000\000\000\000\000\000\000\000\000\000\000\000\253\252\252\252\252\252\304?\000\000\000\000\000\000\000\000\000\000\000\000\000\000\000\000\000\000\000\000\000\000\360?\210\306\372\320X\037\312?\006\026X`\201\005\226?\303\365(\\\217\302\305?\000\000\000\000\000\000\000\000\000\000\000\000\000\000\000\000/,FBi\343\275?\000\000\000\000\000\000\340?\000\000\000\000\000\000\000\000\000\000\000\000\000\000\360?A\255_)P\353\307?\000\000\000\000\000\000\000\000\000\000\000\000\000\000\000\000{\024\256G\341z\244?\000\000\000\000\000\000\000\000\000\000\000\000\000\000\000\000\000\000\000\000\000\000\000\000\303\365(\\\217\302\265?\000\000\000\000\000\000\340?\343\225O\304l.\275?\201\371@va1\302?\000\000\000\000\000\000\000\000q=\n\327\243p\315?333333\303?\000\000\000\000\000\000\000\000g\267\360\2531\221~?\253\252\252\252\252\252\300?\000\000\000\000\000\000\360?\226Z\251\225Z\251\305?\232\231\231\231\231\231\231?\000\000\000\000\000\000\000\000)\\\217\302\365(\254?\000\000\000\000\000\000\000\000\000\000\000\000\000\000\000\000\000\000\000\000\000\000\000\000\000\000\000\000\000\000\000\000/,FBi\343\275?\000\000\000\000\000\000\000\000\000\000\000\000\000\000\000\000\217\302\365(\\\217\302?\000\000\000\000\000\000\340?)\\\217\302\365(\274?\352Moz\323\233\276?\\\375\240\243\002_\314?\000\000\000\000\000\000\000\000\000\000\000\000\000\000\000\000\000\000\000\000\000\000\000\000\270\036\205\353Q\270\216?\000\000\000\000\000\000\000\000\000\000\000\000\000\000\360?{\024\256G\341z\224?\000\000\000\000\000\000\000\000\000\000\000\000\000\000\000\000UUUUUU\325?\000\000\000\000\000\000\360?\000\000\000\000\000\000\000\000\201\371@va1\242?\366(\\\217\302\365\310?\343\225O\304l.\255?\000\000\000\000\000\000\000\000{\024\256G\341z\204?\256C\277\331:\364\313?\000\000\000\000\000\000\360?\000\000\000\000\000\000\000\000\201\204\237\\\210\272\231?\177\245@\255_)\300?\000\000\000\000\000\000\000\000\000\000\000\000\000\000\300?\002\241\344N\321\302y?\000\000\000\000\000\000\000\000\000\000\000\000\000\000\000\000\000\000\000\000\000\000\000\000\352f\320\262\3439\305?\000\000\000\000\000\000\340?\000\000\000\000\000\000\000\000)\\\217\302\365(\254?[\277R\240\326\257\224?\000\000\000\000\000\000\000\000\000\000\000\000\000\000\000\000\027l\301\026l\301\246?\000\000\000\000\000\000\000\0009\005/\247\340\345\244?H\341z\024\256G\301?:5\017r\327\317\306?\036\036\036\036\036\036\236?\315\314\314\314\314\314\314?)\\\217\302\365(\254?\000\000\000\000\000\000\000\000\000\000\000\000\000\000\360?\320\272\301\024\371\254\253?\341z\024\256G\341\272?\000\000\000\000\000\000\000\000\000\000\000\000\000\000\000\000\000\000\000\000\000\000\000\000Zv<\247\222\002\242?\000\000\000\000\000\000\000\000\000\000\000\000\000\000\000\000\010\037|\360\301\007\257?\000\000\000\000\000\000\000\000\000\000\000\000\000\000\360?\000\000\000\000\000\000\360?\000\000\000\000\000\000\000\000\024\256G\341z\024\316?\000\000\000\000\000\000\000\000{\024\256G\341z\264?\000\000\000\000\000\000\000\000\000\000\000\000\000\000\000\000\000\000\000\000\000\000\000\000\000\000\000\000\000\000\000\000\000\000\000\000\000\000\000\000\355\215\325\037\350\221\302?UUUUUU\265?\000\000\000\000\000\000\000\000\000\000\000\000\000\000\000\000\361\223\013Q7\203\306?{\024\256G\341zt?\000\000\000\000\000\000\000\000\000\000\000\000\000\000\000\000\177\245@\255_)\300?\033\312k(\257\241\274?\000\000\000\000\000\000\360?\000\000\000\000\000\000\360?\270\036\205\353Q\270\216?\000\000\000\000\000\000\360?\000\000\000\000\000\000\360?\000\000\000\000\000\000\000\000\000\000\000\000\000\000\000\000\000\000\000\000\000\000\000\000\000\000\000\000\000\000\000\000\000\000\000\000\000\000\360?\000\000\000\000\000\000\000\000\000\000\000\000\000\000\000\000J\361\002\231\024/\300?\374\370\361\343\307\217\257?\000\000\000\000\000\000\000\000\244p=\n\327\243\260?\270\036\205\353Q\270\236?\022&a\022&a\262?\000\000\000\000\000\000\000\000\303\365(\\\217\302\265?\000\000\000\000\000\000\000\000g\320\262\3439\225\224?\000\000\000\000\000\000\000\000{\024\256G\341z\264?\3449\225\024\220\360\303?\000\000\000\000\000\000\000\000\000\000\000\000\000\000\000\000\2328\214\325\326\337\256?\020\215\365\241\261>\304?\000\000\000\000\000\000\260?R\270\036\205\353Q\320?1ogH\314\333\311?\355q\025\020\014\311\306?\270\036\205\353Q\270\236?\270\036\205\353Q\270\216?\000\000\000\000\000\000\000\000\000\000\000\000\000\000\300?\000\000\000\000\000\000\360?\216\336\025\231/M\314?\000\000\000\000\000\000\000\000ogH\314\333\031\262?{\024\256G\341z\244?\322\244I\223&M\312?\000\000\000\000\000\000\360?\000\000\000\000\000\000\340?\022&a\022&a\322?\000\000\000\000\000\000\000\000\247B\264\341\363\307\314?\000\000\000\000\000\000\000\000\000\000\000\000\000\000\000\000\000\000\000\000\000\000\360?\000\000\000\000\000\000\000\000\000\000\000\000\000\000\000\000\244p=\n\327\243\260?\000\000\000\000\000\000\000\000\000\000\000\000\000\000\360?\000\000\000\000\000\000\360?\000\000\000\000\000\000\000\000o\254\376@\217\224\320?\000\000\000\000\000\000\000\000\000\000\000\000\000\000\000\000\217\302\365(\\\217\302?\024\256G\341z\024\316?\000\000\000\000\000\000\304?\000\000\000\000\000\000\340?\037\205\353Q\270\036\305?\n\327\243p=\n\307?\232\231\231\231\231\231\231?f\227]v\331e\267?\366(\\\217\302\365\310?q=\n\327\243p\275?\000\000\000\000\000\000\340?\000\000\000\000\000\000\000\000\000\000\000\000\000\000\000\000\000\000\000\000\000\000\000\000q=\n\327\243p\315?\000\000\000\000\000\000\300?\000\000\000\000\000\000\000\000\000\000\000\000\000\000\360?\226Z\251\225Z\251\305?\000\000\000\000\000\000\000\000\000\000\000\000\000\000\000\000\000\000\000\000\000\000\360?\000\000\000\000\000\000\360?\245\224RJ)\245\244?\000\000\000\000\000\000\000\000\000\000\000\000\000\000\000\000)\\\217\302\365(\314?\000\000\000\000\000\000\000\000TI\001\t?\271\260?\262\002a\244\035+\300?\000\000\000\000\000\000\360? tT\340\213\253\277?\000\000\000\000\000\000\000\000{\024\256G\341z\244?\000\000\000\000\000\000\000\000\000\000\000\000\000\000\000\000\013Y\310B\026\262\300?\000\000\000\000\000\000\360?jW\242v%j\307?\000\000\000\000\000\000\000\000^Cy\r\3455\244?\000\000\000\000\000\000\000\000\000\000\000\000\000\000\000\000,\341\250\376>o\303?UUUUUU\275?\000\000\000\000\000\000\360?\000\000\000\000\000\000\000\000UUUUUU\305?\000\000\000\000\000\000\000\000\354Q\270\036\205\353\261?[\277R\240\326\257\304?\330\222C\\e\n\310?\000\000\000\000\000\000\360?\000\000\000\000\000\000\000\000UUUUUU\205?\000\000\000\000\000\000\000\000\000\000\000\000\000\000\340?\210Y@\276H\224\312?\020\004A\020\004A\220?\300\034\221b\250\277\314?\000\000\000\000\000\000\360?\232\231\231\231\231\231\271?\270\036\205\353Q\270\216?UUUUUU\345?\000\000\000\000\000\000\360?\000\000\000\000\000\000\360?\000\000\000\000\000\000\000\000\000\000\000\000\000\000\000\000\000\000\000\000\000\000\000\000\354Q\270\036\205\353\241?\303\365(\\\217\302\305?\000\000\000\000\000\000\360?\000\000\000\000\000\000\360?\270\005\024Fu\232\274?{\024\256G\341z\224?\\e\n\230\017d\307?\000\000\000\000\000\000\000\000\341\345\024\274\234\202\267?333333\303?{\024\256G\341z\304?1ogH\314\333\251?\000\000\000\000\000\000\360?oz\323\233\336\364\306?\000\000\000\000\000\000\000\000\000\000\000\000\000\000\000\000Zv<\247\222\002\262?\000\000\000\000\000\000\000\000\000\000\000\000\000\000\000\000\000\000\000\000\000\000\000\000\000\000\000\000\000\000\000\000\n\327\243p=\n\247?\201\371@va1\302?\000\000\000\000\000\000\000\000\222$I\222$I\302?\362V\3669\244&\310?4\371\262A\223/\233?\000\000\000\000\000\000\000\000\217\302\365(\\\217\302?\000\000\000\000\000\000\000\000\000\000\000\000\000\000\000\000\006}A_\320\027\304?\000\000\000\000\000\000\000\000\000\000\000\000\000\000\000\000\000\000\000\000\000\000\000\000\000\000\000\000\000\000\000\000ogH\314\333\031\302?H\341z\024\256G\301?\025\025\025\025\025\025\305?\000\000\000\000\000\000\000\000\222\033\271\221\033\271\301?F\027]t\321E\247?333333\263?e\223M6\331d\303?UUUUUU\305?\262\002a\244\035+\240?\327\337\036\330\350]\301?8\321\323\271\275\226\314?\355\215\325\037\350\221\302?UUUUUU\205?\000\000\000\000\000\000\000\000\000\000\000\000\000\000\000\000\000\000\000\000\000\000\000\000\000\000\000\000\000\000\360?\000\000\000\000\000\000\000\0009\005/\247\340\345\204?\000\000\000\000\000\000\000\000\000\000\000\000\000\000\000\000\256G\341z\024\256\307?{\024\256G\341z\264?UUUUUU\305?}\037\253\331\223|\317?\000\000\000\000\000\000\360?\000\000\000\000\000\000\000\000\000\000\000\000\000\000\360?\000\000\000\000\000\000\000\000{\024\256G\341z\224?\345\027K~\261\344\307?X\372s\266\343C\320?\000\000\000\000\000\000\340?\000\000\000\000\000\000\000\000\000\000\000\000\000\000\000\000y\025\211W\221x\305?\000\000\000\000\000\000\000\000{\024\256G\341zt?\000\000\000\000\000\000\000\0009\005/\247\340\345\304?\\e\n\230\017d\307?\000\000\000\000\000\000\000\000\000\000\000\000\000\000\000\000\000\000\000\000\000\000\000\000\000\000\000\000\000\000\000\000\000\000\000\000\000\000\000\000\000\000\000\000\000\000\000\000\000\000\000\000\000\000\000\000UUUUUU\305?\000\000\000\000\000\000\340?\000\000\000\000\000\000\360?\201\204\237\\\210\272\251?\000\000\000\000\000\000\360?\000\000\000\000\000\000\000\000\270\036\205\353Q\270\236?\000\000\000\000\000\000\000\000\000\000\000\000\000\000\000\000\270\036\205\353Q\270\236?{\024\256G\341z\224?i\361\312\'b6\307?\000\000\000\000\000\000\000\000\000\000\000\000\000\000\000\000\000\000\000\000\000\000\000\000\000\000\000\000\000\000\360?Ava1\022J\273?\000\000\000\000\000\000\000\000AL\256 &W\260?\000\000\000\000\000\000\000\000R\270\036\205\353Q\270?\000\000\000\000\000\000\000\000\000\000\000\000\000\000\000\000\000\000\000\000\000\000\000\000\000\000\000\000\000\000\360?\000\000\000\000\000\000\340?\000\000\000\000\000\000\360?UUUUUU\325?\000\000\000\000\000\000\000\0001ogH\314\333\251?\000\000\000\000\000\000\000\000\000\000\000\000\000\000\320?\000\000\000\000\000\000\360?\000\000\000\000\000\000\000\000\000\000\000\000\000\000\000\000\224\013Q7\203\226\275?\000\000\000\000\000\000\000\000\000\000\000\000\000\000\000\000\270\036\205\353Q\270\216?\000\000\000\000\000\000\000\000\000\000\000\000\000\000\000\000\000\000\000\000\000\000\000\000\000\000\000\000\000\000\000\000\000\000\000\000\000\000\000\000p\037\301}\004\367\221?\000\000\000\000\000\000\000\000\000\000\000\000\000\000\000\000\314\021)\206\372\313\301?\000\000\000\000\000\000\000\000\000\000\000\000\000\000\000\000\000\000\000\000\000\000\000\000\000\000\000\000\000\000\000\000\000\000\000\000\000\000\000\000\000\000\000\000\000\000\000\000\000\000\000\000\000\000\000\000\000\000\000\000\000\000\000\000\000\000\000\000\000\000\000\000\000\000\000\000\000\000\000\000\000\000\000\000\000\000\000\000\000\000\000\000\000\000\000\000\000\000\000\000\000\000\000\000H\341z\024\256G\301?\000\000\000\000\000\000\000\000\000\000\000\000\000\000\000\000\000\000\000\000\000\000\000\000\227\226\226\226\226\226\266?\000\000\000\000\000\000\000\000\3449\225\024\220\360\303?\347\322\241\006\2733\311?\000\000\000\000\000\000\000\000\303\365(\\\217\302\265?\000\000\000\000\000\000\000\000\274\336F\177($w?\000\000\000\000\000\000\000\000\354Q\270\036\205\353\241?\217\302\365(\\\217\302?\000\000\000\000\000\000\000\000\211D\"\221H$\302?g\320\262\3439\225\204?4O\250\005\214I\274?UUUUUU\325?qBJ\236eD\237?\000\000\000\000\000\000\000\000\000\000\000\000\000\000\000\000\2328\214\325\326\337\276?\000\000\000\000\000\000\000\000\000\000\000\000\000\000\000\000\000\000\000\000\000\000\000\000\000\000\000\000\000\000\000\000\000\000\000\000\000\000\360?\000\000\000\000\000\000\000\000\000\000\000\000\000\000\000\000=\n\327\243p=\312?\000\000\000\000\000\000\000\000\000\000\000\000\000\000\000\000\000\000\000\000\000\000\000\000\205\353Q\270\036\205\323?\222$I\222$I\222?{\024\256G\341z\204?\000\000\000\000\000\000\000\000\232\231\231\231\231\231\271?\000\000\000\000\000\000\000\000\000\000\000\000\000\000\000\000\000\000\000\000\000\000\360?\000\000\000\000\000\000\000\000\030\206a\030\206a\230?\000\000\000\000\000\000\000\000\000\000\000\000\000\000\360?\000\000\000\000\000\000\000\000\354Q\270\036\205\353\261?\000\000\000\000\000\000\000\000\n\327\243p=\n\247?\000\000\000\000\000\000\000\000\000\000\000\000\000\000\000\000\000\000\000\000\000\000\000\000\n\327\243p=\n\247?\000\000\000\000\000\000\000\000"
      }
    }
  }
}
node {
  name: "Const_6"
  op: "Const"
  device: "/device:CPU:0"
  attr {
    key: "_output_shapes"
    value {
      list {
        shape {
          dim {
            size: 537
          }
        }
      }
    }
  }
  attr {
    key: "dtype"
    value {
      type: DT_DOUBLE
    }
  }
  attr {
    key: "value"
    value {
      tensor {
        dtype: DT_DOUBLE
        tensor_shape {
          dim {
            size: 537
          }
        }
