node {
  name: "global_step/Initializer/zeros"
  op: "Const"
  attr {
    key: "_class"
    value {
      list {
        s: "loc:@global_step"
      }
    }
  }
  attr {
    key: "_output_shapes"
    value {
      list {
        shape {
        }
      }
    }
  }
  attr {
    key: "dtype"
    value {
      type: DT_INT64
    }
  }
  attr {
    key: "value"
    value {
      tensor {
        dtype: DT_INT64
        tensor_shape {
        }
        int64_val: 0
      }
    }
  }
}
node {
  name: "global_step"
  op: "VariableV2"
  attr {
    key: "_class"
    value {
      list {
        s: "loc:@global_step"
      }
    }
  }
  attr {
    key: "_output_shapes"
    value {
      list {
        shape {
        }
      }
    }
  }
  attr {
    key: "container"
    value {
      s: ""
    }
  }
  attr {
    key: "dtype"
    value {
      type: DT_INT64
    }
  }
  attr {
    key: "shape"
    value {
      shape {
      }
    }
  }
  attr {
    key: "shared_name"
    value {
      s: ""
    }
  }
}
node {
  name: "global_step/Assign"
  op: "Assign"
  input: "global_step"
  input: "global_step/Initializer/zeros"
  attr {
    key: "T"
    value {
      type: DT_INT64
    }
  }
  attr {
    key: "_class"
    value {
      list {
        s: "loc:@global_step"
      }
    }
  }
  attr {
    key: "_output_shapes"
    value {
      list {
        shape {
        }
      }
    }
  }
  attr {
    key: "use_locking"
    value {
      b: true
    }
  }
  attr {
    key: "validate_shape"
    value {
      b: true
    }
  }
}
node {
  name: "global_step/read"
  op: "Identity"
  input: "global_step"
  attr {
    key: "T"
    value {
      type: DT_INT64
    }
  }
  attr {
    key: "_class"
    value {
      list {
        s: "loc:@global_step"
      }
    }
  }
  attr {
    key: "_output_shapes"
    value {
      list {
        shape {
        }
      }
    }
  }
}
node {
  name: "IsVariableInitialized"
  op: "IsVariableInitialized"
  input: "global_step"
  attr {
    key: "_class"
    value {
      list {
        s: "loc:@global_step"
      }
    }
  }
  attr {
    key: "_output_shapes"
    value {
      list {
        shape {
        }
      }
    }
  }
  attr {
    key: "dtype"
    value {
      type: DT_INT64
    }
  }
}
node {
  name: "cond/Switch"
  op: "Switch"
  input: "IsVariableInitialized"
  input: "IsVariableInitialized"
  attr {
    key: "T"
    value {
      type: DT_BOOL
    }
  }
  attr {
    key: "_output_shapes"
    value {
      list {
        shape {
        }
        shape {
        }
      }
    }
  }
}
node {
  name: "cond/switch_t"
  op: "Identity"
  input: "cond/Switch:1"
  attr {
    key: "T"
    value {
      type: DT_BOOL
    }
  }
  attr {
    key: "_output_shapes"
    value {
      list {
        shape {
        }
      }
    }
  }
}
node {
  name: "cond/switch_f"
  op: "Identity"
  input: "cond/Switch"
  attr {
    key: "T"
    value {
      type: DT_BOOL
    }
  }
  attr {
    key: "_output_shapes"
    value {
      list {
        shape {
        }
      }
    }
  }
}
node {
  name: "cond/pred_id"
  op: "Identity"
  input: "IsVariableInitialized"
  attr {
    key: "T"
    value {
      type: DT_BOOL
    }
  }
  attr {
    key: "_output_shapes"
    value {
      list {
        shape {
        }
      }
    }
  }
}
node {
  name: "cond/read/Switch"
  op: "RefSwitch"
  input: "global_step"
  input: "cond/pred_id"
  attr {
    key: "T"
    value {
      type: DT_INT64
    }
  }
  attr {
    key: "_class"
    value {
      list {
        s: "loc:@global_step"
      }
    }
  }
  attr {
    key: "_output_shapes"
    value {
      list {
        shape {
        }
        shape {
        }
      }
    }
  }
}
node {
  name: "cond/read"
  op: "Identity"
  input: "cond/read/Switch:1"
  attr {
    key: "T"
    value {
      type: DT_INT64
    }
  }
  attr {
    key: "_output_shapes"
    value {
      list {
        shape {
        }
      }
    }
  }
}
node {
  name: "cond/Switch_1"
  op: "Switch"
  input: "global_step/Initializer/zeros"
  input: "cond/pred_id"
  attr {
    key: "T"
    value {
      type: DT_INT64
    }
  }
  attr {
    key: "_class"
    value {
      list {
        s: "loc:@global_step"
      }
    }
  }
  attr {
    key: "_output_shapes"
    value {
      list {
        shape {
        }
        shape {
        }
      }
    }
  }
}
node {
  name: "cond/Merge"
  op: "Merge"
  input: "cond/Switch_1"
  input: "cond/read"
  attr {
    key: "N"
    value {
      i: 2
    }
  }
  attr {
    key: "T"
    value {
      type: DT_INT64
    }
  }
  attr {
    key: "_output_shapes"
    value {
      list {
        shape {
        }
        shape {
        }
      }
    }
  }
}
node {
  name: "add/y"
  op: "Const"
  attr {
    key: "_output_shapes"
    value {
      list {
        shape {
        }
      }
    }
  }
  attr {
    key: "dtype"
    value {
      type: DT_INT64
    }
  }
  attr {
    key: "value"
    value {
      tensor {
        dtype: DT_INT64
        tensor_shape {
        }
        int64_val: 0
      }
    }
  }
}
node {
  name: "add"
  op: "Add"
  input: "cond/Merge"
  input: "add/y"
  attr {
    key: "T"
    value {
      type: DT_INT64
    }
  }
  attr {
    key: "_output_shapes"
    value {
      list {
        shape {
        }
      }
    }
  }
}
node {
  name: "Const"
  op: "Const"
  device: "/device:CPU:0"
  attr {
    key: "_output_shapes"
    value {
      list {
        shape {
          dim {
            size: 537
          }
        }
      }
    }
  }
  attr {
    key: "dtype"
    value {
      type: DT_INT64
    }
  }
  attr {
    key: "value"
    value {
      tensor {
        dtype: DT_INT64
        tensor_shape {
          dim {
            size: 537
          }
        }
        tensor_content: "\n\000\000\000\000\000\000\000\000\000\000\000\000\000\000\000\000\000\000\000\000\000\000\000\000\000\000\000\000\000\000\000\000\000\000\000\000\000\000\000\352\007\000\000\000\000\000\000\033\000\000\000\000\000\000\000\000\000\000\000\000\000\000\000\000\000\000\000\000\000\000\000\000\000\000\000\000\000\000\000\000\000\000\000\000\000\000\000\003\000\000\000\000\000\000\000\000\000\000\000\000\000\000\000\001\000\000\000\000\000\000\000\000\000\000\000\000\000\000\000\003\000\000\000\000\000\000\000i\032\000\000\000\000\000\000\000\000\000\000\000\000\000\000\000\000\000\000\000\000\000\000\000\000\000\000\000\000\000\000\000\000\000\000\000\000\000\000\r\004\000\000\000\000\000\000\000\000\000\000\000\000\000\000\000\000\000\000\000\000\000\000\000\000\000\000\000\000\000\000\000\000\000\000\000\000\000\000H\004\000\000\000\000\000\000^\006\000\000\000\000\000\000\000\000\000\000\000\000\000\000\000\000\000\000\000\000\000\000<\000\000\000\000\000\000\000\000\000\000\000\000\000\000\000\000\000\000\000\000\000\000\000\000\000\000\000\000\000\000\000\000\000\000\000\000\000\000\000\'\000\000\000\000\000\000\000\000\000\000\000\000\000\000\000\000\000\000\000\000\000\000\0005H\000\000\000\000\000\000\272\003\000\000\000\000\000\000\000\000\000\000\000\000\000\000\000\000\000\000\000\000\000\000\000\000\000\000\000\000\000\000\000\000\000\000\000\000\000\000\000\000\000\000\000\000\000\000\004\000\000\000\000\000\000\000\000\000\000\000\000\000\000\000\000\000\000\000\000\000\000\000\207\021\000\000\000\000\000\000s\017\000\000\000\000\000\000\345\007\000\000\000\000\000\000\000\000\000\000\000\000\000\000\001\000\000\000\000\000\000\000\000\000\000\000\000\000\000\000\000\000\000\000\000\000\000\000Q\003\000\000\000\000\000\000.\007\000\000\000\000\000\000\000\000\000\000\000\000\000\000\000\000\000\000\000\000\000\000\001\000\000\000\000\000\000\000\000\000\000\000\000\000\000\000\000\000\000\000\000\000\000\000\000\000\000\000\000\000\000\000\000\000\000\000\000\000\000\000\000\000\000\000\000\000\000\000\000\000\000\000\000\000\000\000p<\000\000\000\000\000\000\000\000\000\000\000\000\000\000}\001\000\000\000\000\000\000/\004\000\000\000\000\000\000\000\000\000\000\000\000\000\000\000\000\000\000\000\000\000\000\275\005\000\000\000\000\000\000\000\000\000\000\000\000\000\000\000\000\000\000\000\000\000\000\000\000\000\000\000\000\000\000\000\000\000\000\000\000\000\000\000\000\000\000\000\000\000\000\334\025\000\000\000\000\000\000\326\000\000\000\000\000\000\000\000\000\000\000\000\000\000\000\000\000\000\000\000\000\000\000E\006\000\000\000\000\000\000\000\000\000\000\000\000\000\000\000\000\000\000\000\000\000\000\000\000\000\000\000\000\000\000\235\000\000\000\000\000\000\000\000\000\000\000\000\000\000\000\252\037\000\000\000\000\000\000\000\000\000\000\000\000\000\000\000\000\000\000\000\000\000\000\271\000\000\000\000\000\000\000\000\000\000\000\000\000\000\000\000\000\000\000\000\000\000\000\000\000\000\000\000\000\000\000\021\002\000\000\000\000\000\000\000\000\000\000\000\000\000\000\000\000\000\000\000\000\000\000\000\000\000\000\000\000\000\000\000\000\000\000\000\000\000\000\000\000\000\000\000\000\000\000\000\000\000\000\000\000\000\000\001\000\000\000\000\000\000\000\000\000\000\000\000\000\000\000\357\303\000\000\000\000\000\000\225\001\000\000\000\000\000\000\000\000\000\000\000\000\000\0008\000\000\000\000\000\000\000\000\000\000\000\000\000\000\000\002\000\000\000\000\000\000\000\000\000\000\000\000\000\000\000Ww\000\000\000\000\000\000\000\000\000\000\000\000\000\000\223$\000\000\000\000\000\000\023\000\000\000\000\000\000\000\000\000\000\000\000\000\000\000\316\010\000\000\000\000\000\000\000\000\000\000\000\000\000\000\000\000\000\000\000\000\000\000\000\000\000\000\000\000\000\000\000\000\000\000\000\000\000\000\214\t\000\000\000\000\000\000\000\000\000\000\000\000\000\000\000\000\000\000\000\000\000\000\362b\000\000\000\000\000\000\000\000\000\000\000\000\000\000\000\000\000\000\000\000\000\000\3668\000\000\000\000\000\000}\006\000\000\000\000\000\000\000\000\000\000\000\000\000\000\000\000\000\000\000\000\000\000\000\000\000\000\000\000\000\000\000\000\000\000\000\000\000\000\000\000\000\000\000\000\000\000\000\000\000\000\000\000\000\000\002\000\000\000\000\000\000\000\000\000\000\000\000\000\000\000\000\000\000\000\000\000\000\000\000\000\000\000\000\000\000\000\000\000\000\000\000\000\000\000\000\000\000\000\000\000\000\000\000\000\000\000\000\000\000\000\000\000\000\000\000\000\000\000\2057\000\000\000\000\000\000\000\000\000\000\000\000\000\000\002\000\000\000\000\000\000\000\346d\000\000\000\000\000\000\000\000\000\000\000\000\000\000\000\000\000\000\000\000\000\000\014\000\000\000\000\000\000\000\021A\000\000\000\000\000\000\000\000\000\000\000\000\000\000\316B\000\000\000\000\000\000\000\000\000\000\000\000\000\000\000\000\000\000\000\000\000\000\000\000\000\000\000\000\000\000\000\000\000\000\000\000\000\000\032\024\000\000\000\000\000\000\000\000\000\000\000\000\000\000\001\000\000\000\000\000\000\000$\007\000\000\000\000\000\000\031\023\000\000\000\000\000\000\000\000\000\000\000\000\000\000\000\000\000\000\000\000\000\000\000\000\000\000\000\000\000\000\000\000\000\000\000\000\000\000\322\003\000\000\000\000\000\000r\024\000\000\000\000\000\000\000\000\000\000\000\000\000\000\001\000\000\000\000\000\000\000\266#\000\000\000\000\000\000\001\000\000\000\000\000\000\000\000\000\000\000\000\000\000\000\000\000\000\000\000\000\000\000\000\000\000\000\000\000\000\000Z\000\000\000\000\000\000\000\000\000\000\000\000\000\000\000\000\000\000\000\000\000\000\000\000\000\000\000\000\000\000\000]0\000\000\000\000\000\000\000\000\000\000\000\000\000\000\000\000\000\000\000\000\000\000\030\000\000\000\000\000\000\000\000\000\000\000\000\000\000\000\000\000\000\000\000\000\000\000\000\000\000\000\000\000\000\000\000\000\000\000\000\000\000\000\000\000\000\000\000\000\000\000\000\000\000\000\000\000\000\000O\000\000\000\000\000\000\000\000\000\000\000\000\000\000\000\000\000\000\000\000\000\000\000\000\000\000\000\000\000\000\000\000\000\000\000\000\000\000\000\000\000\000\000\000\000\000\000\366\034\000\000\000\000\000\000\000\000\000\000\000\000\000\000\000\000\000\000\000\000\000\000\000\000\000\000\000\000\000\000\t\017\000\000\000\000\000\000\002\000\000\000\000\000\000\000\000\000\000\000\000\000\000\000\000\000\000\000\000\000\000\000\013\001\000\000\000\000\000\000\000\000\000\000\000\000\000\000\000\000\000\000\000\000\000\000\000\000\000\000\000\000\000\000\000\000\000\000\000\000\000\000\000\000\000\000\000\000\000\000\000\000\000\000\000\000\000\000\000\000\000\000\000\000\000\000\000\000\000\000\000\000\000\000\000\000\000\000\000\000\000\000\000\000\000\000\000\000\000\000\000\000\000\000\000\000\000\000\000\000\000\000\000\000\000\000\000\000\000\000\000\000\000\000\000\000\000\000\000\000\000\000\000\000\000\000\000\000\000\000\000\000\000\000\000\000\000\000J\202\000\000\000\000\000\000\000\000\000\000\000\000\000\0008\023\000\000\000\000\000\000\000\000\000\000\000\000\000\000b\000\000\000\000\000\000\000\000\000\000\000\000\000\000\000\010\000\000\000\000\000\000\000\000\000\000\000\000\000\000\000\000\000\000\000\000\000\000\000\215\002\000\000\000\000\000\000\000\000\000\000\000\000\000\000\000\000\000\000\000\000\000\000\002\000\000\000\000\000\000\000k\006\000\000\000\000\000\000\000\000\000\000\000\000\000\000\3649\000\000\000\000\000\000\224\n\000\000\000\000\000\000h2\000\000\000\000\000\000\013\000\000\000\000\000\000\000\000\000\000\000\000\000\000\000\000\000\000\000\000\000\000\000C*\000\000\000\000\000\000\000\000\000\000\000\000\000\000;\013\000\000\000\000\000\000\000\000\000\000\000\000\000\000\377\001\000\000\000\000\000\000\000\000\000\000\000\000\000\000\000\000\000\000\000\000\000\000\000\000\000\000\000\000\000\000\000\000\000\000\000\000\000\000\225]\000\000\000\000\000\000\000\000\000\000\000\000\000\000\247\026\000\000\000\000\000\000\000\000\000\000\000\000\000\000\001\000\000\000\000\000\000\000\000\000\000\000\000\000\000\000\000\000\000\000\000\000\000\000\000\000\000\000\000\000\000\000\331\001\000\000\000\000\000\000\000\000\000\000\000\000\000\000\000\000\000\000\000\000\000\000\000\000\000\000\000\000\000\000\000\000\000\000\000\000\000\000_\030\000\000\000\000\000\000\000\000\000\000\000\000\000\000\000\000\000\000\000\000\000\000l\006\000\000\000\000\000\000G*\000\000\000\000\000\000\032\003\000\000\000\000\000\000\000\000\000\000\000\000\000\000\247\002\000\000\000\000\000\000\316L\000\000\000\000\000\000\n\000\000\000\000\000\000\000 \000\000\000\000\000\000\000\334\211\000\000\000\000\000\000\r\n\000\000\000\000\000\000\000\000\000\000\000\000\000\000\000\000\000\000\000\000\000\000\000\000\000\000\000\000\000\000\000\000\000\000\000\000\000\000L\001\000\000\000\000\000\000n\000\000\000\000\000\000\000\000\000\000\000\000\000\000\000\000\000\000\000\000\000\000\000\274D\000\000\000\000\000\000\000\000\000\000\000\000\000\000\000\000\000\000\000\000\000\000\000\000\000\000\000\000\000\000\000\000\000\000\000\000\000\000\000\000\000\000\000\000\000\000\000\000\000\000\000\000\000\000\000\000\000\000\000\000\000\000\n\000\000\000\000\000\000\000\000\000\000\000\000\000\000\000\017\003\000\000\000\000\000\000\205\r\000\000\000\000\000\000\000\000\000\000\000\000\000\000\203\t\000\000\000\000\000\000\000\000\000\000\000\000\000\000\000\000\000\000\000\000\000\000\000\000\000\000\000\000\000\000\000\000\000\000\000\000\000\000\376+\000\000\000\000\000\000\000\000\000\000\000\000\000\000x\006\000\000\000\000\000\000\000\000\000\000\000\000\000\000\000\000\000\000\000\000\000\000\000\000\000\000\000\000\000\000\000\000\000\000\000\000\000\000,\025\000\000\000\000\000\000F\020\000\000\000\000\000\000\000\000\000\000\000\000\000\000\000\000\000\000\000\000\000\000\000\000\000\000\000\000\000\000\001\000\000\000\000\000\000\000;\000\000\000\000\000\000\000N\010\000\000\000\000\000\000\236\000\000\000\000\000\000\000\000\000\000\000\000\000\000\000\000\000\000\000\000\000\000\000\014\000\000\000\000\000\000\000\000\000\000\000\000\000\000\000\000\000\000\000\000\000\000\000f)\000\000\000\000\000\000\001\000\000\000\000\000\000\000pN\000\000\000\000\000\000\000\000\000\000\000\000\000\000\000\000\000\000\000\000\000\000\000\000\000\000\000\000\000\000\000\000\000\000\000\000\000\000\000\000\000\000\000\000\000\000\000\000\000\000\000\000\000\000\000\000\000\000\000\000\000\000\000\000\000\000\000\000\000\000\000\000\000\000\000\000\000\000\000\000\000\000\000\000\000\000\334\277\000\000\000\000\000\000\000\000\000\000\000\000\000\000\000\000\000\000\000\000\000\000\026\010\000\000\000\000\000\000\\\002\000\000\000\000\000\000\235\034\000\000\000\000\000\000\003\000\000\000\000\000\000\0008\017\000\000\000\000\000\000\022\002\000\000\000\000\000\000\236\001\000\000\000\000\000\000U\022\000\000\000\000\000\000\000\000\000\000\000\000\000\000\t\000\000\000\000\000\000\000\000\000\000\000\000\000\000\000\001\000\000\000\000\000\000\000~\006\000\000\000\000\000\000\000\000\000\000\000\000\000\000\000\000\000\000\000\000\000\000\000\000\000\000\000\000\000\000\000\000\000\000\000\000\000\000\252G\000\000\000\000\000\000&\016\000\000\000\000\000\000\003\000\000\000\000\000\000\000\000\000\000\000\000\000\000\000\017\027\000\000\000\000\000\000\000\000\000\000\000\000\000\000\000\000\000\000\000\000\000\000X\000\000\000\000\000\000\000\000\000\000\000\000\000\000\000\000\000\000\000\000\000\000\000Z\000\000\000\000\000\000\000\000\000\000\000\000\000\000\000\000\000\000\000\000\000\000\000\000\000\000\000\000\000\000\000\000\000\000\000\000\000\000\000\\\r\000\000\000\000\000\000\263\001\000\000\000\000\000\000\000\000\000\000\000\000\000\000\002\000\000\000\000\000\000\000\000\000\000\000\000\000\000\000\003\026\000\000\000\000\000\000r!\000\000\000\000\000\000\357\002\000\000\000\000\000\000w\n\000\000\000\000\000\000\232\017\000\000\000\000\000\000\306\331\000\000\000\000\000\000D\033\000\000\000\000\000\000\201\023\000\000\000\000\000\000\000\000\000\000\000\000\000\000\000\000\000\000\000\000\000\000\000\000\000\000\000\000\000\000\000\000\000\000\000\000\000\000\000\000\000\000\000\000\000\000\000\000\000\000\000\000\000\000\000\000\000\000\000\000\000\000\000\000\000\000\000\000\000\000\000\000\000\000\000\000\000\000\2514\000\000\000\000\000\000o%\000\000\000\000\000\000w\004\000\000\000\000\000\000\273\207\000\000\000\000\000\000\000\000\000\000\000\000\000\000\000\000\000\000\000\000\000\000\000\000\000\000\000\000\000\000\000\000\000\000\000\000\000\000\002\000\000\000\000\000\000\000\000\000\000\000\000\000\000\000\334\025\000\000\000\000\000\000\000\000\000\000\000\000\000\000\000\000\000\000\000\000\000\000\000\000\000\000\000\000\000\000\035\003\000\000\000\000\000\000\007\000\000\000\000\000\000\000\001\000\000\000\000\000\000\000\000\000\000\000\000\000\000\000\263/\001\000\000\000\000\000\366\027\000\000\000\000\000\000\000\000\000\000\000\000\000\000\000\000\000\000\000\000\000\000\000\000\000\000\000\000\000\000\000\000\000\000\000\000\000\000\000\000\000\000\000\000\000\000\000\000\000\000\000\000\000\000\000\000\000\000\000\000\000\000\000\000\000\000\000\000\000\000\000\000\000\000\000\000\000\000\000\000\000\000\000\000\000\000\327\000\000\000\000\000\000\000\000\000\000\000\000\000\000\000\000\000\000\000\000\000\000\000\001\000\000\000\000\000\000\000\000\000\000\000\000\000\000\000\000\000\000\000\000\000\000\000\312\006\000\000\000\000\000\000\244\002\000\000\000\000\000\000m\t\000\000\000\000\000\000\000\000\000\000\000\000\000\000\000\000\000\000\000\000\000\000\000\000\000\000\000\000\000\000\000\000\000\000\000\000\000\000\227\001\000\000\000\000\000\000\000\000\000\000\000\000\000\000\243\001\000\000\000\000\000\000\000\000\000\000\000\000\000\000\001\000\000\000\000\000\000\000\000\000\000\000\000\000\000\000\000\000\000\000\000\000\000\000\000\000\000\000\000\000\000\000\000\000\000\000\000\000\000\000\000\000\000\000\000\000\000\000\000\000\000\000\000\000\000\000\000\000\000\000\000\000\000\000\000\000\000\000\000\000\000\000\016\000\000\000\000\000\000\000\000\000\000\000\000\000\000\000\005\022\000\000\000\000\000\000\000\000\000\000\000\000\000\000\000\000\000\000\000\000\000\000\000\000\000\000\000\000\000\000\225g\000\000\000\000\000\000\000\000\000\000\000\000\000\000\000\000\000\000\000\000\000\000\000\000\000\000\000\000\000\000\000\000\000\000\000\000\000\000\000\000\000\000\000\000\000\000\000\000\000\000\000\000\000\000\000\000\000\000\000\000\000\000\000\000\000\000\000\000\000\000\000\000\000\000\000\000\000\000\000\000\000\000\000\000\000\000\000\000\000\000\000\000\000\000G7\000\000\000\000\000\000\000\000\000\000\000\000\000\000\000\000\000\000\000\000\000\000\000\000\000\000\000\000\000\000\000\000\000\000\000\000\000\000\000\000\000\000\000\000\000\000\000\000\000\000\000\000\000\000\000\000\000\000\000\000\000\000\000\000\000\000\000\000\000\000\013\000\000\000\000\000\000\000\000\000\000\000\000\000\000\000\000\000\000\000\000\000\000\000\000\000\000\000\000\000\000\000\000\000\000\000\000\000\000\000\002\000\000\000\000\000\000\000\000\000\000\000\000\000\000\000\024\000\000\000\000\000\000\000\000\000\000\000\000\000\000\000\000\000\000\000\000\000\000\000\000\000\000\000\000\000\000\000\002\000\000\000\000\000\000\000>A\000\000\000\000\000\000\000\000\000\000\000\000\000\000\"\020\000\000\000\000\000\000\000\000\000\000\000\000\000\000\000\000\000\000\000\000\000\000\000\000\000\000\000\000\000\000\000\000\000\000\000\000\000\000\205\037\000\000\000\000\000\000\000\000\000\000\000\000\000\000\310\004\000\000\000\000\000\000\022\000\000\000\000\000\000\000\225*\000\000\000\000\000\000\000\000\000\000\000\000\000\000\000\000\000\000\000\000\000\000\000\000\000\000\000\000\000\000\000\000\000\000\000\000\000\000Ab\000\000\000\000\000\000\000\000\000\000\000\000\000\000\000\000\000\000\000\000\000\000\000\000\000\000\000\000\000\000\000\000\000\000\000\000\000\000\000\000\000\000\000\000\000\000\000\000\000\000\000\000\000\000\000\000\000\000\000\000\000\000\000\000\000\000\000\000\000\000\000\000\000\000\000\000\000\000\000\000\000\000\000\000\000\000\375\026\000\000\000\000\000\000>\000\000\000\000\000\000\000\000\000\000\000\000\000\000\000\220K\000\000\000\000\000\000\000\000\000\000\000\000\000\000\225%\000\000\000\000\000\000\000\000\000\000\000\000\000\000\000\000\000\000\000\000\000\000\000\000\000\000\000\000\000\000\000\000\000\000\000\000\000\000\002\000\000\000\000\000\000\000\000\000\000\000\000\000\000\000\000\000\000\000\000\000\000\000\000\000\000\000\000\000\000\000\236\017\000\000\000\000\000\000\000\000\000\000\000\000\000\000x\000\000\000\000\000\000\000\000\000\000\000\000\000\000\000\000\000\000\000\000\000\000\000\000\000\000\000\000\000\000\000\000\000\000\000\000\000\000\000\000\000\000\000\000\000\000\000"
      }
    }
  }
}
node {
  name: "Const_1"
  op: "Const"
  device: "/device:CPU:0"
  attr {
    key: "_output_shapes"
    value {
      list {
        shape {
          dim {
            size: 537
          }
        }
      }
    }
  }
  attr {
    key: "dtype"
    value {
      type: DT_INT64
    }
  }
  attr {
    key: "value"
    value {
      tensor {
        dtype: DT_INT64
        tensor_shape {
          dim {
            size: 537
          }
        }
        tensor_content: "0\000\000\000\000\000\000\000t\000\000\000\000\000\000\000\201\000\000\000\000\000\000\000\273\002\000\000\000\000\000\000\260\000\000\000\000\000\000\000#\014\000\000\000\000\000\000\371\000\000\000\000\000\000\0006\007\000\000\000\000\000\000\261\006\000\000\000\000\000\000\322\001\000\000\000\000\000\000N\000\000\000\000\000\000\000q\001\000\000\000\000\000\0004\000\000\000\000\000\000\000\202\017\000\000\000\000\000\000l\000\000\000\000\000\000\000\204\000\000\000\000\000\000\000J\001\000\000\000\000\000\000\003\000\000\000\000\000\000\000\247\002\000\000\000\000\000\000\226\000\000\000\000\000\000\000\333\001\000\000\000\000\000\000\021\336\000\000\000\000\000\000&\001\000\000\000\000\000\000\214\000\000\000\000\000\000\000\023\001\000\000\000\000\000\000\271\014\000\000\000\000\000\000\241\001\000\000\000\000\000\000\371\000\000\000\000\000\000\000\350\000\000\000\000\000\000\000k\000\000\000\000\000\000\000\225\000\000\000\000\000\000\000\234\000\000\000\000\000\000\000\275\004\000\000\000\000\000\000\202\000\000\000\000\000\000\000d\001\000\000\000\000\000\000\006\000\000\000\000\000\000\000\301\000\000\000\000\000\000\000U\000\000\000\000\000\000\000\261\002\000\000\000\000\000\000\267\000\000\000\000\000\000\000\004\000\000\000\000\000\000\0009\004\000\000\000\000\000\000\211\000\000\000\000\000\000\000O\001\000\000\000\000\000\000q\004\000\000\000\000\000\000t\002\000\000\000\000\000\000Q\000\000\000\000\000\000\000f\000\000\000\000\000\000\000=\001\000\000\000\000\000\000\313\006\000\000\000\000\000\000\006\003\000\000\000\000\000\000\230\000\000\000\000\000\000\000m\003\000\000\000\000\000\000C\000\000\000\000\000\000\000\301\000\000\000\000\000\000\000i\017\000\000\000\000\000\0001\001\000\000\000\000\000\000n\000\000\000\000\000\000\000\005\024\000\000\000\000\000\000\245\001\000\000\000\000\000\000\216\003\000\000\000\000\000\000^\000\000\000\000\000\000\000Y\000\000\000\000\000\000\000\223\000\000\000\000\000\000\000\234\002\000\000\000\000\000\000\245\000\000\000\000\000\000\000G\001\000\000\000\000\000\000\310\017\000\000\000\000\000\000\227\000\000\000\000\000\000\000%\000\000\000\000\000\000\000R\001\000\000\000\000\000\000G\000\000\000\000\000\000\000\267\002\000\000\000\000\000\000\265\002\000\000\000\000\000\000i\000\000\000\000\000\000\000\322\000\000\000\000\000\000\000d\000\000\000\000\000\000\0001\002\000\000\000\000\000\000\334\000\000\000\000\000\000\000)\000\000\000\000\000\000\000\000\000\000\000\000\000\000\000\215\000\000\000\000\000\000\000\304\000\000\000\000\000\000\000o\000\000\000\000\000\000\000\202\000\000\000\000\000\000\000h\000\000\000\000\000\000\000L\000\000\000\000\000\000\000\305\000\000\000\000\000\000\000\274\002\000\000\000\000\000\000/\002\000\000\000\000\000\000Z\000\000\000\000\000\000\000f\001\000\000\000\000\000\000O\000\000\000\000\000\000\000\302\001\000\000\000\000\000\000{\000\000\000\000\000\000\000\201\000\000\000\000\000\000\000\232\001\000\000\000\000\000\000x\000\000\000\000\000\000\000q\001\000\000\000\000\000\000\350\001\000\000\000\000\000\000\241\000\000\000\000\000\000\000\235\000\000\000\000\000\000\000\030\003\000\000\000\000\000\0008\000\000\000\000\000\000\000]3\000\000\000\000\000\000\035\000\000\000\000\000\000\000X\000\000\000\000\000\000\000\361\006\000\000\000\000\000\000\310\001\000\000\000\000\000\000\032\002\000\000\000\000\000\000\026\001\000\000\000\000\000\000\355\260\000\000\000\000\000\000Z\000\000\000\000\000\000\000\316\001\000\000\000\000\000\000I\000\000\000\000\000\000\000\241\000\000\000\000\000\000\000\010A\000\000\000\000\000\000_\000\000\000\000\000\000\000z\000\000\000\000\000\000\000\252\000\000\000\000\000\000\000w\000\000\000\000\000\000\000g\000\000\000\000\000\000\000e\000\000\000\000\000\000\000\203\000\000\000\000\000\000\000\237\002\000\000\000\000\000\000r\000\000\000\000\000\000\000\320\t\000\000\000\000\000\000\004\002\000\000\000\000\000\000\313\003\000\000\000\000\000\000\326\000\000\000\000\000\000\000~\000\000\000\000\000\000\000t\000\000\000\000\000\000\000\331\001\000\000\000\000\000\000\205\t\000\000\000\000\000\000r\000\000\000\000\000\000\000@\001\000\000\000\000\000\000n\000\000\000\000\000\000\000f\000\000\000\000\000\000\000z\000\000\000\000\000\000\000\253\000\000\000\000\000\000\000*\000\000\000\000\000\000\000N\001\000\000\000\000\000\000\032\001\000\000\000\000\000\000\244\003\000\000\000\000\000\000\n\001\000\000\000\000\000\000\271\005\000\000\000\000\000\000\365\001\000\000\000\000\000\000\244\000\000\000\000\000\000\000c\000\000\000\000\000\000\0006\002\000\000\000\000\000\000R1\000\000\000\000\000\000=\000\000\000\000\000\000\000#\004\000\000\000\000\000\000\264\000\000\000\000\000\000\000\005\001\000\000\000\000\000\000\222\000\000\000\000\000\000\000\226\000\000\000\000\000\000\000\272\001\000\000\000\000\000\000\223\000\000\000\000\000\000\000N\002\000\000\000\000\000\000\200\001\000\000\000\000\000\000\026\007\000\000\000\000\000\000\201\000\000\000\000\000\000\000\214\000\000\000\000\000\000\000f\000\000\000\000\000\000\000%\000\000\000\000\000\000\000\035\001\000\000\000\000\000\000\031\003\000\000\000\000\000\000\240\001\000\000\000\000\000\000\330\000\000\000\000\000\000\000\206\002\000\000\000\000\000\000\316\004\000\000\000\000\000\000\314\003\000\000\000\000\000\000k\000\000\000\000\000\000\000B\001\000\000\000\000\000\0007\003\000\000\000\000\000\000l\000\000\000\000\000\000\000l\000\000\000\000\000\000\000e\000\000\000\000\000\000\000,\001\000\000\000\000\000\000\225\000\000\000\000\000\000\0002\000\000\000\000\000\000\000\036\000\000\000\000\000\000\000L\000\000\000\000\000\000\000\204\000\000\000\000\000\000\000\236\000\000\000\000\000\000\000v\000\000\000\000\000\000\000\302\003\000\000\000\000\000\000\225\000\000\000\000\000\000\000\244\020\000\000\000\000\000\000\204\000\000\000\000\000\000\000\314\001\000\000\000\000\000\000\227\000\000\000\000\000\000\000@\000\000\000\000\000\000\000+\000\000\000\000\000\000\000\342\003\000\000\000\000\000\000P\000\000\000\000\000\000\000n\000\000\000\000\000\000\000g\000\000\000\000\000\000\000\224\001\000\000\000\000\000\000\250\002\000\000\000\000\000\000\257\000\000\000\000\000\000\000$\002\000\000\000\000\000\000\254\000\000\000\000\000\000\000p\000\000\000\000\000\000\000}\000\000\000\000\000\000\000V\000\000\000\000\000\000\000\032\001\000\000\000\000\000\000_\000\000\000\000\000\000\000\220\000\000\000\000\000\000\000\023\000\000\000\000\000\000\000P\000\000\000\000\000\000\0007\000\000\000\000\000\000\000P\000\000\000\000\000\000\000Y\000\000\000\000\000\000\000\257\000\000\000\000\000\000\000\275\000\000\000\000\000\000\000t\001\000\000\000\000\000\000\360\001\000\000\000\000\000\000\037\000\000\000\000\000\000\000*0\000\000\000\000\000\000\376\004\000\000\000\000\000\0005\001\000\000\000\000\000\000m\000\000\000\000\000\000\000U\000\000\000\000\000\000\000/\000\000\000\000\000\000\000\377\004\000\000\000\000\000\000j\000\000\000\000\000\000\000X\000\000\000\000\000\000\000\304\001\000\000\000\000\000\000s\000\000\000\000\000\000\000b\004\000\000\000\000\000\000b\002\000\000\000\000\000\000\351\001\000\000\000\000\000\000\214\002\000\000\000\000\000\000\222\020\000\000\000\000\000\000H\002\000\000\000\000\000\000l\002\000\000\000\000\000\000A\001\000\000\000\000\000\000\276\000\000\000\000\000\000\000`\000\000\000\000\000\000\000\244\004\000\000\000\000\000\000\274\000\000\000\000\000\000\000\264\000\000\000\000\000\000\000\245\000\000\000\000\000\000\000B\000\000\000\000\000\000\000e\n\000\000\000\000\000\000\314\001\000\000\000\000\000\000\220\000\000\000\000\000\000\000*\000\000\000\000\000\000\000X\010\000\000\000\000\000\000a\000\000\000\000\000\000\000}\001\000\000\000\000\000\000~\000\000\000\000\000\000\000J\002\000\000\000\000\000\000]\000\000\000\000\000\000\000\223\000\000\000\000\000\000\000\177\000\000\000\000\000\000\000\033\000\000\000\000\000\000\000&\000\000\000\000\000\000\000N\000\000\000\000\000\000\000\264\000\000\000\000\000\000\000\311\000\000\000\000\000\000\0003\002\000\000\000\000\000\000~\000\000\000\000\000\000\000\254\000\000\000\000\000\000\000\226\000\000\000\000\000\000\000,\000\000\000\000\000\000\000\013\000\000\000\000\000\000\000{\000\000\000\000\000\000\000\214\000\000\000\000\000\000\000\201\202\000\000\000\000\000\000n\001\000\000\000\000\000\000z\000\000\000\000\000\000\000\\\004*\000\000\000\000\000*\000\000\000\000\000\000\000\210\000\000\000\000\000\000\000\263\000\000\000\000\000\000\000i\001\000\000\000\000\000\000\005\001\000\000\000\000\000\000\013\000\000\000\000\000\000\000#\000\000\000\000\000\000\0001\000\000\000\000\000\000\000\203\000\000\000\000\000\000\000+\002\000\000\000\000\000\000\335\000\000\000\000\000\000\0001\000\000\000\000\000\000\000^\000\000\000\000\000\000\000\237\000\000\000\000\000\000\000\025\001\000\000\000\000\000\000P\000\000\000\000\000\000\000*\000\000\000\000\000\000\000F\000\000\000\000\000\000\000\213\002\000\000\000\000\000\000\006\001\000\000\000\000\000\000\332\002\000\000\000\000\000\000\250\000\000\000\000\000\000\000\361\004\000\000\000\000\000\000 \002\000\000\000\000\000\000D\n\000\000\000\000\000\000\215\000\000\000\000\000\000\000G\000\000\000\000\000\000\000~\003\000\000\000\000\000\000\252\000\000\000\000\000\000\000\371\001\000\000\000\000\000\000\363\n\000\000\000\000\000\000?\003\000\000\000\000\000\000L\000\000\000\000\000\000\000\260\001\000\000\000\000\000\000)\002\000\000\000\000\000\000\346\002\000\000\000\000\000\000i\000\000\000\000\000\000\000u\000\000\000\000\000\000\000G\002\000\000\000\000\000\000\'\000\000\000\000\000\000\000P\000\000\000\000\000\000\000\007\001\000\000\000\000\000\000N\000\000\000\000\000\000\000\227\000\000\000\000\000\000\000z\000\000\000\000\000\000\000q\001\000\000\000\000\000\000\272\000\000\000\000\000\000\000~\000\000\000\000\000\000\000\263\000\000\000\000\000\000\000f\002\000\000\000\000\000\000t\002\000\000\000\000\000\000l\000\000\000\000\000\000\0001\"\000\000\000\000\000\000\212\001\000\000\000\000\000\000:\000\000\000\000\000\000\000\204\000\000\000\000\000\000\000\246\000\000\000\000\000\000\000)\002\000\000\000\000\000\000\242\000\000\000\000\000\000\000r\001\000\000\000\000\000\000\306\000\000\000\000\000\000\000\301+\000\000\000\000\000\000Z\000\000\000\000\000\000\000`\000\000\000\000\000\000\000\025\001\000\000\000\000\000\000\201\263\000\000\000\000\000\000\010\003\000\000\000\000\000\000\326\000\000\000\000\000\000\000\360\002\000\000\000\000\000\000k\000\000\000\000\000\000\000:\006\000\000\000\000\000\000\206\002\000\000\000\000\000\000\225\000\000\000\000\000\000\000\243\000\000\000\000\000\000\000\216\000\000\000\000\000\000\000\333\001\000\000\000\000\000\000\266\r\000\000\000\000\000\000\325\001\000\000\000\000\000\000\305\001\000\000\000\000\000\000\261\000\000\000\000\000\000\000\272\000\000\000\000\000\000\0007\002\000\000\000\000\000\000w\001\000\000\000\000\000\000q\000\000\000\000\000\000\000]\001\000\000\000\000\000\000\252\002\000\000\000\000\000\000`\001\000\000\000\000\000\000\212\001\000\000\000\000\000\000*\000\000\000\000\000\000\0000\000\000\000\000\000\000\000e\000\000\000\000\000\000\000\035\000\000\000\000\000\000\000\315\002\000\000\000\000\000\000s\000\000\000\000\000\000\000\001\000\000\000\000\000\000\000r\006\000\000\000\000\000\000\266\001\000\000\000\000\000\000\271\001\000\000\000\000\000\000a\001\000\000\000\000\000\000&\001\000\000\000\000\000\000\303\001\000\000\000\000\000\000\231\000\000\000\000\000\000\000\377\003\000\000\000\000\000\000\266\001\000\000\000\000\000\000L\003\000\000\000\000\000\000$\001\000\000\000\000\000\000+\002\000\000\000\000\000\0009\000\000\000\000\000\000\000z\001\000\000\000\000\000\000\232\002\000\000\000\000\000\000b\000\000\000\000\000\000\000\263\000\000\000\000\000\000\000g\000\000\000\000\000\000\000\242\000\000\000\000\000\000\0001\000\000\000\000\000\000\000\322\005\000\000\000\000\000\000\245\000\000\000\000\000\000\000:\000\000\000\000\000\000\000\315\001\000\000\000\000\000\000R\004\000\000\000\000\000\000T\000\000\000\000\000\000\000\330\001\000\000\000\000\000\000\270\000\000\000\000\000\000\000\267\001\000\000\000\000\000\000R\000\000\000\000\000\000\000\272\003\000\000\000\000\000\000+\001\000\000\000\000\000\000\002\002\000\000\000\000\000\000\246\006\000\000\000\000\000\0005\000\000\000\000\000\000\000r\000\000\000\000\000\000\000+\000\000\000\000\000\000\000\242\000\000\000\000\000\000\000\243\001\000\000\000\000\000\000/\000\000\000\000\000\000\000\002\000\000\000\000\000\000\000i\004\000\000\000\000\000\000M\\\000\000\000\000\000\000\333\001\000\000\000\000\000\000\220\000\000\000\000\000\000\000\355\001\000\000\000\000\000\000\370\000\000\000\000\000\000\0005\000\000\000\000\000\000\000`\000\000\000\000\000\000\0009\000\000\000\000\000\000\000\376\002\000\000\000\000\000\000E\000\000\000\000\000\000\000w\000\000\000\000\000\000\000\204\006\000\000\000\000\000\000z\000\000\000\000\000\000\000}\000\000\000\000\000\000\000X\004\000\000\000\000\000\000\317\005\000\000\000\000\000\0008\000\000\000\000\000\000\0005\000\000\000\000\000\000\000K\t\000\000\000\000\000\000\370\000\000\000\000\000\000\000t\000\000\000\000\000\000\000Y\000\000\000\000\000\000\000\n\002\000\000\000\000\000\000h\000\000\000\000\000\000\000#\000\000\000\000\000\000\000\223\001\000\000\000\000\000\000F\001\000\000\000\000\000\000o\000\000\000\000\000\000\000\232\026\000\000\000\000\000\000/\000\000\000\000\000\000\000\223\000\000\000\000\000\000\000\226\000\000\000\000\000\000\000h\000\000\000\000\000\000\000J\000\000\000\000\000\000\000i\000\000\000\000\000\000\000*\000\000\000\000\000\000\000z\000\000\000\000\000\000\000\354\000\000\000\000\000\000\000\036\002\000\000\000\000\000\000\337\001\000\000\000\000\000\000z\000\000\000\000\000\000\000\214\002\000\000\000\000\000\000i\000\000\000\000\000\000\000\332\002\000\000\000\000\000\000\232\000\000\000\000\000\000\000\271\000\000\000\000\000\000\000\002\002\000\000\000\000\000\000\251\000\000\000\000\000\000\000Q\000\000\000\000\000\000\000\000\000\000\000\000\000\000\000u\000\000\000\000\000\000\000\211\000\000\000\000\000\000\000}\001\000\000\000\000\000\000\204\000\000\000\000\000\000\000k\000\000\000\000\000\000\000\333\001\000\000\000\000\000\0006\000\000\000\000\000\000\000\360\001\000\000\000\000\000\000m\000\000\000\000\000\000\000B\000\000\000\000\000\000\000\230\000\000\000\000\000\000\000$\000\000\000\000\000\000\000\233\000\000\000\000\000\000\000\357\002\000\000\000\000\000\000Q\002\000\000\000\000\000\000~\004\000\000\000\000\000\000R\000\000\000\000\000\000\000\022\000\000\000\000\000\000\000S\000\000\000\000\000\000\000\336\002\000\000\000\000\000\000$\000\000\000\000\000\000\000\027\000\000\000\000\000\000\000Q\000\000\000\000\000\000\000\352\001\000\000\000\000\000\000\267\001\000\000\000\000\000\000g\001\000\000\000\000\000\000L\004\000\000\000\000\000\000u\000\000\000\000\000\000\000x\002\000\000\000\000\000\000t\000\000\000\000\000\000\000\242\001\000\000\000\000\000\000^\000\000\000\000\000\000\0004\000\000\000\000\000\000\000>\n\000\000\000\000\000\000L\000\000\000\000\000\000\000\\\000\000\000\000\000\000\000\'\002\000\000\000\000\000\000\\\001\000\000\000\000\000\000\226\000\000\000\000\000\000\000\031\002\000\000\000\000\000\000\300\000\000\000\000\000\000\000\010\000\000\000\000\000\000\000\313\004\000\000\000\000\000\000\224\001\000\000\000\000\000\000\262\000\000\000\000\000\000\000h\000\000\000\000\000\000\000?\000\000\000\000\000\000\000\177\000\000\000\000\000\000\000\000\000\000\000\000\000\000\000-\000\000\000\000\000\000\000\221\000\000\000\000\000\000\000\n\001\000\000\000\000\000\000,\000\000\000\000\000\000\000\236\005\000\000\000\000\000\000B\000\000\000\000\000\000\000\221\000\000\000\000\000\000\000DS\000\000\000\000\000\000\324\000\000\000\000\000\000\000T\t\000\000\000\000\000\0003\000\000\000\000\000\000\000m\000\000\000\000\000\000\000j\000\000\000\000\000\000\000\241\000\000\000\000\000\000\000\037\001\000\000\000\000\000\000\000\001\000\000\000\000\000\000\225\000\000\000\000\000\000\000\202\000\000\000\000\000\000\000\266\000\000\000\000\000\000\0006\001\000\000\000\000\000\000\203\004\000\000\000\000\000\000\256\000\000\000\000\000\000\000T\000\000\000\000\000\000\000p\000\000\000\000\000\000\000\312\000\000\000\000\000\000\000\200\000\000\000\000\000\000\000"
      }
    }
  }
}
node {
  name: "Const_2"
  op: "Const"
  device: "/device:CPU:0"
  attr {
    key: "_output_shapes"
    value {
      list {
        shape {
          dim {
            size: 537
          }
        }
      }
    }
  }
  attr {
    key: "dtype"
    value {
      type: DT_INT64
    }
  }
  attr {
    key: "value"
    value {
      tensor {
        dtype: DT_INT64
        tensor_shape {
          dim {
            size: 537
          }
        }
        tensor_content: "u\000\000\000\000\000\000\000\341\001\000\000\000\000\000\000q\002\000\000\000\000\000\000\003\007\000\000\000\000\000\000%\004\000\000\000\000\000\000\r\004\000\000\000\000\000\000s\004\000\000\000\000\000\000\271\005\000\000\000\000\000\000^\010\000\000\000\000\000\000\232\005\000\000\000\000\000\000#\002\000\000\000\000\000\000\305\004\000\000\000\000\000\000\375\001\000\000\000\000\000\000$\007\000\000\000\000\000\000\225\004\000\000\000\000\000\000\305\000\000\000\000\000\000\000\034\000\000\000\000\000\000\000\027\000\000\000\000\000\000\0008\006\000\000\000\000\000\000\025\005\000\000\000\000\000\000\317\004\000\000\000\000\000\000\034\330\000\000\000\000\000\000\036\000\000\000\000\000\000\0001\002\000\000\000\000\000\000\204\003\000\000\000\000\000\000o\020\000\000\000\000\000\000\222\002\000\000\000\000\000\000\204\000\000\000\000\000\000\000W\004\000\000\000\000\000\000w\002\000\000\000\000\000\000\250\003\000\000\000\000\000\000B\002\000\000\000\000\000\000\307\006\000\000\000\000\000\000\357\004\000\000\000\000\000\000\024\005\000\000\000\000\000\000*\000\000\000\000\000\000\000@\003\000\000\000\000\000\000\006\002\000\000\000\000\000\000\276\002\000\000\000\000\000\000\356\000\000\000\000\000\000\000\004\000\000\000\000\000\000\000\204\006\000\000\000\000\000\000\270\001\000\000\000\000\000\000y\001\000\000\000\000\000\000\227\007\000\000\000\000\000\000\364\004\000\000\000\000\000\000@\001\000\000\000\000\000\000\\\002\000\000\000\000\000\000\302\000\000\000\000\000\000\000\363\003\000\000\000\000\000\000\342\000\000\000\000\000\000\000\242\003\000\000\000\000\000\000\360\005\000\000\000\000\000\000\350\001\000\000\000\000\000\000:\004\000\000\000\000\000\000f\010\000\000\000\000\000\000\201\003\000\000\000\000\000\000\260\004\000\000\000\000\000\000x\027\000\000\000\000\000\000\000\007\000\000\000\000\000\000\260\006\000\000\000\000\000\000z\001\000\000\000\000\000\000\311\001\000\000\000\000\000\000\343\001\000\000\000\000\000\000\241\002\000\000\000\000\000\000\342\005\000\000\000\000\000\000\307\n\000\000\000\000\000\000e\007\000\000\000\000\000\000\221\001\000\000\000\000\000\000O\000\000\000\000\000\000\000\230\006\000\000\000\000\000\000D\002\000\000\000\000\000\000!\002\000\000\000\000\000\000\\\007\000\000\000\000\000\000N\001\000\000\000\000\000\000:\006\000\000\000\000\000\000\275\001\000\000\000\000\000\000U\006\000\000\000\000\000\000\013\001\000\000\000\000\000\000C\000\000\000\000\000\000\000\013\000\000\000\000\000\000\000\013\002\000\000\000\000\000\000\322\000\000\000\000\000\000\000F\002\000\000\000\000\000\000\032\003\000\000\000\000\000\000A\001\000\000\000\000\000\000R\000\000\000\000\000\000\000o\002\000\000\000\000\000\000\030\007\000\000\000\000\000\000\224\006\000\000\000\000\000\000 \002\000\000\000\000\000\000\332\003\000\000\000\000\000\000j\001\000\000\000\000\000\000;\006\000\000\000\000\000\000C\002\000\000\000\000\000\000\201\000\000\000\000\000\000\000~\006\000\000\000\000\000\000>\004\000\000\000\000\000\000\274\004\000\000\000\000\000\000w\006\000\000\000\000\000\000\364\002\000\000\000\000\000\000\034\006\000\000\000\000\000\000\016\006\000\000\000\000\000\000(\001\000\000\000\000\000\000\315\037\000\000\000\000\000\000>\000\000\000\000\000\000\000\271\001\000\000\000\000\000\000\003\007\000\000\000\000\000\000\236\006\000\000\000\000\000\000\234\006\000\000\000\000\000\000\241\005\000\000\000\000\000\000C\001\000\000\000\000\000\000\036\002\000\000\000\000\000\000x\001\000\000\000\000\000\000\037\000\000\000\000\000\000\000\300\002\000\000\000\000\000\000\327\003\000\000\000\000\000\000\363\001\000\000\000\000\000\000\t\002\000\000\000\000\000\000\023\005\000\000\000\000\000\000\314\002\000\000\000\000\000\000\340\000\000\000\000\000\000\000\363\004\000\000\000\000\000\000\244\001\000\000\000\000\000\000z\003\000\000\000\000\000\000\371\001\000\000\000\000\000\000@\014\000\000\000\000\000\000\374\000\000\000\000\000\000\000\002\001\000\000\000\000\000\000(\002\000\000\000\000\000\000\273\002\000\000\000\000\000\000\312\001\000\000\000\000\000\000\030\006\000\000\000\000\000\000.\016\000\000\000\000\000\000j\002\000\000\000\000\000\000s\002\000\000\000\000\000\000\310\003\000\000\000\000\000\000\230\002\000\000\000\000\000\000\264\003\000\000\000\000\000\000\t\002\000\000\000\000\000\000\r\001\000\000\000\000\000\000\223\003\000\000\000\000\000\000P\000\000\000\000\000\000\0009\001\000\000\000\000\000\000\303\003\000\000\000\000\000\000\017\n\000\000\000\000\000\000\n\002\000\000\000\000\000\000\320\001\000\000\000\000\000\000\314\003\000\000\000\000\000\000 \006\000\000\000\000\000\000r\002\000\000\000\000\000\000a\001\000\000\000\000\000\000\210\005\000\000\000\000\000\000\007\003\000\000\000\000\000\000\252\004\000\000\000\000\000\000\007\002\000\000\000\000\000\000w\003\000\000\000\000\000\000(\001\000\000\000\000\000\000\216\002\000\000\000\000\000\000;\006\000\000\000\000\000\000@\001\000\000\000\000\000\000\001\001\000\000\000\000\000\000\373\001\000\000\000\000\000\000Q\005\000\000\000\000\000\000d\002\000\000\000\000\000\000\371\000\000\000\000\000\000\000\007\001\000\000\000\000\000\0006\005\000\000\000\000\000\000j\006\000\000\000\000\000\000\352\002\000\000\000\000\000\000\330\000\000\000\000\000\000\000x\006\000\000\000\000\000\000\212\006\000\000\000\000\000\0009\002\000\000\000\000\000\000#\002\000\000\000\000\000\000\241\005\000\000\000\000\000\000w\002\000\000\000\000\000\000P\004\000\000\000\000\000\000\377\001\000\000\000\000\000\000\013\002\000\000\000\000\000\000\\\003\000\000\000\000\000\0003\001\000\000\000\000\000\000=\000\000\000\000\000\000\000#\001\000\000\000\000\000\000\234\001\000\000\000\000\000\000\217\002\000\000\000\000\000\000\332\004\000\000\000\000\000\000=\007\000\000\000\000\000\000d\005\000\000\000\000\000\000\373\020\000\000\000\000\000\000\026\003\000\000\000\000\000\000\307\006\000\000\000\000\000\000\023\002\000\000\000\000\000\000\344\001\000\000\000\000\000\000\363\000\000\000\000\000\000\000\206\002\000\000\000\000\000\000C\000\000\000\000\000\000\0004\002\000\000\000\000\000\000\231\002\000\000\000\000\000\000C\001\000\000\000\000\000\000\307\005\000\000\000\000\000\000\375\003\000\000\000\000\000\000\027\006\000\000\000\000\000\000\233\000\000\000\000\000\000\000\242\001\000\000\000\000\000\000~\002\000\000\000\000\000\000\030\002\000\000\000\000\000\0009\006\000\000\000\000\000\000\n\002\000\000\000\000\000\000\360\001\000\000\000\000\000\000T\000\000\000\000\000\000\000\350\001\000\000\000\000\000\000m\002\000\000\000\000\000\000\306\004\000\000\000\000\000\000\337\001\000\000\000\000\000\000\325\003\000\000\000\000\000\000\327\002\000\000\000\000\000\000\221\006\000\000\000\000\000\000]\004\000\000\000\000\000\000\364\000\000\000\000\000\000\000\303\003\000\000\000\000\000\000\334\006\000\000\000\000\000\000\217\000\000\000\000\000\000\000\372\001\000\000\000\000\000\000\207\002\000\000\000\000\000\000,\001\000\000\000\000\000\0000\007\000\000\000\000\000\000<\002\000\000\000\000\000\000\335\000\000\000\000\000\000\000\001\002\000\000\000\000\000\000\244\001\000\000\000\000\000\000t\006\000\000\000\000\000\0005\007\000\000\000\000\000\000S\000\000\000\000\000\000\000\353\005\000\000\000\000\000\000R\020\000\000\000\000\000\000M\003\000\000\000\000\000\000\235\001\000\000\000\000\000\000\277\000\000\000\000\000\000\000\263\002\000\000\000\000\000\000L\002\000\000\000\000\000\000r\005\000\000\000\000\000\000\017\002\000\000\000\000\000\000\310\001\000\000\000\000\000\000\030\002\000\000\000\000\000\0009\000\000\000\000\000\000\000\261\014\000\000\000\000\000\0004\006\000\000\000\000\000\000\263\001\000\000\000\000\000\000\033\001\000\000\000\000\000\000\345\003\000\000\000\000\000\000\355\001\000\000\000\000\000\000^\001\000\000\000\000\000\000\345\001\000\000\000\000\000\000}\006\000\000\000\000\000\000o\002\000\000\000\000\000\000\370\001\000\000\000\000\000\000\260\004\000\000\000\000\000\000)\000\000\000\000\000\000\000\254\000\000\000\000\000\000\000\255\001\000\000\000\000\000\000\025\002\000\000\000\000\000\000\356\005\000\000\000\000\000\000\313\005\000\000\000\000\000\000]\001\000\000\000\000\000\000%\002\000\000\000\000\000\000\205\000\000\000\000\000\000\000D\000\000\000\000\000\000\000Z\000\000\000\000\000\000\000\352\004\000\000\000\000\000\000\026\001\000\000\000\000\000\000\361\005\000\000\000\000\000\000\356\000\000\000\000\000\000\000\206\000\000\000\000\000\000\000n\007\000\000\000\000\000\000r\000\000\000\000\000\000\000\t\005\000\000\000\000\000\000\037\006\000\000\000\000\000\000\247\006\000\000\000\000\000\0000\004\000\000\000\000\000\000\001\000\000\000\000\000\000\000\002\000\000\000\000\000\000\000\025\001\000\000\000\000\000\000\331\001\000\000\000\000\000\000{\001\000\000\000\000\000\000T\002\000\000\000\000\000\000\255\002\000\000\000\000\000\000\013\002\000\000\000\000\000\000\022\002\000\000\000\000\000\000\354\002\000\000\000\000\000\000\316\001\000\000\000\000\000\000T\001\000\000\000\000\000\000J\000\000\000\000\000\000\000f\006\000\000\000\000\000\000T\001\000\000\000\000\000\000-\002\000\000\000\000\000\000\314\001\000\000\000\000\000\000_\003\000\000\000\000\000\000\271\006\000\000\000\000\000\000\241\014\000\000\000\000\000\000B\003\000\000\000\000\000\000\231\002\000\000\000\000\000\000\333\000\000\000\000\000\000\000\013\002\000\000\000\000\000\000\010\002\000\000\000\000\000\000\231\020\000\000\000\000\000\000\025\007\000\000\000\000\000\000^\000\000\000\000\000\000\000q\006\000\000\000\000\000\000y\001\000\000\000\000\000\000\224\000\000\000\000\000\000\000S\001\000\000\000\000\000\000u\002\000\000\000\000\000\000\313\006\000\000\000\000\000\000 \000\000\000\000\000\000\000\277\000\000\000\000\000\000\000\261\003\000\000\000\000\000\000|\000\000\000\000\000\000\000\\\002\000\000\000\000\000\000\362\001\000\000\000\000\000\000\254\006\000\000\000\000\000\000\202\006\000\000\000\000\000\000M\002\000\000\000\000\000\000^\000\000\000\000\000\000\000p\006\000\000\000\000\000\000\310\000\000\000\000\000\000\000\275\001\000\000\000\000\000\000R$\000\000\000\000\000\000\251\004\000\000\000\000\000\000\'\001\000\000\000\000\000\000\246\001\000\000\000\000\000\000\375\001\000\000\000\000\000\000z\006\000\000\000\000\000\000\037\002\000\000\000\000\000\000|\006\000\000\000\000\000\000\204\001\000\000\000\000\000\000E\002\000\000\000\000\000\000\246\001\000\000\000\000\000\000\325\001\000\000\000\000\000\000\355\000\000\000\000\000\000\000i\247\000\000\000\000\000\000\336\001\000\000\000\000\000\000\340\002\000\000\000\000\000\000W\002\000\000\000\000\000\000\251\000\000\000\000\000\000\000\221\002\000\000\000\000\000\000m\001\000\000\000\000\000\000\344\001\000\000\000\000\000\000\240\000\000\000\000\000\000\000\016\005\000\000\000\000\000\000\320\005\000\000\000\000\000\000H\000\000\000\000\000\000\000I\006\000\000\000\000\000\000\236\006\000\000\000\000\000\000@\002\000\000\000\000\000\000\334\003\000\000\000\000\000\000\340\000\000\000\000\000\000\000C\001\000\000\000\000\000\000\263\002\000\000\000\000\000\000\260\006\000\000\000\000\000\000\236\001\000\000\000\000\000\000p\004\000\000\000\000\000\000\003\006\000\000\000\000\000\000\344\000\000\000\000\000\000\000\316\000\000\000\000\000\000\000\024\002\000\000\000\000\000\000\'\000\000\000\000\000\000\000\364\005\000\000\000\000\000\000\336\004\000\000\000\000\000\000\000\000\000\000\000\000\000\000,\006\000\000\000\000\000\000\242\000\000\000\000\000\000\000\346\002\000\000\000\000\000\000D\005\000\000\000\000\000\000\317\003\000\000\000\000\000\000\311\006\000\000\000\000\000\000v\000\000\000\000\000\000\000Q\t\000\000\000\000\000\000&\002\000\000\000\000\000\000\231\000\000\000\000\000\000\000\323\002\000\000\000\000\000\0001\001\000\000\000\000\000\000\240\000\000\000\000\000\000\000\027\001\000\000\000\000\000\000\353\006\000\000\000\000\000\000\325\001\000\000\000\000\000\000\251\006\000\000\000\000\000\000\244\002\000\000\000\000\000\000\021\002\000\000\000\000\000\000f\001\000\000\000\000\000\000\010\005\000\000\000\000\000\000\022\002\000\000\000\000\000\000\314\000\000\000\000\000\000\000\353\001\000\000\000\000\000\000;\004\000\000\000\000\000\000\213\000\000\000\000\000\000\000\000\001\000\000\000\000\000\000\022\002\000\000\000\000\000\000\267\006\000\000\000\000\000\000\271\002\000\000\000\000\000\000\270\006\000\000\000\000\000\000r\002\000\000\000\000\000\000\200\006\000\000\000\000\000\000\350\005\000\000\000\000\000\000u\001\000\000\000\000\000\000 \005\000\000\000\000\000\000\306\000\000\000\000\000\000\000\324\000\000\000\000\000\000\000~\004\000\000\000\000\000\000i\002\000\000\000\000\000\000\000\000\000\000\000\000\000\000\217\000\000\000\000\000\000\000k\032\000\000\000\000\000\0005\006\000\000\000\000\000\000\235\003\000\000\000\000\000\000l\006\000\000\000\000\000\000\274\003\000\000\000\000\000\0009\001\000\000\000\000\000\000j\002\000\000\000\000\000\000L\001\000\000\000\000\000\000G\004\000\000\000\000\000\000\350\001\000\000\000\000\000\000\304\001\000\000\000\000\000\000\034\003\000\000\000\000\000\000\263\001\000\000\000\000\000\000\264\002\000\000\000\000\000\000\217\006\000\000\000\000\000\000\300\006\000\000\000\000\000\000\250\002\000\000\000\000\000\000k\000\000\000\000\000\000\0000\010\000\000\000\000\000\000\243\000\000\000\000\000\000\000\r\002\000\000\000\000\000\000\302\001\000\000\000\000\000\000\014\005\000\000\000\000\000\000\031\002\000\000\000\000\000\000\'\000\000\000\000\000\000\000\032\006\000\000\000\000\000\000\366\001\000\000\000\000\000\000\353\002\000\000\000\000\000\000|\035\000\000\000\000\000\000\265\000\000\000\000\000\000\000\202\002\000\000\000\000\000\000\242\000\000\000\000\000\000\000\013\002\000\000\000\000\000\000/\001\000\000\000\000\000\000\010\002\000\000\000\000\000\000\005\001\000\000\000\000\000\000\273\001\000\000\000\000\000\000\004\000\000\000\000\000\000\000\264\006\000\000\000\000\000\000O\003\000\000\000\000\000\000*\002\000\000\000\000\000\000R\006\000\000\000\000\000\000\243\002\000\000\000\000\000\000[\000\000\000\000\000\000\000$\003\000\000\000\000\000\000,\004\000\000\000\000\000\000\275\005\000\000\000\000\000\000\360\002\000\000\000\000\000\0007\002\000\000\000\000\000\000\000\000\000\000\000\000\000\000\223\002\000\000\000\000\000\000\254\002\000\000\000\000\000\000\321\005\000\000\000\000\000\000\341\001\000\000\000\000\000\000\222\002\000\000\000\000\000\000\363\000\000\000\000\000\000\000\264\000\000\000\000\000\000\000e\006\000\000\000\000\000\000\200\002\000\000\000\000\000\000r\002\000\000\000\000\000\000\013\002\000\000\000\000\000\000\363\000\000\000\000\000\000\000\233\003\000\000\000\000\000\000\276\006\000\000\000\000\000\000i\006\000\000\000\000\000\000\n\010\000\000\000\000\000\000\261\002\000\000\000\000\000\000~\000\000\000\000\000\000\000\226\002\000\000\000\000\000\000\331\003\000\000\000\000\000\000\010\001\000\000\000\000\000\000S\000\000\000\000\000\000\000\010\002\000\000\000\000\000\000\353\006\000\000\000\000\000\000h\006\000\000\000\000\000\000\000\001\000\000\000\000\000\000\306\003\000\000\000\000\000\000\301\004\000\000\000\000\000\000K\001\000\000\000\000\000\000}\002\000\000\000\000\000\000\237\005\000\000\000\000\000\000\003\002\000\000\000\000\000\000M\000\000\000\000\000\000\000I\006\000\000\000\000\000\000R\001\000\000\000\000\000\000\030\001\000\000\000\000\000\000\223\000\000\000\000\000\000\000\033\001\000\000\000\000\000\000\245\005\000\000\000\000\000\000#\006\000\000\000\000\000\000\254\003\000\000\000\000\000\000&\000\000\000\000\000\000\000\265\001\000\000\000\000\000\000f\003\000\000\000\000\000\000\275\003\000\000\000\000\000\000\235\004\000\000\000\000\000\000\226\001\000\000\000\000\000\000\324\001\000\000\000\000\000\000\000\000\000\000\000\000\000\000\370\000\000\000\000\000\000\000!\004\000\000\000\000\000\000\273\004\000\000\000\000\000\000\305\003\000\000\000\000\000\000\250\004\000\000\000\000\000\000\020\000\000\000\000\000\000\000\034\003\000\000\000\000\000\000,\000\000\000\000\000\000\0002\002\000\000\000\000\000\000\020\002\000\000\000\000\000\000X\001\000\000\000\000\000\000w\002\000\000\000\000\000\000\205\002\000\000\000\000\000\000\315\003\000\000\000\000\000\000|\006\000\000\000\000\000\000\303\001\000\000\000\000\000\000\355\001\000\000\000\000\000\000y\002\000\000\000\000\000\000^\000\000\000\000\000\000\000-\004\000\000\000\000\000\000\255\010\000\000\000\000\000\000~\002\000\000\000\000\000\000^\002\000\000\000\000\000\000Z\002\000\000\000\000\000\000\013\002\000\000\000\000\000\000\263\002\000\000\000\000\000\000"
      }
    }
  }
}
node {
  name: "Const_3"
  op: "Const"
  device: "/device:CPU:0"
  attr {
    key: "_output_shapes"
    value {
      list {
        shape {
          dim {
            size: 537
          }
        }
      }
    }
  }
  attr {
    key: "dtype"
    value {
      type: DT_INT64
    }
  }
  attr {
    key: "value"
    value {
      tensor {
        dtype: DT_INT64
        tensor_shape {
          dim {
            size: 537
          }
        }
        tensor_content: "\000\000\000\000\000\000\000\000\000\000\000\000\000\000\000\000\000\000\000\000\000\000\000\000\006\000\000\000\000\000\000\000\005\000\000\000\000\000\000\000V\000\000\000\000\000\000\000\003\000\000\000\000\000\000\000\013\000\000\000\000\000\000\000\n\000\000\000\000\000\000\000\003\000\000\000\000\000\000\000\000\000\000\000\000\000\000\000\004\000\000\000\000\000\000\000\001\000\000\000\000\000\000\000\003\000\000\000\000\000\000\000\001\000\000\000\000\000\000\000\000\000\000\000\000\000\000\000\003\000\000\000\000\000\000\000\000\000\000\000\000\000\000\000\n\000\000\000\000\000\000\000\001\000\000\000\000\000\000\000\005\000\000\000\000\000\000\000X\001\000\000\000\000\000\000\003\000\000\000\000\000\000\000\001\000\000\000\000\000\000\000\000\000\000\000\000\000\000\000\027\000\000\000\000\000\000\000\004\000\000\000\000\000\000\000\007\000\000\000\000\000\000\000\000\000\000\000\000\000\000\000\001\000\000\000\000\000\000\000\n\000\000\000\000\000\000\000\000\000\000\000\000\000\000\000\002\000\000\000\000\000\000\000\000\000\000\000\000\000\000\000\001\000\000\000\000\000\000\000\000\000\000\000\000\000\000\000\001\000\000\000\000\000\000\000\001\000\000\000\000\000\000\000\003\000\000\000\000\000\000\000\001\000\000\000\000\000\000\000\000\000\000\000\000\000\000\000\032\000\000\000\000\000\000\000\000\000\000\000\000\000\000\000\001\000\000\000\000\000\000\000\002\000\000\000\000\000\000\000\002\000\000\000\000\000\000\000\000\000\000\000\000\000\000\000\000\000\000\000\000\000\000\000\000\000\000\000\000\000\000\000\004\000\000\000\000\000\000\000\000\000\000\000\000\000\000\000\000\000\000\000\000\000\000\000\010\000\000\000\000\000\000\000\000\000\000\000\000\000\000\000\002\000\000\000\000\000\000\000c\000\000\000\000\000\000\000\020\000\000\000\000\000\000\000\000\000\000\000\000\000\000\0000\000\000\000\000\000\000\000\003\000\000\000\000\000\000\000\t\000\000\000\000\000\000\000\000\000\000\000\000\000\000\000\000\000\000\000\000\000\000\000\001\000\000\000\000\000\000\000\005\000\000\000\000\000\000\000\001\000\000\000\000\000\000\000\017\000\000\000\000\000\000\000 \000\000\000\000\000\000\000\013\000\000\000\000\000\000\000\000\000\000\000\000\000\000\000\003\000\000\000\000\000\000\000\000\000\000\000\000\000\000\000\002\000\000\000\000\000\000\000\007\000\000\000\000\000\000\000\000\000\000\000\000\000\000\000\t\000\000\000\000\000\000\000\000\000\000\000\000\000\000\000\001\000\000\000\000\000\000\000\001\000\000\000\000\000\000\000\000\000\000\000\000\000\000\000\000\000\000\000\000\000\000\000\000\000\000\000\000\000\000\000\007\000\000\000\000\000\000\000\001\000\000\000\000\000\000\000\000\000\000\000\000\000\000\000\000\000\000\000\000\000\000\000\000\000\000\000\000\000\000\000\000\000\000\000\000\000\000\000\007\000\000\000\000\000\000\000\010\000\000\000\000\000\000\000\001\000\000\000\000\000\000\000\001\000\000\000\000\000\000\000\001\000\000\000\000\000\000\000\004\000\000\000\000\000\000\000\000\000\000\000\000\000\000\000\000\000\000\000\000\000\000\000\002\000\000\000\000\000\000\000\001\000\000\000\000\000\000\000\000\000\000\000\000\000\000\000\001\000\000\000\000\000\000\000\001\000\000\000\000\000\000\000\001\000\000\000\000\000\000\000\002\000\000\000\000\000\000\000\001\000\000\000\000\000\000\000T\000\000\000\000\000\000\000\000\000\000\000\000\000\000\000\000\000\000\000\000\000\000\000\030\000\000\000\000\000\000\000\002\000\000\000\000\000\000\000\007\000\000\000\000\000\000\000\003\000\000\000\000\000\000\000u\000\000\000\000\000\000\000\001\000\000\000\000\000\000\000\001\000\000\000\000\000\000\000\003\000\000\000\000\000\000\000\005\000\000\000\000\000\000\000y\000\000\000\000\000\000\000\000\000\000\000\000\000\000\000\000\000\000\000\000\000\000\000\000\000\000\000\000\000\000\000\000\000\000\000\000\000\000\000\000\000\000\000\000\000\000\000\002\000\000\000\000\000\000\000\001\000\000\000\000\000\000\000\030\000\000\000\000\000\000\000\002\000\000\000\000\000\000\000\"\000\000\000\000\000\000\000\004\000\000\000\000\000\000\000\006\000\000\000\000\000\000\000\001\000\000\000\000\000\000\000\000\000\000\000\000\000\000\000\001\000\000\000\000\000\000\000\004\000\000\000\000\000\000\000\027\000\000\000\000\000\000\000\002\000\000\000\000\000\000\000\003\000\000\000\000\000\000\000\000\000\000\000\000\000\000\000\001\000\000\000\000\000\000\000\003\000\000\000\000\000\000\000\001\000\000\000\000\000\000\000\001\000\000\000\000\000\000\000\001\000\000\000\000\000\000\000\000\000\000\000\000\000\000\000\001\000\000\000\000\000\000\000\002\000\000\000\000\000\000\000\014\000\000\000\000\000\000\000\003\000\000\000\000\000\000\000\000\000\000\000\000\000\000\000\000\000\000\000\000\000\000\000\006\000\000\000\000\000\000\000<\001\000\000\000\000\000\000\001\000\000\000\000\000\000\000\005\000\000\000\000\000\000\000\002\000\000\000\000\000\000\000\010\000\000\000\000\000\000\000\001\000\000\000\000\000\000\000\000\000\000\000\000\000\000\000\006\000\000\000\000\000\000\000\001\000\000\000\000\000\000\000\004\000\000\000\000\000\000\000\"\000\000\000\000\000\000\000\013\000\000\000\000\000\000\000\000\000\000\000\000\000\000\000\003\000\000\000\000\000\000\000\000\000\000\000\000\000\000\000\000\000\000\000\000\000\000\000\002\000\000\000\000\000\000\000\021\000\000\000\000\000\000\000\001\000\000\000\000\000\000\000\001\000\000\000\000\000\000\000\t\000\000\000\000\000\000\000\017\000\000\000\000\000\000\000\005\000\000\000\000\000\000\000\000\000\000\000\000\000\000\000\002\000\000\000\000\000\000\000#\000\000\000\000\000\000\000\001\000\000\000\000\000\000\000\000\000\000\000\000\000\000\000\000\000\000\000\000\000\000\000\006\000\000\000\000\000\000\000\002\000\000\000\000\000\000\000\000\000\000\000\000\000\000\000\003\000\000\000\000\000\000\000\001\000\000\000\000\000\000\000\000\000\000\000\000\000\000\000\003\000\000\000\000\000\000\000\002\000\000\000\000\000\000\000\007\000\000\000\000\000\000\000\000\000\000\000\000\000\000\000\347\000\000\000\000\000\000\000\000\000\000\000\000\000\000\000\t\000\000\000\000\000\000\000\000\000\000\000\000\000\000\000\000\000\000\000\000\000\000\000\000\000\000\000\000\000\000\000\003\000\000\000\000\000\000\000\000\000\000\000\000\000\000\000\000\000\000\000\000\000\000\000\001\000\000\000\000\000\000\000\001\000\000\000\000\000\000\000\007\000\000\000\000\000\000\000\001\000\000\000\000\000\000\000\001\000\000\000\000\000\000\000\004\000\000\000\000\000\000\000\002\000\000\000\000\000\000\000\001\000\000\000\000\000\000\000\000\000\000\000\000\000\000\000\002\000\000\000\000\000\000\000\000\000\000\000\000\000\000\000\000\000\000\000\000\000\000\000\000\000\000\000\000\000\000\000\001\000\000\000\000\000\000\000\001\000\000\000\000\000\000\000\001\000\000\000\000\000\000\000\004\000\000\000\000\000\000\000\000\000\000\000\000\000\000\000\003\000\000\000\000\000\000\000\001\000\000\000\000\000\000\000\004\000\000\000\000\000\000\000\000\000\000\000\000\000\000\000\013\000\000\000\000\000\000\000)\000\000\000\000\000\000\000\000\000\000\000\000\000\000\000\000\000\000\000\000\000\000\000\002\000\000\000\000\000\000\000\000\000\000\000\000\000\000\000\004\000\000\000\000\000\000\000\000\000\000\000\000\000\000\000\005\000\000\000\000\000\000\000\024\000\000\000\000\000\000\000\000\000\000\000\000\000\000\000\004\000\000\000\000\000\000\000$\000\000\000\000\000\000\000\r\000\000\000\000\000\000\000\001\000\000\000\000\000\000\000+\000\000\000\000\000\000\000*\000\000\000\000\000\000\000\t\000\000\000\000\000\000\000\000\000\000\000\000\000\000\000\000\000\000\000\000\000\000\000\000\000\000\000\000\000\000\000\020\000\000\000\000\000\000\000\002\000\000\000\000\000\000\000\003\000\000\000\000\000\000\000\000\000\000\000\000\000\000\000\006\000\000\000\000\000\000\000\005\000\000\000\000\000\000\000\003\000\000\000\000\000\000\000\000\000\000\000\000\000\000\000\001\000\000\000\000\000\000\000\007\000\000\000\000\000\000\000\000\000\000\000\000\000\000\000\000\000\000\000\000\000\000\000\002\000\000\000\000\000\000\000\001\000\000\000\000\000\000\000\000\000\000\000\000\000\000\000\000\000\000\000\000\000\000\000\001\000\000\000\000\000\000\000\002\000\000\000\000\000\000\000\000\000\000\000\000\000\000\000\001\000\000\000\000\000\000\000\000\000\000\000\000\000\000\000\000\000\000\000\000\000\000\000i\000\000\000\000\000\000\000\002\000\000\000\000\000\000\000\000\000\000\000\000\000\000\000\001\000\000\000\000\000\000\000\000\000\000\000\000\000\000\000\000\000\000\000\000\000\000\000\001\000\000\000\000\000\000\000\004\000\000\000\000\000\000\000\016\005\000\000\000\000\000\000\001\000\000\000\000\000\000\000\006\000\000\000\000\000\000\000\016\026\000\000\000\000\000\000\t\000\000\000\000\000\000\000\001\000\000\000\000\000\000\000\004\000\000\000\000\000\000\000\001\000\000\000\000\000\000\000\005\000\000\000\000\000\000\000\000\000\000\000\000\000\000\000\006\000\000\000\000\000\000\000\000\000\000\000\000\000\000\000\000\000\000\000\000\000\000\000\030\000\000\000\000\000\000\000\000\000\000\000\000\000\000\000\000\000\000\000\000\000\000\000\000\000\000\000\000\000\000\000\000\000\000\000\000\000\000\000\001\000\000\000\000\000\000\000\000\000\000\000\000\000\000\000\000\000\000\000\000\000\000\000\003\000\000\000\000\000\000\000\001\000\000\000\000\000\000\000\030\000\000\000\000\000\000\000\001\000\000\000\000\000\000\000\000\000\000\000\000\000\000\000\\\000\000\000\000\000\000\000\002\000\000\000\000\000\000\000\024\000\000\000\000\000\000\000\000\000\000\000\000\000\000\000\000\000\000\000\000\000\000\000\010\000\000\000\000\000\000\000\000\000\000\000\000\000\000\000\001\000\000\000\000\000\000\000\026\000\000\000\000\000\000\000\002\000\000\000\000\000\000\000\003\000\000\000\000\000\000\000\001\000\000\000\000\000\000\000\001\000\000\000\000\000\000\000\004\000\000\000\000\000\000\000\001\000\000\000\000\000\000\000\000\000\000\000\000\000\000\000\001\000\000\000\000\000\000\000\001\000\000\000\000\000\000\000\000\000\000\000\000\000\000\000\r\000\000\000\000\000\000\000\007\000\000\000\000\000\000\000\002\000\000\000\000\000\000\000\001\000\000\000\000\000\000\000\000\000\000\000\000\000\000\000\004\000\000\000\000\000\000\000\001\000\000\000\000\000\000\000\000\000\000\000\000\000\000\000\002\000\000\000\000\000\000\000\000\000\000\000\000\000\000\000\001\000\000\000\000\000\000\000*\000\000\000\000\000\000\000\006\000\000\000\000\000\000\000\001\000\000\000\000\000\000\000\001\000\000\000\000\000\000\000\000\000\000\000\000\000\000\000\001\000\000\000\000\000\000\000\000\000\000\000\000\000\000\000\000\000\000\000\000\000\000\000\001\000\000\000\000\000\000\000Z\000\000\000\000\000\000\000\000\000\000\000\000\000\000\000\000\000\000\000\000\000\000\000\000\000\000\000\000\000\000\000\"\026\000\000\000\000\000\000\005\000\000\000\000\000\000\000\002\000\000\000\000\000\000\000\000\000\000\000\000\000\000\000\002\000\000\000\000\000\000\000N\000\000\000\000\000\000\000\005\000\000\000\000\000\000\000\000\000\000\000\000\000\000\000\000\000\000\000\000\000\000\000\000\000\000\000\000\000\000\000\001\000\000\000\000\000\000\000\037\000\000\000\000\000\000\000\001\000\000\000\000\000\000\000\n\000\000\000\000\000\000\000\002\000\000\000\000\000\000\000\005\000\000\000\000\000\000\000\005\000\000\000\000\000\000\000\003\000\000\000\000\000\000\000\001\000\000\000\000\000\000\000\001\000\000\000\000\000\000\000\001\000\000\000\000\000\000\000\002\000\000\000\000\000\000\000\000\000\000\000\000\000\000\000\001\000\000\000\000\000\000\000\000\000\000\000\000\000\000\000\001\000\000\000\000\000\000\000\000\000\000\000\000\000\000\000\004\000\000\000\000\000\000\000\000\000\000\000\000\000\000\000\000\000\000\000\000\000\000\000\n\000\000\000\000\000\000\000\004\000\000\000\000\000\000\000\026\000\000\000\000\000\000\000\001\000\000\000\000\000\000\000\001\000\000\000\000\000\000\000\003\000\000\000\000\000\000\000\000\000\000\000\000\000\000\000*\000\000\000\000\000\000\000\000\000\000\000\000\000\000\000\001\000\000\000\000\000\000\000\002\000\000\000\000\000\000\000\007\000\000\000\000\000\000\000\004\000\000\000\000\000\000\000\002\000\000\000\000\000\000\000\014\000\000\000\000\000\000\000\001\000\000\000\000\000\000\000\001\000\000\000\000\000\000\000\000\000\000\000\000\000\000\000\001\000\000\000\000\000\000\000\000\000\000\000\000\000\000\000\r\000\000\000\000\000\000\000\000\000\000\000\000\000\000\000\000\000\000\000\000\000\000\000\r\000\000\000\000\000\000\000\005\000\000\000\000\000\000\000\000\000\000\000\000\000\000\000\001\000\000\000\000\000\000\000\001\000\000\000\000\000\000\000\000\000\000\000\000\000\000\000\001\000\000\000\000\000\000\000\n\000\000\000\000\000\000\000\t\000\000\000\000\000\000\000\002\000\000\000\000\000\000\000\006\000\000\000\000\000\000\000\001\000\000\000\000\000\000\000\000\000\000\000\000\000\000\000\000\000\000\000\000\000\000\000\000\000\000\000\000\000\000\000\000\000\000\000\000\000\000\000\000\000\000\000\000\000\000\000\000\000\000\000\000\000\000\000\016\000\000\000\000\000\000\000J\000\000\000\000\000\000\000\025\000\000\000\000\000\000\000\000\000\000\000\000\000\000\000\001\000\000\000\000\000\000\000\000\000\000\000\000\000\000\000\000\000\000\000\000\000\000\000\000\000\000\000\000\000\000\000\000\000\000\000\000\000\000\000\004\000\000\000\000\000\000\000\000\000\000\000\000\000\000\000\001\000\000\000\000\000\000\000\024\000\000\000\000\000\000\000\000\000\000\000\000\000\000\000\003\000\000\000\000\000\000\000\014\000\000\000\000\000\000\000\023\000\000\000\000\000\000\000\000\000\000\000\000\000\000\000\001\000\000\000\000\000\000\0001\000\000\000\000\000\000\000\000\000\000\000\000\000\000\000\001\000\000\000\000\000\000\000\000\000\000\000\000\000\000\000\001\000\000\000\000\000\000\000\000\000\000\000\000\000\000\000\004\000\000\000\000\000\000\000\002\000\000\000\000\000\000\000\000\000\000\000\000\000\000\000\000\000\000\000\000\000\000\000\017\000\000\000\000\000\000\000\000\000\000\000\000\000\000\000\000\000\000\000\000\000\000\000\007\000\000\000\000\000\000\000\002\000\000\000\000\000\000\000\001\000\000\000\000\000\000\000\002\000\000\000\000\000\000\000\000\000\000\000\000\000\000\000\001\000\000\000\000\000\000\000\005\000\000\000\000\000\000\000\002\000\000\000\000\000\000\000\003\000\000\000\000\000\000\000\000\000\000\000\000\000\000\000\002\000\000\000\000\000\000\000\001\000\000\000\000\000\000\000\021\000\000\000\000\000\000\000\001\000\000\000\000\000\000\000\000\000\000\000\000\000\000\000\003\000\000\000\000\000\000\000\002\000\000\000\000\000\000\000\000\000\000\000\000\000\000\000\000\000\000\000\000\000\000\000\001\000\000\000\000\000\000\000\000\000\000\000\000\000\000\000\002\000\000\000\000\000\000\000\001\000\000\000\000\000\000\000\000\000\000\000\000\000\000\000\003\000\000\000\000\000\000\000\000\000\000\000\000\000\000\000\001\000\000\000\000\000\000\000\000\000\000\000\000\000\000\000\000\000\000\000\000\000\000\000\000\000\000\000\000\000\000\000\000\000\000\000\000\000\000\000\000\000\000\000\000\000\000\000\r\000\000\000\000\000\000\000\002\000\000\000\000\000\000\000\002\000\000\000\000\000\000\000\002\000\000\000\000\000\000\000\000\000\000\000\000\000\000\000\000\000\000\000\000\000\000\000\001\000\000\000\000\000\000\000\000\000\000\000\000\000\000\000\000\000\000\000\000\000\000\000\000\000\000\000\000\000\000\000\004\000\000\000\000\000\000\000\001\000\000\000\000\000\000\000\005\000\000\000\000\000\000\000\010\000\000\000\000\000\000\000\000\000\000\000\000\000\000\000\007\000\000\000\000\000\000\000\001\000\000\000\000\000\000\000\t\000\000\000\000\000\000\000\001\000\000\000\000\000\000\000\001\000\000\000\000\000\000\000\255\000\000\000\000\000\000\000\000\000\000\000\000\000\000\000\000\000\000\000\000\000\000\000\005\000\000\000\000\000\000\000\002\000\000\000\000\000\000\000\000\000\000\000\000\000\000\000\005\000\000\000\000\000\000\000\000\000\000\000\000\000\000\000\000\000\000\000\000\000\000\000&\000\000\000\000\000\000\000\001\000\000\000\000\000\000\000\000\000\000\000\000\000\000\000\000\000\000\000\000\000\000\000\000\000\000\000\000\000\000\000\000\000\000\000\000\000\000\000\000\000\000\000\000\000\000\000\000\000\000\000\000\000\000\000\003\000\000\000\000\000\000\000\001\000\000\000\000\000\000\000\000\000\000\000\000\000\000\000\n\000\000\000\000\000\000\000\010\000\000\000\000\000\000\000\003\000\000\000\000\000\000\000\240\000\000\000\000\000\000\000\003\000\000\000\000\000\000\000H\000\000\000\000\000\000\000\001\000\000\000\000\000\000\000\000\000\000\000\000\000\000\000\000\000\000\000\000\000\000\000\000\000\000\000\000\000\000\000\000\000\000\000\000\000\000\000\001\000\000\000\000\000\000\000\000\000\000\000\000\000\000\000\001\000\000\000\000\000\000\000\000\000\000\000\000\000\000\000\002\000\000\000\000\000\000\000+\000\000\000\000\000\000\000\002\000\000\000\000\000\000\000\001\000\000\000\000\000\000\000\000\000\000\000\000\000\000\000\002\000\000\000\000\000\000\000\004\000\000\000\000\000\000\000"
      }
    }
  }
}
node {
  name: "Const_4"
  op: "Const"
  device: "/device:CPU:0"
  attr {
    key: "_output_shapes"
    value {
      list {
        shape {
          dim {
            size: 537
          }
        }
      }
    }
  }
  attr {
    key: "dtype"
    value {
      type: DT_INT64
    }
  }
  attr {
    key: "value"
    value {
      tensor {
        dtype: DT_INT64
        tensor_shape {
          dim {
            size: 537
          }
        }
        tensor_content: "\000\000\000\000\000\000\000\000\001\000\000\000\000\000\000\000\001\000\000\000\000\000\000\000\001\000\000\000\000\000\000\000\001\000\000\000\000\000\000\000\000\000\000\000\000\000\000\000\001\000\000\000\000\000\000\000\001\000\000\000\000\000\000\000\001\000\000\000\000\000\000\000\001\000\000\000\000\000\000\000\001\000\000\000\000\000\000\000\001\000\000\000\000\000\000\000\001\000\000\000\000\000\000\000\001\000\000\000\000\000\000\000\001\000\000\000\000\000\000\000\001\000\000\000\000\000\000\000\000\000\000\000\000\000\000\000\000\000\000\000\000\000\000\000\001\000\000\000\000\000\000\000\001\000\000\000\000\000\000\000\001\000\000\000\000\000\000\000\001\000\000\000\000\000\000\000\001\000\000\000\000\000\000\000\001\000\000\000\000\000\000\000\001\000\000\000\000\000\000\000\001\000\000\000\000\000\000\000\000\000\000\000\000\000\000\000\000\000\000\000\000\000\000\000\001\000\000\000\000\000\000\000\001\000\000\000\000\000\000\000\000\000\000\000\000\000\000\000\001\000\000\000\000\000\000\000\001\000\000\000\000\000\000\000\001\000\000\000\000\000\000\000\001\000\000\000\000\000\000\000\001\000\000\000\000\000\000\000\001\000\000\000\000\000\000\000\001\000\000\000\000\000\000\000\000\000\000\000\000\000\000\000\000\000\000\000\000\000\000\000\000\000\000\000\000\000\000\000\001\000\000\000\000\000\000\000\001\000\000\000\000\000\000\000\001\000\000\000\000\000\000\000\001\000\000\000\000\000\000\000\001\000\000\000\000\000\000\000\001\000\000\000\000\000\000\000\001\000\000\000\000\000\000\000\000\000\000\000\000\000\000\000\000\000\000\000\000\000\000\000\000\000\000\000\000\000\000\000\001\000\000\000\000\000\000\000\001\000\000\000\000\000\000\000\001\000\000\000\000\000\000\000\001\000\000\000\000\000\000\000\000\000\000\000\000\000\000\000\000\000\000\000\000\000\000\000\001\000\000\000\000\000\000\000\001\000\000\000\000\000\000\000\001\000\000\000\000\000\000\000\001\000\000\000\000\000\000\000\001\000\000\000\000\000\000\000\001\000\000\000\000\000\000\000\001\000\000\000\000\000\000\000\001\000\000\000\000\000\000\000\001\000\000\000\000\000\000\000\000\000\000\000\000\000\000\000\001\000\000\000\000\000\000\000\000\000\000\000\000\000\000\000\000\000\000\000\000\000\000\000\001\000\000\000\000\000\000\000\001\000\000\000\000\000\000\000\000\000\000\000\000\000\000\000\001\000\000\000\000\000\000\000\001\000\000\000\000\000\000\000\001\000\000\000\000\000\000\000\001\000\000\000\000\000\000\000\001\000\000\000\000\000\000\000\000\000\000\000\000\000\000\000\000\000\000\000\000\000\000\000\001\000\000\000\000\000\000\000\001\000\000\000\000\000\000\000\000\000\000\000\000\000\000\000\001\000\000\000\000\000\000\000\001\000\000\000\000\000\000\000\001\000\000\000\000\000\000\000\000\000\000\000\000\000\000\000\001\000\000\000\000\000\000\000\001\000\000\000\000\000\000\000\001\000\000\000\000\000\000\000\001\000\000\000\000\000\000\000\000\000\000\000\000\000\000\000\001\000\000\000\000\000\000\000\001\000\000\000\000\000\000\000\001\000\000\000\000\000\000\000\000\000\000\000\000\000\000\000\001\000\000\000\000\000\000\000\001\000\000\000\000\000\000\000\001\000\000\000\000\000\000\000\001\000\000\000\000\000\000\000\001\000\000\000\000\000\000\000\001\000\000\000\000\000\000\000\001\000\000\000\000\000\000\000\001\000\000\000\000\000\000\000\000\000\000\000\000\000\000\000\001\000\000\000\000\000\000\000\001\000\000\000\000\000\000\000\000\000\000\000\000\000\000\000\001\000\000\000\000\000\000\000\001\000\000\000\000\000\000\000\001\000\000\000\000\000\000\000\000\000\000\000\000\000\000\000\001\000\000\000\000\000\000\000\000\000\000\000\000\000\000\000\000\000\000\000\000\000\000\000\001\000\000\000\000\000\000\000\000\000\000\000\000\000\000\000\001\000\000\000\000\000\000\000\001\000\000\000\000\000\000\000\001\000\000\000\000\000\000\000\001\000\000\000\000\000\000\000\000\000\000\000\000\000\000\000\001\000\000\000\000\000\000\000\001\000\000\000\000\000\000\000\000\000\000\000\000\000\000\000\001\000\000\000\000\000\000\000\001\000\000\000\000\000\000\000\000\000\000\000\000\000\000\000\000\000\000\000\000\000\000\000\001\000\000\000\000\000\000\000\001\000\000\000\000\000\000\000\001\000\000\000\000\000\000\000\001\000\000\000\000\000\000\000\001\000\000\000\000\000\000\000\001\000\000\000\000\000\000\000\001\000\000\000\000\000\000\000\001\000\000\000\000\000\000\000\001\000\000\000\000\000\000\000\001\000\000\000\000\000\000\000\001\000\000\000\000\000\000\000\001\000\000\000\000\000\000\000\001\000\000\000\000\000\000\000\000\000\000\000\000\000\000\000\000\000\000\000\000\000\000\000\001\000\000\000\000\000\000\000\001\000\000\000\000\000\000\000\000\000\000\000\000\000\000\000\001\000\000\000\000\000\000\000\001\000\000\000\000\000\000\000\001\000\000\000\000\000\000\000\000\000\000\000\000\000\000\000\001\000\000\000\000\000\000\000\000\000\000\000\000\000\000\000\001\000\000\000\000\000\000\000\001\000\000\000\000\000\000\000\001\000\000\000\000\000\000\000\001\000\000\000\000\000\000\000\000\000\000\000\000\000\000\000\001\000\000\000\000\000\000\000\001\000\000\000\000\000\000\000\000\000\000\000\000\000\000\000\000\000\000\000\000\000\000\000\001\000\000\000\000\000\000\000\001\000\000\000\000\000\000\000\001\000\000\000\000\000\000\000\001\000\000\000\000\000\000\000\000\000\000\000\000\000\000\000\000\000\000\000\000\000\000\000\001\000\000\000\000\000\000\000\001\000\000\000\000\000\000\000\000\000\000\000\000\000\000\000\001\000\000\000\000\000\000\000\001\000\000\000\000\000\000\000\001\000\000\000\000\000\000\000\001\000\000\000\000\000\000\000\001\000\000\000\000\000\000\000\001\000\000\000\000\000\000\000\001\000\000\000\000\000\000\000\001\000\000\000\000\000\000\000\000\000\000\000\000\000\000\000\001\000\000\000\000\000\000\000\001\000\000\000\000\000\000\000\000\000\000\000\000\000\000\000\001\000\000\000\000\000\000\000\001\000\000\000\000\000\000\000\001\000\000\000\000\000\000\000\001\000\000\000\000\000\000\000\001\000\000\000\000\000\000\000\001\000\000\000\000\000\000\000\000\000\000\000\000\000\000\000\001\000\000\000\000\000\000\000\001\000\000\000\000\000\000\000\001\000\000\000\000\000\000\000\001\000\000\000\000\000\000\000\001\000\000\000\000\000\000\000\000\000\000\000\000\000\000\000\001\000\000\000\000\000\000\000\001\000\000\000\000\000\000\000\001\000\000\000\000\000\000\000\000\000\000\000\000\000\000\000\001\000\000\000\000\000\000\000\001\000\000\000\000\000\000\000\001\000\000\000\000\000\000\000\000\000\000\000\000\000\000\000\001\000\000\000\000\000\000\000\001\000\000\000\000\000\000\000\001\000\000\000\000\000\000\000\001\000\000\000\000\000\000\000\001\000\000\000\000\000\000\000\001\000\000\000\000\000\000\000\001\000\000\000\000\000\000\000\001\000\000\000\000\000\000\000\001\000\000\000\000\000\000\000\001\000\000\000\000\000\000\000\001\000\000\000\000\000\000\000\001\000\000\000\000\000\000\000\001\000\000\000\000\000\000\000\001\000\000\000\000\000\000\000\001\000\000\000\000\000\000\000\001\000\000\000\000\000\000\000\000\000\000\000\000\000\000\000\001\000\000\000\000\000\000\000\000\000\000\000\000\000\000\000\001\000\000\000\000\000\000\000\000\000\000\000\000\000\000\000\001\000\000\000\000\000\000\000\001\000\000\000\000\000\000\000\001\000\000\000\000\000\000\000\000\000\000\000\000\000\000\000\000\000\000\000\000\000\000\000\001\000\000\000\000\000\000\000\001\000\000\000\000\000\000\000\001\000\000\000\000\000\000\000\000\000\000\000\000\000\000\000\001\000\000\000\000\000\000\000\000\000\000\000\000\000\000\000\000\000\000\000\000\000\000\000\000\000\000\000\000\000\000\000\000\000\000\000\000\000\000\000\001\000\000\000\000\000\000\000\001\000\000\000\000\000\000\000\000\000\000\000\000\000\000\000\001\000\000\000\000\000\000\000\000\000\000\000\000\000\000\000\001\000\000\000\000\000\000\000\000\000\000\000\000\000\000\000\001\000\000\000\000\000\000\000\001\000\000\000\000\000\000\000\001\000\000\000\000\000\000\000\001\000\000\000\000\000\000\000\000\000\000\000\000\000\000\000\001\000\000\000\000\000\000\000\000\000\000\000\000\000\000\000\001\000\000\000\000\000\000\000\001\000\000\000\000\000\000\000\001\000\000\000\000\000\000\000\001\000\000\000\000\000\000\000\001\000\000\000\000\000\000\000\000\000\000\000\000\000\000\000\001\000\000\000\000\000\000\000\001\000\000\000\000\000\000\000\001\000\000\000\000\000\000\000\001\000\000\000\000\000\000\000\000\000\000\000\000\000\000\000\001\000\000\000\000\000\000\000\001\000\000\000\000\000\000\000\000\000\000\000\000\000\000\000\000\000\000\000\000\000\000\000\000\000\000\000\000\000\000\000\001\000\000\000\000\000\000\000\000\000\000\000\000\000\000\000\000\000\000\000\000\000\000\000\001\000\000\000\000\000\000\000\000\000\000\000\000\000\000\000\000\000\000\000\000\000\000\000\000\000\000\000\000\000\000\000\001\000\000\000\000\000\000\000\001\000\000\000\000\000\000\000\001\000\000\000\000\000\000\000\001\000\000\000\000\000\000\000\000\000\000\000\000\000\000\000\000\000\000\000\000\000\000\000\001\000\000\000\000\000\000\000\001\000\000\000\000\000\000\000\000\000\000\000\000\000\000\000\001\000\000\000\000\000\000\000\001\000\000\000\000\000\000\000\001\000\000\000\000\000\000\000\001\000\000\000\000\000\000\000\001\000\000\000\000\000\000\000\001\000\000\000\000\000\000\000\001\000\000\000\000\000\000\000\000\000\000\000\000\000\000\000\001\000\000\000\000\000\000\000\000\000\000\000\000\000\000\000\000\000\000\000\000\000\000\000\001\000\000\000\000\000\000\000\000\000\000\000\000\000\000\000\001\000\000\000\000\000\000\000\001\000\000\000\000\000\000\000\001\000\000\000\000\000\000\000\001\000\000\000\000\000\000\000\000\000\000\000\000\000\000\000\001\000\000\000\000\000\000\000\000\000\000\000\000\000\000\000\001\000\000\000\000\000\000\000\001\000\000\000\000\000\000\000\001\000\000\000\000\000\000\000\001\000\000\000\000\000\000\000\000\000\000\000\000\000\000\000\000\000\000\000\000\000\000\000\001\000\000\000\000\000\000\000\001\000\000\000\000\000\000\000\001\000\000\000\000\000\000\000\001\000\000\000\000\000\000\000\000\000\000\000\000\000\000\000\000\000\000\000\000\000\000\000\000\000\000\000\000\000\000\000\001\000\000\000\000\000\000\000\001\000\000\000\000\000\000\000\001\000\000\000\000\000\000\000\001\000\000\000\000\000\000\000\001\000\000\000\000\000\000\000\000\000\000\000\000\000\000\000\001\000\000\000\000\000\000\000\000\000\000\000\000\000\000\000\001\000\000\000\000\000\000\000\001\000\000\000\000\000\000\000\001\000\000\000\000\000\000\000\001\000\000\000\000\000\000\000\001\000\000\000\000\000\000\000\001\000\000\000\000\000\000\000\001\000\000\000\000\000\000\000\001\000\000\000\000\000\000\000\001\000\000\000\000\000\000\000\001\000\000\000\000\000\000\000\000\000\000\000\000\000\000\000\001\000\000\000\000\000\000\000\001\000\000\000\000\000\000\000\000\000\000\000\000\000\000\000\000\000\000\000\000\000\000\000\000\000\000\000\000\000\000\000\001\000\000\000\000\000\000\000\000\000\000\000\000\000\000\000\000\000\000\000\000\000\000\000\000\000\000\000\000\000\000\000\000\000\000\000\000\000\000\000\001\000\000\000\000\000\000\000\000\000\000\000\000\000\000\000\001\000\000\000\000\000\000\000\001\000\000\000\000\000\000\000\000\000\000\000\000\000\000\000\001\000\000\000\000\000\000\000\001\000\000\000\000\000\000\000\001\000\000\000\000\000\000\000\001\000\000\000\000\000\000\000\000\000\000\000\000\000\000\000\000\000\000\000\000\000\000\000\001\000\000\000\000\000\000\000\001\000\000\000\000\000\000\000\000\000\000\000\000\000\000\000\001\000\000\000\000\000\000\000\001\000\000\000\000\000\000\000\000\000\000\000\000\000\000\000\001\000\000\000\000\000\000\000\001\000\000\000\000\000\000\000\000\000\000\000\000\000\000\000\001\000\000\000\000\000\000\000\001\000\000\000\000\000\000\000\001\000\000\000\000\000\000\000\001\000\000\000\000\000\000\000\000\000\000\000\000\000\000\000\000\000\000\000\000\000\000\000\001\000\000\000\000\000\000\000\001\000\000\000\000\000\000\000\001\000\000\000\000\000\000\000\000\000\000\000\000\000\000\000\000\000\000\000\000\000\000\000\000\000\000\000\000\000\000\000\000\000\000\000\000\000\000\000\000\000\000\000\000\000\000\000\000\000\000\000\000\000\000\000\000\000\000\000\000\000\000\000\000\000\000\000\000\000\000\000\001\000\000\000\000\000\000\000\001\000\000\000\000\000\000\000\001\000\000\000\000\000\000\000\001\000\000\000\000\000\000\000\001\000\000\000\000\000\000\000\001\000\000\000\000\000\000\000\001\000\000\000\000\000\000\000\001\000\000\000\000\000\000\000\001\000\000\000\000\000\000\000\000\000\000\000\000\000\000\000\000\000\000\000\000\000\000\000\000\000\000\000\000\000\000\000\000\000\000\000\000\000\000\000\001\000\000\000\000\000\000\000\001\000\000\000\000\000\000\000\001\000\000\000\000\000\000\000\001\000\000\000\000\000\000\000\001\000\000\000\000\000\000\000\001\000\000\000\000\000\000\000\000\000\000\000\000\000\000\000\001\000\000\000\000\000\000\000\001\000\000\000\000\000\000\000\001\000\000\000\000\000\000\000\000\000\000\000\000\000\000\000\001\000\000\000\000\000\000\000\001\000\000\000\000\000\000\000\000\000\000\000\000\000\000\000\000\000\000\000\000\000\000\000\000\000\000\000\000\000\000\000\001\000\000\000\000\000\000\000\001\000\000\000\000\000\000\000\001\000\000\000\000\000\000\000\001\000\000\000\000\000\000\000\001\000\000\000\000\000\000\000\001\000\000\000\000\000\000\000\001\000\000\000\000\000\000\000\001\000\000\000\000\000\000\000\001\000\000\000\000\000\000\000\001\000\000\000\000\000\000\000\000\000\000\000\000\000\000\000\001\000\000\000\000\000\000\000\001\000\000\000\000\000\000\000\001\000\000\000\000\000\000\000\001\000\000\000\000\000\000\000\001\000\000\000\000\000\000\000\000\000\000\000\000\000\000\000\001\000\000\000\000\000\000\000\000\000\000\000\000\000\000\000\001\000\000\000\000\000\000\000\001\000\000\000\000\000\000\000\001\000\000\000\000\000\000\000\001\000\000\000\000\000\000\000\000\000\000\000\000\000\000\000\001\000\000\000\000\000\000\000\000\000\000\000\000\000\000\000\001\000\000\000\000\000\000\000\001\000\000\000\000\000\000\000\001\000\000\000\000\000\000\000\001\000\000\000\000\000\000\000\001\000\000\000\000\000\000\000\001\000\000\000\000\000\000\000\001\000\000\000\000\000\000\000\001\000\000\000\000\000\000\000\001\000\000\000\000\000\000\000\001\000\000\000\000\000\000\000\001\000\000\000\000\000\000\000\001\000\000\000\000\000\000\000\000\000\000\000\000\000\000\000\001\000\000\000\000\000\000\000\001\000\000\000\000\000\000\000\001\000\000\000\000\000\000\000\000\000\000\000\000\000\000\000\001\000\000\000\000\000\000\000\001\000\000\000\000\000\000\000\001\000\000\000\000\000\000\000\001\000\000\000\000\000\000\000\001\000\000\000\000\000\000\000\000\000\000\000\000\000\000\000\001\000\000\000\000\000\000\000\001\000\000\000\000\000\000\000\001\000\000\000\000\000\000\000\001\000\000\000\000\000\000\000\001\000\000\000\000\000\000\000\000\000\000\000\000\000\000\000\001\000\000\000\000\000\000\000\001\000\000\000\000\000\000\000\001\000\000\000\000\000\000\000\001\000\000\000\000\000\000\000\001\000\000\000\000\000\000\000\001\000\000\000\000\000\000\000\001\000\000\000\000\000\000\000\001\000\000\000\000\000\000\000\001\000\000\000\000\000\000\000\001\000\000\000\000\000\000\000\001\000\000\000\000\000\000\000\001\000\000\000\000\000\000\000\001\000\000\000\000\000\000\000\001\000\000\000\000\000\000\000\001\000\000\000\000\000\000\000\000\000\000\000\000\000\000\000\001\000\000\000\000\000\000\000\001\000\000\000\000\000\000\000\001\000\000\000\000\000\000\000\000\000\000\000\000\000\000\000\000\000\000\000\000\000\000\000\001\000\000\000\000\000\000\000\000\000\000\000\000\000\000\000\001\000\000\000\000\000\000\000\001\000\000\000\000\000\000\000\001\000\000\000\000\000\000\000\001\000\000\000\000\000\000\000\000\000\000\000\000\000\000\000\001\000\000\000\000\000\000\000\000\000\000\000\000\000\000\000\001\000\000\000\000\000\000\000\000\000\000\000\000\000\000\000\001\000\000\000\000\000\000\000\001\000\000\000\000\000\000\000\001\000\000\000\000\000\000\000\001\000\000\000\000\000\000\000\000\000\000\000\000\000\000\000\001\000\000\000\000\000\000\000\001\000\000\000\000\000\000\000\001\000\000\000\000\000\000\000\001\000\000\000\000\000\000\000\001\000\000\000\000\000\000\000\001\000\000\000\000\000\000\000\001\000\000\000\000\000\000\000\001\000\000\000\000\000\000\000\001\000\000\000\000\000\000\000\001\000\000\000\000\000\000\000\001\000\000\000\000\000\000\000\000\000\000\000\000\000\000\000\001\000\000\000\000\000\000\000\000\000\000\000\000\000\000\000\001\000\000\000\000\000\000\000\000\000\000\000\000\000\000\000\001\000\000\000\000\000\000\000\001\000\000\000\000\000\000\000\001\000\000\000\000\000\000\000\001\000\000\000\000\000\000\000\001\000\000\000\000\000\000\000\001\000\000\000\000\000\000\000\001\000\000\000\000\000\000\000\001\000\000\000\000\000\000\000\000\000\000\000\000\000\000\000\001\000\000\000\000\000\000\000\000\000\000\000\000\000\000\000\001\000\000\000\000\000\000\000\001\000\000\000\000\000\000\000\001\000\000\000\000\000\000\000\001\000\000\000\000\000\000\000\001\000\000\000\000\000\000\000"
      }
    }
  }
}
node {
  name: "dnn/input_from_feature_columns/input_layer/favoritesCount/ExpandDims/dim"
  op: "Const"
  input: "^add"
  attr {
    key: "_output_shapes"
    value {
      list {
        shape {
        }
      }
    }
  }
  attr {
    key: "dtype"
    value {
      type: DT_INT32
    }
  }
  attr {
    key: "value"
    value {
      tensor {
        dtype: DT_INT32
        tensor_shape {
        }
        int_val: -1
      }
    }
  }
}
node {
  name: "dnn/input_from_feature_columns/input_layer/favoritesCount/ExpandDims"
  op: "ExpandDims"
  input: "Const"
  input: "dnn/input_from_feature_columns/input_layer/favoritesCount/ExpandDims/dim"
  attr {
    key: "T"
    value {
      type: DT_INT64
    }
  }
  attr {
    key: "Tdim"
    value {
      type: DT_INT32
    }
  }
  attr {
    key: "_output_shapes"
    value {
      list {
        shape {
          dim {
            size: 537
          }
          dim {
            size: 1
          }
        }
      }
    }
  }
}
node {
  name: "dnn/input_from_feature_columns/input_layer/favoritesCount/ToFloat"
  op: "Cast"
  input: "dnn/input_from_feature_columns/input_layer/favoritesCount/ExpandDims"
  attr {
    key: "DstT"
    value {
      type: DT_FLOAT
    }
  }
  attr {
    key: "SrcT"
    value {
      type: DT_INT64
    }
  }
  attr {
    key: "_output_shapes"
    value {
      list {
        shape {
          dim {
            size: 537
          }
          dim {
            size: 1
          }
        }
      }
    }
  }
}
node {
  name: "dnn/input_from_feature_columns/input_layer/favoritesCount/Shape"
  op: "Const"
  input: "^add"
  attr {
    key: "_output_shapes"
    value {
      list {
        shape {
          dim {
            size: 2
          }
        }
      }
    }
  }
  attr {
    key: "dtype"
    value {
      type: DT_INT32
    }
  }
  attr {
    key: "value"
    value {
      tensor {
        dtype: DT_INT32
        tensor_shape {
          dim {
            size: 2
          }
        }
        tensor_content: "\031\002\000\000\001\000\000\000"
      }
    }
  }
}
node {
  name: "dnn/input_from_feature_columns/input_layer/favoritesCount/strided_slice/stack"
  op: "Const"
  input: "^add"
  attr {
    key: "_output_shapes"
    value {
      list {
        shape {
          dim {
            size: 1
          }
        }
      }
    }
  }
  attr {
    key: "dtype"
    value {
      type: DT_INT32
    }
  }
  attr {
    key: "value"
    value {
      tensor {
        dtype: DT_INT32
        tensor_shape {
          dim {
            size: 1
          }
        }
        int_val: 0
      }
    }
  }
}
node {
  name: "dnn/input_from_feature_columns/input_layer/favoritesCount/strided_slice/stack_1"
  op: "Const"
  input: "^add"
  attr {
    key: "_output_shapes"
    value {
      list {
        shape {
          dim {
            size: 1
          }
        }
      }
    }
  }
  attr {
    key: "dtype"
    value {
      type: DT_INT32
    }
  }
  attr {
    key: "value"
    value {
      tensor {
        dtype: DT_INT32
        tensor_shape {
          dim {
            size: 1
          }
        }
        int_val: 1
      }
    }
  }
}
node {
  name: "dnn/input_from_feature_columns/input_layer/favoritesCount/strided_slice/stack_2"
  op: "Const"
  input: "^add"
  attr {
    key: "_output_shapes"
    value {
      list {
        shape {
          dim {
            size: 1
          }
        }
      }
    }
  }
  attr {
    key: "dtype"
    value {
      type: DT_INT32
    }
  }
  attr {
    key: "value"
    value {
      tensor {
        dtype: DT_INT32
        tensor_shape {
          dim {
            size: 1
          }
        }
        int_val: 1
      }
    }
  }
}
node {
  name: "dnn/input_from_feature_columns/input_layer/favoritesCount/strided_slice"
  op: "StridedSlice"
  input: "dnn/input_from_feature_columns/input_layer/favoritesCount/Shape"
  input: "dnn/input_from_feature_columns/input_layer/favoritesCount/strided_slice/stack"
  input: "dnn/input_from_feature_columns/input_layer/favoritesCount/strided_slice/stack_1"
  input: "dnn/input_from_feature_columns/input_layer/favoritesCount/strided_slice/stack_2"
  attr {
    key: "Index"
    value {
      type: DT_INT32
    }
  }
  attr {
    key: "T"
    value {
      type: DT_INT32
    }
  }
  attr {
    key: "_output_shapes"
    value {
      list {
        shape {
        }
      }
    }
  }
  attr {
    key: "begin_mask"
    value {
      i: 0
    }
  }
  attr {
    key: "ellipsis_mask"
    value {
      i: 0
    }
  }
  attr {
    key: "end_mask"
    value {
      i: 0
    }
  }
  attr {
    key: "new_axis_mask"
    value {
      i: 0
    }
  }
  attr {
    key: "shrink_axis_mask"
    value {
      i: 1
    }
  }
}
node {
  name: "dnn/input_from_feature_columns/input_layer/favoritesCount/Reshape/shape/1"
  op: "Const"
  input: "^add"
  attr {
    key: "_output_shapes"
    value {
      list {
        shape {
        }
      }
    }
  }
  attr {
    key: "dtype"
    value {
      type: DT_INT32
    }
  }
  attr {
    key: "value"
    value {
      tensor {
        dtype: DT_INT32
        tensor_shape {
        }
        int_val: 1
      }
    }
  }
}
node {
  name: "dnn/input_from_feature_columns/input_layer/favoritesCount/Reshape/shape"
  op: "Pack"
  input: "dnn/input_from_feature_columns/input_layer/favoritesCount/strided_slice"
  input: "dnn/input_from_feature_columns/input_layer/favoritesCount/Reshape/shape/1"
  attr {
    key: "N"
    value {
      i: 2
    }
  }
  attr {
    key: "T"
    value {
      type: DT_INT32
    }
  }
  attr {
    key: "_output_shapes"
    value {
      list {
        shape {
          dim {
            size: 2
          }
        }
      }
    }
  }
  attr {
    key: "axis"
    value {
      i: 0
    }
  }
}
node {
  name: "dnn/input_from_feature_columns/input_layer/favoritesCount/Reshape"
  op: "Reshape"
  input: "dnn/input_from_feature_columns/input_layer/favoritesCount/ToFloat"
  input: "dnn/input_from_feature_columns/input_layer/favoritesCount/Reshape/shape"
  attr {
    key: "T"
    value {
      type: DT_FLOAT
    }
  }
  attr {
    key: "Tshape"
    value {
      type: DT_INT32
    }
  }
  attr {
    key: "_output_shapes"
    value {
      list {
        shape {
          dim {
            size: 537
          }
          dim {
            size: 1
          }
        }
      }
    }
  }
}
node {
  name: "dnn/input_from_feature_columns/input_layer/followersCount/ExpandDims/dim"
  op: "Const"
  input: "^add"
  attr {
    key: "_output_shapes"
    value {
      list {
        shape {
        }
      }
    }
  }
  attr {
    key: "dtype"
    value {
      type: DT_INT32
    }
  }
  attr {
    key: "value"
    value {
      tensor {
        dtype: DT_INT32
        tensor_shape {
        }
        int_val: -1
      }
    }
  }
}
node {
  name: "dnn/input_from_feature_columns/input_layer/followersCount/ExpandDims"
  op: "ExpandDims"
  input: "Const_1"
  input: "dnn/input_from_feature_columns/input_layer/followersCount/ExpandDims/dim"
  attr {
    key: "T"
    value {
      type: DT_INT64
    }
  }
  attr {
    key: "Tdim"
    value {
      type: DT_INT32
    }
  }
  attr {
    key: "_output_shapes"
    value {
      list {
        shape {
          dim {
            size: 537
          }
          dim {
            size: 1
          }
        }
      }
    }
  }
}
node {
  name: "dnn/input_from_feature_columns/input_layer/followersCount/ToFloat"
  op: "Cast"
  input: "dnn/input_from_feature_columns/input_layer/followersCount/ExpandDims"
  attr {
    key: "DstT"
    value {
      type: DT_FLOAT
    }
  }
  attr {
    key: "SrcT"
    value {
      type: DT_INT64
    }
  }
  attr {
    key: "_output_shapes"
    value {
      list {
        shape {
          dim {
            size: 537
          }
          dim {
            size: 1
          }
        }
      }
    }
  }
}
node {
  name: "dnn/input_from_feature_columns/input_layer/followersCount/Shape"
  op: "Const"
  input: "^add"
  attr {
    key: "_output_shapes"
    value {
      list {
        shape {
          dim {
            size: 2
          }
        }
      }
    }
  }
  attr {
    key: "dtype"
    value {
      type: DT_INT32
    }
